<pad>
<eos>
<unk>
,
.
die
der
und
in
zu
den
von
das
ist
für
@-@
mit
auf
des
eine
es
wir
im
Sie
nicht
ein
werden
ich
&quot;
-
dass
dem
sich
auch
sind
an
wird
als
(
)
um
oder
wie
:
über
haben
einer
hat
bei
sie
zur
aus
diese
einen
er
nach
können
wenn
zum
einem
durch
nur
dieser
uns
so
kann
aber
vor
!
noch
daß
Kommission
am
was
wurde
sein
ver@@
sehr
Herr
alle
man
müssen
/
?
er@@
diesem
mehr
a
dieses
Union
Europäischen
bis
dies
hier
war
eines
ihre
möchte
an@@
vom
unsere
en
unter
de
ge@@
gibt
te
Präsident
Hotel
sowie
ten
da
&apos;
EU
the
zwischen
muss
keine
un@@
damit
Bericht
Parlament
dann
ab@@
Ihnen
...
s
Mitgliedstaaten
anderen
en@@
ein@@
k@@
Ver@@
immer
Europa
be@@
;
diesen
e
S@@
gegen
t
An@@
heute
wurden
B@@
seine
aus@@
Zeit
Frau
K@@
unserer
jedoch
t@@
i
habe
sondern
neue
sch@@
o
Europäische
T@@
and
Menschen
bereits
s@@
ohne
sollte
Jahr
G@@
P@@
viele
A@@
D@@
andere
z@@
gen
Ab@@
ihrer
europäischen
finden
f@@
dazu
mich
sollten
2
zwei
%
Jahren
Ihre
g@@
denen
neuen
ung
doch
ganz
auf@@
denn
H@@
M@@
zu@@
Rat
F@@
Entwicklung
jetzt
machen
einige
ent@@
Frage
vor@@
d@@
allen
geht
während
bietet
seit
E@@
ch@@
weil
n@@
Ein@@
liegt
ungs@@
meine
ter
Welt
ihr
e@@
über@@
1
in@@
R@@
of
Unternehmen
ungen
wieder
selbst
dafür
L@@
W@@
schon
to
darauf
&#93;
seiner
&#91;
lassen
Aus@@
m
N@@
st@@
nun
Sch@@
ob
C@@
daher
Bereich
sten
Lage
Maßnahmen
Informationen
b@@
3
dabei
ge
al@@
m@@
mir
ihren
geben
Jahre
ab
würde
viel
on
Herrn
sagen
wo
allem
o@@
re@@
Arbeit
wollen
insbesondere
bin
darüber
gut
unseren
ern
stellen
deshalb
unser
el@@
Er@@
u@@
Vor@@
Land
stehen
beim
also
etwas
ischen
Länder
Be@@
kommen
waren
Zimmer
möglich
Z@@
enden
um@@
ische
V@@
de@@
sehen
natürlich
O@@
4
steht
lichen
is
Unterstützung
Ländern
Rahmen
liche
erhalten
ersten
d
welche
le
Parlaments
Zusammenarbeit
li@@
Teil
politischen
wichtig
besteht
soll
p@@
5
einfach
drei
Vorschlag
wäre
Fall
unter@@
tun
deren
einmal
Bürger
v@@
seinen
l@@
letzten
Ziel
tes
ar@@
weitere
as
du
Namen
ens
eren
meiner
di@@
Stadt
Fragen
bitte
Problem
n
ende
es@@
vielen
l
große
J@@
I@@
-@@
ert
Seite
k
weiter
ste
E
Art
Kollegen
alles
großen
h@@
Recht
bringen
Re@@
worden
Daten
besonders
or@@
a@@
ti@@
g
i@@
ja
Verfügung
Sicherheit
Bedeutung
gehen
sowohl
kein
la
wissen
Regierung
10
könnte
davon
Möglichkeit
Staaten
y@@
eigenen
ale
Fraktion
dort
bieten
muß
el
r@@
Thema
ger
Probleme
.@@
führen
innerhalb
zwar
In@@
&amp;
Politik
on@@
aller
Weise
chen
System
Kommissar
lich
Kunden
end
befindet
hatte
all
erreichen
j@@
stellt
USA
Ende
jeder
gegenüber
at
Zukunft
ihnen
wirklich
Ihrer
ri@@
Beispiel
unterstützen
le@@
ger@@
möchten
Euro
z
verschiedenen
entfernt
politische
u
Richtlinie
Rolle
der@@
kommt
internationalen
Un@@
allerdings
direkt
Weg
Frauen
nehmen
Seiten
te@@
außerdem
y
europäische
erste
ins
ro@@
at@@
ere
schen
sp@@
�
Tag
Ihren
isch
erte
ter@@
et
ers
bar
Auf@@
U@@
Artikel
r
Programm
Ihr
al
arbeiten
Meinung
ä@@
weniger
se
beiden
b
sk@@
be
or
zi@@
Lösung
Al@@
indem
c@@
ch
ts
unserem
Zusammenhang
aufgrund
Situation
Uhr
gesagt
sogar
ck@@
se@@
sen
etwa
pro
daran
2009
Hilfe
gerade
si@@
30
St@@
Mittel
erten
gen@@
erung
dessen
20
th@@
Produkte
Leben
Präsidentin
la@@
ebenfalls
gilt
Millionen
darin
schaffen
6
st
Region
halten
Zu@@
bzw.
Grund
macht
genau
nämlich
ges
Europas
Schutz
will
hinaus
vielleicht
Haus
gemacht
I
Unter@@
is@@
it
ra@@
w@@
weiterhin
elle
Kinder
alen
gute
em@@
len
Haupt@@
sicher
Über@@
Hotels
betrifft
ihm
ser@@
einigen
ihn
am@@
&#124;
A
darf
che
ten@@
erst
Rates
ken
seinem
zusammen
ene
unterstützt
ne
fen
Ebene
brauchen
ler
neben
Deutschland
7
nichts
solche
f
Punkt
Internet
Personen
gleichzeitig
jeden
ebenso
ber@@
Finanz@@
öffentlichen
Aussprache
Qualität
nationalen
nutzen
meisten
ur@@
setzen
et@@
Wirtschaft
sollen
statt
dürfen
glaube
nen
Form
ihrem
em
Gemeinschaft
sche
politik
Rechte
obwohl
durch@@
handelt
ö@@
Software
ü@@
keinen
würden
os
Abstimmung
gt
Ge@@
au@@
x
sei
3@@
wichtige
her@@
8
for
bedeutet
wegen
us
Ort
zunächst
je
Bezug
2010
klar
beispielsweise
ischer
weit
it@@
Um@@
Kosten
besser
deutlich
15
Website
schnell
führt
Kon@@
alten
ak@@
ma@@
findet
Zugang
ke
cht@@
bereich
besten
Service
Arbeits@@
Gesellschaft
werde
Die
bekannt
nach@@
licher
gehört
nächsten
Strategie
ar
Richtung
los
me
eln
enen
Grund@@
Dank
zen
ber
50
x@@
lange
ie
Menschenrechte
darum
2008
Ansicht
bleiben
Markt
ko@@
Umsetzung
China
US
ben
jede
Ziele
us@@
ange@@
op@@
Nähe
schließlich
ung@@
tischen
hin
h
Mar@@
Vertrag
könnten
Bedingungen
ziehen
recht
Verantwortung
voll
sen@@
Rück@@
Verfahren
notwendig
ellen
jedes
hoffe
Demokratie
system
gemeinsamen
oft
wirtschaftlichen
Anwendung
fast
kon@@
men
Grundlage
gestellt
verwendet
2@@
Interesse
Vorschläge
p
Reihe
zurück@@
sozialen
erreicht
Geschichte
kleinen
ne@@
leider
sprechen
Gebiet
verschiedene
T
ß@@
km
Herren
Möglichkeiten
tatsächlich
S
ta@@
gel@@
tigen
Institutionen
zeigt
cht
gi@@
wenig
mit@@
per
Ihrem
vier
Di@@
den@@
4@@
are
Debatte
c
ei@@
weltweit
é@@
as@@
ul@@
Auswirkungen
gemeinsame
Ar@@
angesichts
Ent@@
liegen
unternehmen
Bau@@
cken
Version
falls
ag@@
verfügt
Mo@@
ermöglicht
Dienstleistungen
bi@@
gemeinsam
helfen
Abkommen
Hinblick
tragen
hatten
Damen
C
erforderlich
gegeben
tige
Berichterstatter
2007
Minuten
Tatsache
all@@
ausge@@
internationale
spielen
Preis
18@@
danken
gung
Regionen
ster
Verhandlungen
Mitglieder
zudem
lo@@
chten
hätte
är@@
dern
dadurch
leben
Ma@@
bereit
wer
ation
gesamten
warum
Haushalts@@
100
*
fragen
besch@@
entwickelt
5@@
einzelnen
Schritt
Gruppe
dar
2000
denke
Entscheidung
Vereinigten
da@@
weiteren
Liste
ges@@
Restaurant
stand
lässt
Wasser@@
geb@@
derzeit
jedem
legen
Ergebnis
Kolleginnen
gab
Pro@@
Wirtschafts@@
Bereichen
12
hin@@
Sp@@
konnte
liches
gleichen
gebracht
Krise
X@@
Bevölkerung
Geschäfts@@
mi@@
Antwort
Beziehungen
ek@@
hinsichtlich
Zentrum
bleibt
Änderungsanträge
kleine
Rechts@@
mein
land
ad@@
ol@@
ed@@
befinden
Neu@@
vi@@
neu
zeigen
ni@@
Änderungsantrag
Erfolg
geführt
weiß
mehrere
heißt
wichtigen
Blick
gerne
tische
ot@@
Türkei
Geld
Umwelt@@
Y@@
Ausdruck
B
cher
fahren
Abgeordneten
tern
unseres
man@@
bekommen
qu@@
est@@
z.B.
Inter@@
bel@@
Bo@@
Aufgabe
que
meinen
somit
wohl
del
Kontrolle
ze
Platz
Verbindung
un
9
Ro@@
Förderung
Nach@@
00
De@@
verbunden
rund
Verordnung
wer@@
gesch@@
Jahres
Einsatz
Mal
Projekt
Par@@
baren
one
gs
meines
lichkeit
einge@@
Forschung
enthalten
Sicherheits@@
auszu@@
enten
_
zeit
gestimmt
D
+
wei@@
O
sti@@
richtig
ing@@
ner
Behörden
Lösungen
Russland
im@@
25
Erweiterung
später
aten
wichtigsten
zurück
Entschließung
suchen
Nutzung
di
wobei
19@@
hotel
Ausschusses
Mail
Beitrag
2006
gern
Ausschuss
bisher
eigene
Landes
eb@@
ens@@
gemäß
trotz
genießen
verwenden
tig
zusammen@@
ker
enthält
6@@
ermöglichen
ationen
ganze
ieren
einzu@@
ganzen
eller
Verbesserung
Regierungen
insgesamt
klicken
pro@@
tet
wirtschaftliche
Se@@
völlig
Schaffung
fünf
wählen
nachdem
Stunden
kan@@
verbessern
Bar@@
Ergebnisse
Her@@
les
Verbraucher
genommen
7@@
Gelegenheit
bare
with
fördern
gleich
mal
mo@@
entwickeln
isches
soziale
zahlreiche
anzu@@
Wort
dennoch
großer
anderer
än@@
do
ach@@
bevor
Ex@@
Verwendung
Angebot
Woche
heit
ing
verfahren
Interessen
guten
ts@@
gehören
sorgen
verfügen
tiert
Notwendigkeit
ändern
24
sin@@
ur
sch
bestehen
Partner
fer@@
000
nimmt
Frankreich
Text
weise
lediglich
Themen
fest
chte
Mitarbeiter
Lissabon
gten
zeit@@
Bild
maßnahmen
Wert
Zeitpunkt
erungs@@
ka
treffen
Tage
Gesundheit
meinem
Welt@@
Kultur
Familie
Tra@@
fe
tieren
ff@@
40
om@@
Änderungen
angenommen
pf@@
ente
gel
ate
to@@
sh@@
per@@
nie
Erfahrung
Markt@@
par@@
bestimmte
ent
versuchen
verstehen
Wachstum
end@@
kurz
Anfang
fest@@
Person
Le@@
Einführung
Kampf
hohen
Juni
by
Auswahl
Herzen
tionen
Fahr@@
Co@@
Umgebung
äußerst
ap@@
Umwelt
ir@@
schriftlich
Zeit@@
genden
Mitglied
ations@@
versch@@
Prozess
Steuer@@
gar
Wasser
gesamte
Li@@
bringt
2005
ster@@
Anzahl
gewährleisten
Aktivitäten
Initiative
Mai
iert
stark
Wahl
fordern
Mit@@
re
scheint
mer
Meer
il@@
hohe
®
tung
En@@
Fach@@
Sprache
zweite
po@@
kt
ac@@
Produktion
Industrie
setzt
Zahl
Bekämpfung
Gäste
halte
Programme
Raum
Fortschritte
voll@@
det
é
Dinge
bestimmten
einschließlich
lage
ma
gesetzt
erster
Spiel@@
ck
zweitens
EN
we@@
September
9@@
Kommissarin
allein
Natur
G
8@@
hr@@
Online
selbstverständlich
inter@@
Hand
Preise
eigentlich
ru@@
Erachtens
leicht
größten
Lebens@@
eh@@
wann
ausgestattet
beide
so@@
möglichkeiten
Investitionen
ut@@
Insel
Bestimmungen
2004
Ko@@
fer
ender
Spiel
Erklärung
vergangenen
Mehrheit
einzige
and@@
solchen
systeme
Jahrhundert
L
Dezember
weder
Sozial@@
ell@@
sagte
Land@@
frei
programm
führung
weisen
Integration
fi@@
Funktion
diejenigen
Stelle
1.
Handel
ati@@
P
sieht
M
Gewalt
Gra@@
teile
hoch@@
weiter@@
ci@@
scher
no@@
zweiten
Entscheidungen
Energie
bo@@
ben@@
TV
aufgenommen
mittel
18
Punkte
öffentliche
Gefahr
0@@
Dialog
ums
lagen
wenige
aufzu@@
Aufmerksamkeit
Vorschriften
ell
Gu@@
tra@@
K
leisten
Position
bezüglich
Pi@@
Grenzen
Anforderungen
form@@
Bi@@
ha@@
Bar
F
lesen
Or@@
neuer
ca.
ären
à
Folgen
März
tem
Macht
Einzel@@
.com
Küche
2003
hei@@
zehn
Hoch@@
Freiheit
wichtiger
Projekte
enz@@
ine
Strand
14
X
lei@@
tiger
mon@@
geschlossen
ft
gte
Regeln
konnten
Bereiche
größte
Gästebewertungen
Design
ra
16
treten
min@@
bei@@
ali@@
zer@@
Beschäftigung
very
eingesetzt
11
schaft
v
Mon@@
tion@@
Hand@@
aktuellen
Präsidenten
gelten
bau@@
Man@@
R
Bildung
Landwirtschaft
au
Nationen
aufge@@
teilen
Wettbewerb
Tri@@
Standpunkt
Ch@@
europäischer
Team
erstens
lan@@
su@@
benötigen
fallen
tu@@
eben
Daten@@
Musik
lernen
Server
durchgeführt
Anfrage
hi@@
Con@@
ihres
this
nahe
Höhe
hinter
Linie
Diskussion
eher
Kraft
erwarten
men@@
ssen
genannten
getan
Oktober
pi@@
tions@@
Januar
ran@@
morgen
Benutzer
dung
erneut
werk
ig@@
Bemühungen
gende
Transparenz
danke
Firma
vergessen
2001
Öffentlichkeit
Ansatz
Berichts
kannst
Fehler
Gründen
ob@@
tre@@
sofort
sa@@
Sinne
Entwicklungs@@
freuen
Vi@@
no
ßen
besondere
Frühstück
Präsidentschaft
kl@@
tik@@
hätten
tete
we
me@@
lang
Sache
beitragen
ß
ant
Auffassung
geworden
á@@
innen
lung
kosten
Flug@@
bau
platz
Druck
U
stre@@
60
verhindern
entsprechend
Fällen
begrüße
fall
fort@@
he@@
Berlin
häufig
gefunden
denken
Au@@
Flughafen
w
GmbH
V
entsprechenden
bet@@
stimmen
stellung
weg
freien
Besch@@
len@@
ungsp@@
Bilder
Schlusselwortern
hen
mu@@
Ber@@
Monaten
Tagesordnung
aler
chen@@
behandelt
ismus
zumindest
abzu@@
he
hoch
Bürgern
Gen@@
ation@@
gleich@@
welches
kennen
berücksichtigt
Basis
Organisation
Qu@@
Juli
Urlaub
Windows
ständig
2002
endlich
erfolgt
Groß@@
cke
Änderung
Handels@@
paar
schließen
wieder@@
versucht
Ta@@
Tat
New
Behandlung
bu@@
Italien
Bu@@
Dateien
anderem
volle
frage
Tagen
anders
November
Selbst@@
richtige
ed
Ressourcen
Kar@@
Staats@@
Nr.
erter
tr@@
Datei
€
0
neues
ort
AG
überhaupt
oben
dar@@
Dis@@
zahlen
Technologie
Po@@
Bürgerinnen
13
els
gest@@
vertreten
verantwortlich
Atmosphäre
Republik
außerhalb
hal@@
modernen
ckt
Sicht
deutschen
technischen
letzte
tion
erklärt
Ak@@
Finanzierung
ho@@
tz@@
folgen
lösen
raum
Konferenz
Vergangenheit
beste
ina
Restaurants
Gruppen
Preis@@
Wahl@@
ör@@
Sport@@
Beginn
Lu@@
alte
folgt
gewesen
Spanien
ou@@
historischen
gesehen
Gesundheits@@
besuchen
oren
reichen
April
stell@@
1@@
unten
barkeit
her
ie@@
erfolgreich
Rechtsvorschriften
Kinder@@
schützen
erfüllen
vollständig
Reform
zusätzlich
braucht
bar@@
ca
gu@@
zahlreichen
ging
Wochen
erungen
sechs
erwartet
genug
Werte
geschaffen
Herausforderungen
Aufenthalt
you
jeweiligen
hören
Erfahrungen
legt
äre
stets
Milliarden
Information
amerikanischen
gend
Ru@@
Vertrauen
hält
Aspekte
Schritte
kam
moderne
Du@@
seines
verpflichtet
res
N
Sonder@@
kaum
wahrscheinlich
bessere
Prozent
Su@@
B.
Stadt@@
genutzt
Parteien
heutigen
privaten
Inhalt
Adresse
IT
Systems
Staat
erinnern
Der
room
z.
Arbeitnehmer
He@@
80
Gemeinschafts@@
ales
Sterne
gs@@
sektor
elt
prä@@
do@@
EUR
Angelegenheit
Schwierigkeiten
erlaubt
Krieg
ta
Ri@@
Ich
abschließend
&gt;
Berichterstatterin
schwer
bilden
entscheiden
persönlichen
Gesamt@@
rei@@
Bad
demokratischen
Folge
ausschließlich
Gebäude
The
möglicherweise
Dollar
folgenden
Hinsicht
ften
Vertreter
ER
Kultur@@
du@@
ce
500
beginnen
Arbeitsplätze
Angelegenheiten
Mittel@@
tive
ier@@
stelle
vollen
bald
Spieler
from
stra@@
Hotel@@
und@@
Fest@@
abge@@
übernehmen
Lo@@
freie
schi@@
Kur@@
zusätzliche
Opfer
200
ür@@
Praxis
laufen
gekommen
war@@
Verkehrs@@
Einrichtung
usw.
Außen@@
siehe
wert
Wunsch
Armut
Frieden
bewusst
ex@@
ler@@
sel@@
nationale
größere
alität
Solidarität
erkennen
cks
deine
mer@@
Natur@@
bitten
lose
allgemeinen
Ihres
Organisationen
Aufgaben
stärker
danach
ah@@
Annahme
aktuelle
Wohn@@
ori@@
rä@@
17@@
glauben
automatisch
ern@@
Wein@@
1999
=
begrüßen
darstellt
globalen
erfahren
So@@
gelegen
Kunden@@
lin@@
alt
Verfassung
mar@@
mindestens
vorgeschlagen
eindeutig
17
erleben
go
onen
ok@@
Leute
í@@
offen
ches
Partei
Verpflichtungen
ep@@
ferner
eu@@
Car@@
gebiet
Falle
erenden
www.@@
eng@@
Me@@
est
Systeme
Forschungs@@
EN@@
Anstrengungen
san@@
Mor@@
unbedingt
ms
av@@
benutzt
enz
kten
20@@
ator
rechte
Sitzung
äu@@
Osten
entspricht
Reformen
16@@
Produkt@@
Idee
außer
Wahlen
cher@@
Energie@@
Hause
trotzdem
Paris
bes@@
Kriterien
Karte
unver@@
Ober@@
Web@@
überzeugt
teten
benutzen
gang
San
Terrorismus
Zustimmung
Vereinbarung
ons
..
schaften
schutz
gleiche
hoffen
Protokoll
Personal
sicherlich
gezeigt
Produkt
genannt
Privat@@
Berg@@
gesprochen
co@@
Funktionen
tan@@
sobald
Vorteile
Sa@@
Verwaltung
Gegen@@
Anerkennung
pp@@
mm
gra@@
kre@@
entsprechende
Binnenmarkt
vorgelegt
wesentlich
prozess
zug
Gipfel
dringend
laden
lau@@
darunter
schreiben
unterschiedlichen
Ni@@
entweder
Computer
Technologien
Sektor
Instrument
Stabilität
15@@
wünschen
erwähnt
andererseits
Kunst@@
geh@@
West@@
hand@@
wenden
berücksichtigen
Haushalt
Kor@@
ang
gerecht
tisch
alisierung
ans
Sta@@
jene
zuletzt
service
anischen
ven
Produktions@@
Park
Zusammen@@
ari@@
erende
Luft@@
Bundes@@
zwei@@
länder
langen
mehreren
Management
Volk
Ausschuß
bestimmt
technische
Medien
Produkten
ße
deten
Per@@
Site
wi@@
seite
10@@
rechts
senden
Nor@@
verfügbar
Inhalte
kommenden
Ad@@
ER@@
bel
prüfen
Informations@@
kte
Besuch
hinweisen
richten
akzeptieren
Rei@@
Durchführung
H
Sommer
sicherzustellen
bestehenden
dete
ien
­
zentrum
Mitteilung
arbeitet
art
mann
Sk@@
besonderen
Schul@@
nt
online
gh@@
Augen
aktiv
dagegen
Th@@
land@@
verkehr
La@@
des@@
arbeit
erzielt
Ne@@
getroffen
ser
warten
ll@@
euch
70
Haltung
gabe
vermeiden
Am@@
Einfluss
finanziellen
zeiten
tik
liebe
trägt
Chance
möglichen
gelegt
notwendigen
rü@@
Ausbildung
Suche
Einrichtungen
bedarf
teilweise
dienen
ord@@
gegenwärtig
Ku@@
Kunst
umgesetzt
Anwendungen
Wettbewerbsfähigkeit
ver
Kontakt
markt
politischer
Qualitäts@@
erfüllt
welcher
wären
Homepage
speziell
ure
Straße
stärken
geändert
Ä@@
voller
ergreifen
ses
verfolgen
fahr@@
Zeichen
sierung
Web
anderes
Israel
Monate
teil@@
Tier@@
Unterkategorien
festgelegt
Irak
unabhängig
not
Kindern
con@@
stoffe
nisse
stimme
sämtliche
ität
sage
une
ve
erhöhen
emp@@
informieren
Por@@
geeignet
La
beziehen
Bild@@
Familien
fin@@
1.@@
Anspruch
Standard
Vertrags
handeln
ren@@
sches
Kern@@
eingerichtet
Do@@
zer
jederzeit
jeweils
ph@@
PC
Vielfalt
Vereinten
kaufen
erzielen
W
Konzept
90
testen
go@@
Menge
entschieden
fällt
mel@@
19
form
Bel@@
sicherheit
täglich
funktioniert
Großbritannien
lä@@
zentrale
Wege
ban@@
klare
tten
Meter
gkeit
Schutz@@
ant@@
Leistungen
profitieren
spielt
Stimme
verbessert
ku@@
ungs-
ist@@
sagt
wollte
gelangen
hervor@@
Instrumente
nahme
ad
manchmal
losen
links
zugleich
Veränderungen
etc.
übernachten
Mi@@
wider@@
for@@
angezeigt
Kre@@
Sprachen
{
Ausgaben
ess@@
deswegen
Ur@@
Tätigkeit
nachfolgend
Familien@@
ungs
Modell
fra@@
Forderung
Cor@@
Kenntnis
Februar
gruppe
AN@@
werte
CD
nung
Webseite
haus
Abschluss
gro@@
teil
Initiativen
pre@@
richtigen
Schweiz
London
vorgesehen
daten
Berichte
ment@@
gruppen
Stand
ausdrücklich
Arbeit@@
lungen
gewinnen
ana
erstellen
pe@@
reich@@
Wer@@
00@@
betonen
21
durchaus
neu@@
dr@@
betrachtet
gew@@
August
Teile
erstellt
Zeiten
co
Herausforderung
Vergleich
dis@@
Verwaltungs@@
Sal@@
El@@
Regelung
Mitte
that
finanzielle
wahr@@
Währung
beschlossen
Das
Abgeordnete
eri@@
Engagement
Kan@@
daraus
systems
Mitgliedstaat
Garten
ven@@
möglichst
gefordert
ast@@
ün@@
Japan
bedingungen
ES@@
Iran
Fonds
lokalen
Dienste
stu@@
14@@
beachten
ener@@
ren
Besucher
Ju@@
Standards
konkrete
alt@@
wenigen
Prä@@
verb@@
tel@@
starke
angeboten
sm@@
ris@@
IN@@
nächste
Ski@@
For@@
acht
konzentrieren
Arbeiten
Zeitraum
haft
Angaben
Gebieten
IS@@
schutz@@
Ho@@
ys
Jahrhunderts
industrie
Recht@@
son@@
vorhanden
Wel@@
Klein@@
fahrt
erklären
ik
unterschiedliche
ann@@
benötigt
steigen
kulturellen
Ö@@
br@@
Ka@@
mü@@
Pre@@
Stil
dank
gegründet
Komfort
darstellen
Wei@@
veröffentlicht
damals
geschrieben
willkommen
Hauses
achten
erscheint
enn@@
istischen
führte
führenden
gewährleistet
überall
offensichtlich
entstehen
son
Not@@
stei@@
Beitritt
tt@@
digen
stellte
Afrika
Worte
freue
ft@@
Programms
12@@
geln
erfolgen
Mio.
22
lig
No@@
Achtung
Einigung
schwierig
Kirche
gem
kom@@
überprüfen
Rede
persönlich
Gar@@
j
mp@@
Zweck
Zweifel
Herstellung
sionen
our
unbe@@
Griechenland
einerseits
einiger
tliche
Analyse
absolut
Forderungen
positive
fähigkeit
lichem
tätig
gestalten
Antrag
lu@@
tiv@@
soweit
Video
Österreich
Ger@@
heraus@@
Aufnahme
UN@@
ise
mm@@
rat
Auto
Geld@@
Ukraine
programme
anlagen
mor@@
Einhaltung
Terrasse
ich@@
umfasst
Stellungnahme
ideal
}
geschehen
verlassen
rück@@
Nutzen
arbeit@@
laut
diskutieren
Klima@@
eingehen
1,@@
Ü@@
AR@@
Bus@@
va
schönen
vielmehr
regionalen
ordnung
Regel
sta@@
tungs@@
ländern
sor@@
ST@@
geleistet
berg
300
mes
reicht
läuft
uren
Status
wa@@
Indien
Paket
enti@@
ertes
sonst
gebaut
sse
chter
Hintergrund
Polen
ls
positiv
dient
verfolgt
il
nis
Chi@@
Prioritäten
sichern
Barcelona
weit@@
Entwicklungen
Pal@@
Arbeitslosigkeit
Sorge
niemand
herzlich
Euro@@
In
ard
feld
Abend
Sehenswürdigkeiten
gutes
rufen
essen
Lei@@
zimmer
Banken
fe@@
Stärkung
Aspekt
Druck@@
Liefer@@
Arten
Vielzahl
mittels
Texte
garantiert
Lesung
Dokument
See
Name
Fuß
feststellen
tel
27
Kommunikation
einfache
chtung
einander
Ti@@
Gemeinsamen
lie@@
weiterer
ia
zeu@@
demokratische
übrigen
Partnerschaft
län@@
Hersteller
Film
War@@
miteinander
Nieder@@
Du
bezeichnet
folgende
elles
ste@@
Wieder@@
ologie
welt
Gesetz
kosten@@
Rechnung
uner@@
cker
II
lö@@
AL@@
spezielle
französischen
Wissen
Formen
Linux
Universität
Problemen
eingeführt
greifen
Museum
mehr@@
spricht
ai@@
ly
hingewiesen
Moment
13@@
Brüssel
Im@@
entdecken
glichen
Ideen
umfassende
Si@@
wor@@
gegenwärtigen
nte
angesprochen
ec@@
zen@@
ton
groß
komplett
großes
str@@
zuvor
Bedürfnisse
Nacht
Titel
erhält
stri@@
empfehlen
heiten
chs
Villa
betrachten
Elemente
kur@@
Anteil
Überwachung
zeichen
Globalisierung
Leistung
ro
mag
schöne
Irland
zufrieden
Märkte
einsetzen
ters
werke
Betrieb
Richtlinien
35
private
Debian
fordert
ierung
tigung
Com@@
isch@@
Menschenrechts@@
beginnt
fu@@
Te@@
IT@@
gn@@
Priorität
ausreichend
zt
Installation
Fortschritt
rau@@
Kritik
Beschreibung
fälle
Nord@@
größeren
internationaler
tim@@
geschützt
nten
erforderlichen
Grenz@@
ano
bestätigt
wagen
nennen
Politiker
Tre@@
vo@@
Regelungen
Verhältnis
keinerlei
besitzt
beteiligt
Pf@@
aufmerksam
fte
Bewertung
23
ds
endes
wunder@@
unterstütze
zeichnet
Ziel@@
siert
Agrar@@
Innovation
were
Geschäftsordnung
alismus
britischen
Verpflichtung
Sinn
To@@
see
$
länger
punkt
Bank
Innen@@
haften
politisch
Entwurf
1998
vers@@
vorliegenden
WTO
inzwischen
az@@
af@@
Prinzip
fern
por@@
San@@
2.
isi@@
Business
bin@@
dungen
Worten
ktion
gestern
mögliche
sofern
schlagen
sicht@@
bil@@
deutsche
Gesch@@
hren
nationaler
hergestellt
zuerst
Tradition
Größe
Mitteln
UN
seien
Maße
starken
tiges
trag@@
AS@@
verbundenen
ativen
ständigen
Kol@@
Technik
Verkehr
Gründe
National@@
Q@@
ote
beinhaltet
d.
gelöst
Voll@@
stattfinden
welchen
Ges@@
Risiken
ev@@
are@@
garantieren
tigkeit
Agentur
relativ
Unternehmens@@
früher
kostenlos
Beteiligung
Frei@@
Gas@@
übertragen
Monat
ks
Beschäftigungs@@
werk@@
booking.com
wirken
Gr@@
Fre@@
bl@@
mis@@
but
isen
satz
wesentlichen
ino
its
leistungs@@
bekannten
chs@@
Fu@@
Umfang
stehenden
Niveau
International
aren
verloren
able
globale
glich
solcher
ack@@
jüngsten
tä@@
Reise
в@@
umwelt@@
Erklärungen
Kosovo
Europäer
Gegensatz
allgemeine
cu@@
Öl@@
Werk@@
bli@@
Patienten
setzung
zählen
stadt
hauptsächlich
dienst
erhöht
gie
finde
anten
entsprechen
Unterkunft
End@@
Mann
Sti@@
Absatz
van
reisen
pl@@
Risiko
eit@@
AT@@
Aktionen
kürzlich
gene
Kom@@
jährlich
stes
zw@@
up
zus@@
Musik@@
Mu@@
bt
schafts@@
è@@
sicher@@
Kompromiss
Führung
gegangen
gelungen
fühlen
sto@@
wal@@
Entschließungsantrag
Mal@@
Fotos
Methode
Ereignisse
Mitgliedern
Club
führ@@
ini@@
Erde
Pa@@
Botschaft
guter
dlich
Ste@@
Flexibilität
staatlichen
tri@@
Eindruck
inen
2.@@
wasser@@
pa@@
persönliche
geöffnet
Aufbau
praktisch
net
Netzwerk
Gebiete
Volks@@
Hoffnung
erfordert
nachhaltige
speziellen
abgeschlossen
genauso
erin
Altstadt
Wirkung
Begriff
Verständnis
Mark@@
Realität
gehalten
na
sion
Infrastruktur
reden
Fl@@
ischem
produktion
eigen@@
Ba@@
tiven
Test@@
rechten
Empfehlungen
Fischerei@@
staaten
jungen
Aussicht
met@@
Treffen
geschieht
h.
nden
nis@@
Leit@@
komm@@
mat@@
Firmen
Schlüssel@@
bildung
leg@@
ideale
fol@@
junge
fo@@
rat@@
om
ili@@
ba@@
istische
informiert
wichtigste
Anti@@
kraft
Bildungs@@
Grundsatz
ener
Meeres@@
Anlagen
We@@
lungs@@
19.
bre@@
Inseln
dliche
staff
regelmäßig
Agenda
fre@@
gr@@
pres@@
Rezeption
ns
bewegen
einverstanden
woh@@
betroffen
Hälfte
anstatt
Nutzer
Dr.
Sen@@
Hinweis
Win@@
rechtlichen
karte
Durch@@
ore
trifft
einzigen
Gegenteil
berühmten
hafte
Beihilfen
ken@@
Fraktionen
pu@@
wodurch
abhängig
echte
stan@@
Betriebs@@
Ha@@
Grunde
rein@@
Gast@@
mal@@
festgestellt
Gi@@
uss@@
tungen
St.
Best@@
legung
bauen
führer
wirtschaft
Phase
Voraussetzungen
Und
York
fung
и@@
äl@@
ga
ff
Op@@
Städte
Wi@@
Bet@@
Vorteil
RE@@
sieren
Amsterdam
Kal@@
ausschuss
schneller
Fi@@
Post@@
vorgeschlagenen
Bedarf
Zahlungs@@
amen
Pol@@
ade
World
Ausland
Königreich
Z
stimmt
einzelne
tro@@
Bank@@
Hel@@
up@@
gan@@
Hauptstadt
Unabhängigkeit
Eigen@@
ierte
solange
stand@@
Internationalen
trä@@
age
Fisch@@
regeln
fach@@
betroffenen
traditionellen
Bestandteil
Bal@@
fall@@
Prüfung
angeht
genen
oni@@
sprache
Handel@@
tischer
igen
Buch
u.
Einkaufs@@
vollkommen
Ser@@
zweifellos
Sport
ner@@
stoff
weg@@
spezi@@
arten
spar@@
Erhöhung
Option
stellungen
Dienst
Gott
iten
Wettbewerbs@@
Fra@@
beschäftigt
gewählt
weiteres
Fähigkeit
anbieten
Sprach@@
Landschaft
keiner
Kraft@@
ic@@
Pu@@
ats
bahn
besseren
Veranstaltungen
buchen
Y
mittel@@
Tor@@
Gesetzgebung
tor
с@@
Teilen
Unternehmens
23@@
Männer
spiel@@
strategie
stein
schön
ó@@
Liberalisierung
con
fes@@
Struktur
reagieren
Center
Bahnhof
Friedens@@
begann
Mindest@@
Ruhe
management
Netz@@
ette
fand
una
Charakter
Gel@@
Bei@@
vorschlagen
Bewegung
Straßen@@
Links
fällen
fri@@
Internet@@
diskutiert
1997
Klimaanlage
Tages@@
nochmals
seitens
45
ite
Generation
regionale
Klimawandel
eten
have
Vertrags@@
sam
zes
zählt
Zahlen
entwicklung
Bürger@@
Überprüfung
Angebote
Farben
Laufe
Ratspräsident
spiel
sa
Apartments
Reaktion
Kontroll@@
gent@@
Rau@@
bezieht
Br@@
werfen
Licht
Lin@@
drittens
Methoden
stoffen
Ordnung
Diskriminierung
Grenze
Ost@@
sel
sam@@
spezifischen
Plan@@
liefern
Zimmern
bequem
Services
Ã
System@@
gewal@@
Westen
ide@@
derartige
Koordinierung
Farb@@
gsten
fl@@
leiden
verlieren
ppen
weshalb
tn@@
last
ps
Jo@@
Versuch
betont
good
Teilnehmer
leit@@
gezogen
plat@@
zunehmend
Min@@
manche
sieben
Amerika
gere@@
Fälle
Sonnen@@
fel@@
akzeptiert
barer
amerikanische
karten
Absch@@
Kli@@
Süd@@
Mat@@
Plan
en-
ländlichen
Anpassung
20.
Willen
Gästen
gender
spezifische
positiven
Kat@@
Stadtzentrum
vier@@
Nicht@@
bereiche
seh@@
Gefühl
Serie
lt
preise
bildet
verstärkt
gewisse
our@@
Telefon
wiederum
lag
station
ass@@
Har@@
ziert
breite
amp@@
id
international
enst@@
32
sicherstellen
Gesetze
Dokumente
Strategien
jemand
preis
Unterschiede
höhere
weltweiten
Haus@@
dritten
lauf@@
hol@@
Kombination
Tiere
ani@@
fan@@
ehemaligen
#
dre@@
Geb@@
Einklang
Aussch@@
Sanktionen
iger
Umständen
tur@@
Lehr@@
Vorbereitung
nötig
straße
Körper
Freunde
übernommen
anti@@
Fer@@
ergeben
höchste
Dimension
At@@
ei
Rad@@
Reise@@
Stunde
Zustand
Super@@
sicht
pri@@
Spiele
tigt
Anliegen
Holz@@
Studie
Diskussionen
Portugal
zustimmen
Teilnahme
basiert
derzeitigen
verlangen
Tur@@
Download
Süden
entlang
app@@
historische
bericht
schicken
Bedenken
heit@@
BIP
vol@@
allgemein
serviert
elten
behörden
Regierungs@@
Stellen
entscheidend
haltung
Kapital@@
Eigenschaften
Grundrechte
Waren
esen
lich@@
staatliche
3.
chung
Ansch@@
miss@@
tig@@
Tod
Pra@@
Lan@@
aktive
Mess@@
unternommen
fs
Geist
harmon@@
del@@
gre@@
kor@@
umfassenden
Format
Kollege
hierbei
zy@@
ausschusses
halt
21.
kli@@
anerkannt
schauen
²
hoher
öffnen
Berücksichtigung
starten
EG
Voraussetzung
out
Pan@@
gem@@
lieb@@
Bre@@
Material
befassen
schli@@
Freude
if
erlauben
Militär@@
Mag@@
zung
Anlage
bern
Projekt@@
Schule
AC@@
@
Untersuchung
Antworten
Hei@@
wichtiges
Ben@@
kleiner
unge@@
IC@@
Verfügbarkeit
Effizienz
behandeln
ßt
Übereinkommen
DVD
Kunde
heraus
fun@@
räume
IP
Lebensmittel@@
Verhalten
hilft
pr@@
les@@
Allgemeinen
preis@@
Architektur
EL@@
RO@@
konkreten
Sitz
dienste
Energi@@
Teil@@
erhältlich
unmittelbar
Tro@@
Fe@@
menschlichen
Hilfs@@
Such@@
betreffen
Grundsätze
0,@@
Ki@@
nahm
ziemlich
ju@@
Bau
Fenster
Karten
Schäden
Fin@@
Enterprise
führende
kulturelle
Verträge
Datenbank
Lebens
wesentliche
ings
Microsoft
gegen@@
1996
eng
tut
Nachfrage
ase
Formular
Küste
gesellschaft
gespielt
iz@@
Ban@@
28
Code
Winter@@
meist
Zugriff
sorgt
schließt
Wirtschafts-
gemein@@
qualität
schätzen
deiner
künftig
welt@@
26
sub@@
Doppel@@
ling
brechen
Kredit@@
Leitlinien
Wider@@
Pap@@
tritt
ersch@@
Wahrheit
win@@
Verbrechen
Völker
formen
wesen
recht@@
ruhigen
ze@@
Auftrag
alter
erscheinen
Google
Klima
OR@@
begonnen
italienischen
Foto
institutionellen
entwickelten
ete
beträgt
tierung
Gro@@
AD@@
Mas@@
ernst
stoff@@
Entwicklungsländern
Bra@@
Plat@@
Maßnahme
produkte
Fischerei
liste
leiten
weis@@
dlichen
stehende
wissenschaftlichen
kamen
Details
can
Bur@@
eröffnet
niemals
Kategorie
Beifall
Experten
zei@@
erer
fen@@
ative
Nahen
Versch@@
Schaden
frei@@
rasch
Absicht
FR
rate
Schi@@
the@@
Gedanken
fonds
etten
fähig
Erwartungen
bereit@@
letztlich
hinter@@
ES
grundlegenden
kurzem
kurze
Col@@
gar@@
Landwirte
zieht
tierten
bus
produk@@
umgeben
tsch@@
Norden
ef@@
näher
zusätzlichen
Materialien
bild
Motor@@
linie
mitten
eigenes
ak
Spezi@@
gefördert
Industrie@@
angemessen
interessiert
City
lebens@@
Werk
kämpfen
zentralen
kul@@
Bus
kt@@
Dar@@
Angriff
°
Definition
Anfragen
egal
ül@@
hervorragende
ment
Kind
Dom@@
ffen
ausgezeichnete
verändert
Wal@@
fein@@
grundlegende
mitteln
schnelle
ierten
Bahn
Kauf@@
75
OS
location
bestand
schwierigen
Mittelpunkt
erheblich
ständige
las
Schweden
natürlichen
Waffen
besitzen
Empfehlung
ark@@
ig
isierung
ue
entstanden
entgegen@@
Lauf@@
hängt
tau@@
füllen
westlichen
übrigens
Wien
grundsätzlich
bedeuten
Tagung
chinesischen
eins
atoren
fort
4.@@
verbringen
Wirklichkeit
sierte
Delegation
Mikro@@
bung
lat@@
Normen
getragen
installiert
Einstellung
schönsten
dir
stellten
Verbesserungen
Beispiele
teilnehmen
fil@@
tät
Regime
bezug
sätze
har@@
Cas@@
dé@@
tlich
Boden
Englisch
ya
offenen
reich
kol@@
sper@@
Eing@@
neuesten
dro@@
za
Verkauf
aktivieren
gliche
organisation
Rechts
Kl@@
Ambiente
Des@@
sions@@
Strukturen
ther@@
All@@
dritte
nah@@
fassen
Link
bri@@
kostet
behalten
Hu@@
spek@@
Agrarpolitik
gener
gie@@
ors
verlangt
3.@@
Forum
Unterschied
bedeut@@
denk@@
gungen
erweitert
Badezimmer
dungs@@
mus
ss@@
anschließend
oh@@
wo@@
Raum@@
organisiert
position
Krankheiten
sei@@
Beratung
lige
zufolge
11.
berechtigt
einfachen
sehe
nehmer
falsch
standards
aufzunehmen
DE
wirtschaftlicher
Schad@@
ek
produziert
tierte
bemüht
abkommen
spanischen
musste
anlage
Winter
schafft
š@@
Mehr@@
chts@@
,@@
umzusetzen
zurückzu@@
maschinen
NATO
ausgezeichneten
Überzeugung
Bri@@
wasser
markt@@
ursprünglichen
behörde
Steuern
Innen
Ratsvorsitz
Met@@
Mitgliedschaft
hilfe
LE@@
höchsten
höher
freundlich
verursacht
Star
präsentiert
Kamera
Berufs@@
Maschinen
yp@@
Stellung
Bucht
ehr@@
Vol@@
о@@
abgelehnt
Pflicht
fehlt
Nein
ha
Emissionen
Menschen@@
zugänglich
Atom@@
öl@@
lautet
weist
betreffenden
unden
weisung
extrem
ige
Flu@@
wirksam
Verbindungen
Abkommens
Kenn@@
Tourismus
bekämpfen
mä@@
Führungs@@
vollständige
ände
vieler
anische
Künstler
Verbraucher@@
Ausstattung
Fähigkeiten
Bahn@@
min
burg
mark@@
Klasse
erre@@
kal@@
kanischen
funktionieren
Golf
Anbieter
Kooperation
asse
jegliche
riesigen
Angst
wünsche
Bas@@
scht
Ausgangspunkt
Standard@@
verehrte
Dra@@
Minister
Punkten
ets
eiten
CO2
Dusche
messen
ve@@
betrieb@@
freiheit
hierzu
5.
Dorf
Zentral@@
entspannen
Entwicklungsländer
handel
gratulieren
Konflikt
künftigen
park
Projekten
übernimmt
UNO
jahr
Hafen
Eltern
Geräte
lichkeiten
stände
Alternative
durchzuführen
nahmen
vorgenommen
Harmonisierung
las@@
zone
via
weiten
freundliche
grün@@
Beweis
Nutz@@
ada
chter@@
derung
Station
Strukturfonds
Ei@@
schlägt
Haup@@
Erholung
dige
für@@
Gal@@
ergriffen
01
systemen
bezahlen
nachhaltigen
aufgefordert
sichere
Netz
ic
verschiedener
Luft
hervorheben
Gebrauch
Industri@@
Ausnahme
komme
wachsen
tur
verstanden
ron@@
struktur
Tisch
Abschnitt
Übereinstimmung
Fern@@
vorher
zogen
Pat@@
sinnvoll
Bestellung
Em@@
bal@@
fizierung
Rumänien
Verhandlungs@@
zahl@@
echten
Halb@@
ungefähr
d.h.
tenen
Straßen
fordere
ker@@
Partnern
Medi@@
dy
bislang
dig
Afghanistan
jährigen
machte
Ra@@
je@@
angemessene
ausgeschlossen
Austausch
Ratspräsidentschaft
kun@@
™
4.
Alter
KMU
Kopf
annehmen
Ausführungen
Leistungs@@
klaren
notwendige
beschränkt
ini
beit@@
Mensch
my
russischen
technik
weite
maschine
Arbeitsplätzen
Roma
Vorschlägen
zugunsten
Änderungsanträgen
tal@@
your
CH@@
hier@@
Vis@@
heits@@
kla@@
sprach
Immobilien@@
enzen
Chinas
Nachrichten
Video@@
rin@@
Farbe
u.a.
rein
Gestaltung
früheren
wollten
Verringerung
interessante
nahezu
ée
SP@@
ara
überzeugen
gestatten
sierten
Veranstaltung
öffentlich
Programmen
druck
EC@@
decken
Start
kurzen
ließ
Festlegung
bestätigen
denden
wirkt
Fernseh@@
Pool
Umgang
400
Faktoren
ausgesetzt
verringern
verhindert
reiche
Maß
gestellten
leben@@
zo@@
Drittländern
Schwerpunkt
är
definiert
plätze
theit
vorzu@@
verabschiedet
18.
ante
Gegend
aktiven
geboren
Go@@
Prinzipien
beglückwünschen
ka@@
res@@
gän@@
durchführen
sodass
erh@@
zulassen
¤
Beziehung
Kommunikations@@
Val@@
far@@
nungs@@
vari@@
xi@@
е@@
zunehmen
ähnlich
time
Sommer@@
Gleichgewicht
einzigartige
zuständigen
Geschäfte
ach
Gesellschaften
Ster@@
2020
gli@@
д@@
Ausstellung
breiten
unmöglich
Ausführung
Kilometer
ausgesprochen
si
gespeichert
tiv
Vo@@
Websites
Buchung
liefert
ese
ass
oten
Wissenschaft
Schlafzimmer
Außenpolitik
gehende
Rot@@
olo@@
mt
Übersetzung
Res@@
Vereinbarungen
scheinen
höheren
satz@@
München
spor@@
sol@@
tene
Fort@@
Reis@@
vous
Komponenten
spartner
altung
ursprünglich
gearbeitet
sern
pool
Transport@@
Element
Justiz
Mand@@
aufnehmen
geprüft
Wein
schlecht
verleihen
Hin@@
mei@@
Schluss
1995
Problems
Zentralbank
dende
Garantie
Weiter@@
normalerweise
britische
Sach@@
bemerk@@
passiert
holen
0er
150
entwurf
Verteidigung
hrt
Costa
tag
Spa
inn@@
Beiträge
Produk@@
Planung
fa@@
lü@@
tt
Gerichte
Wir@@
Auto@@
tz
,00
nunmehr
ga@@
Optionen
Asien
Geh@@
Sub@@
Wohl@@
direkten
Werbung
verändern
welchem
Erd@@
schrift
ös@@
Hil@@
nieder@@
bestehende
th
Plenum
Minderheiten
best@@
ligen
Plattform
ations
entsteht
star@@
Tran@@
Drogen@@
Jahres@@
Regierungskonferenz
rechts@@
assen
drücken
hinzufügen
linien
ppe
zentral
lang@@
ssi@@
individuelle
lokale
Lö@@
2,@@
gerichtet
inmitten
Gespräche
Bil@@
Hü@@
gener@@
nor@@
Handeln
Wander@@
teilt
wohnen
Institution
Sonne
gezwungen
ki
eignet
letztendlich
Ausgabe
CO@@
Miss@@
Ziffer
Spar@@
chern
installieren
Chancen
Einstellungen
flü@@
gestaltet
lands
opp@@
viel@@
perfekt
werten
mb@@
és
ut
rechtliche
erleichtern
bestimmen
sorgfältig
chti@@
eter
sprachen
Sol@@
Multi@@
Fol@@
igkeit
ausschuß
turen
5.@@
dürfte
Gründung
zig
Verbot
erinnert
fördert
jün@@
0.@@
Ware
tw@@
vertre@@
ön@@
Bemerkungen
Freiheiten
Liebe
Zwei@@
bemühen
Einbeziehung
6.@@
Komp@@
pen
arm@@
Aktion
fle@@
Studenten
Wünsche
gebiete
plan
Zoll@@
Umfeld
erreichbar
begrüßt
Sil@@
Sek@@
tief@@
mut@@
ausgeführt
deckt
sucht
Reform@@
PL
dich
heutige
Deutschen
Stück
Zusatz@@
Marktes
Veröffentlichung
....
page
staat
Charta
RA@@
direkte
organisationen
schu@@
Film@@
pen@@
Hor@@
Buch@@
raten
gef@@
bekannte
col@@
erfolgreiche
Trans@@
geltenden
Haftung
aden
Casino
IS
präsentieren
Identität
eck
dan@@
Mobilität
schau@@
innovative
a.
ski
á
vieles
Mis@@
zieren
fläche
ko
ack
sat@@
zieh@@
tlichen
ry
erst@@
dor@@
Bes@@
how
tere
Hinter@@
rooms
Arbeitsmarkt
Zielen
ME@@
stat@@
lauf
Wirtschaft@@
wie@@
Essen
einrichtungen
äch@@
betrieben
WLAN
bad
rati@@
Mc@@
Tex@@
Webseiten
nissen
Kräfte
Signal
att@@
hän@@
Konsens
Währungs@@
vorlegen
hab@@
hel@@
15.
ET@@
Vorgehen
Wir
jenen
chn@@
ov@@
Ap@@
Firmen@@
Politiken
Tour
schlag
Fo@@
erhebliche
lösung
Einwanderung
Sam@@
mati@@
Transport
angebot
car@@
Ren@@
organisieren
Kurs
breakfast
traditionelle
optim@@
üt@@
Dek@@
cia
beraten
entscheidende
Verbreitung
hinzu
abgesehen
erstmals
sum@@
verkaufen
Tu@@
größer
Untersuchungen
ersetzt
selbst@@
verurteilt
vorschriften
Grand
Gerichtshof
Sor@@
Bedrohung
Preisen
Vorschlags
beruht
rel@@
Einkommen
com@@
abgestimmt
nen@@
2011
Eurozone
erei
eur
Band
Ter@@
gungs@@
Krankheit
anges@@
bank
had
räger
Trau@@
beziehungen
ester
ktionen
liegenden
prozesses
sion@@
gewährt
schul@@
DI@@
isiert
Rom
ate@@
mittlerweile
einig
get@@
gkeiten
reduzieren
verdient
aufen
standen
Browser
einheitlichen
pra@@
anz
verkauft
hoffentlich
Hostels
strategischen
Gleich@@
Sorgen
Vorstellung
material
Staat@@
Köni@@
jener
oo@@
bekämpfung
ähnliche
gol@@
Studien
Zi@@
ates
einfacher
л@@
gehenden
mil@@
Balkon
Struktur@@
ot
äußern
verhalten
programms
geräte
kürz@@
tage
My@@
begrenzt
Indi@@
Förder@@
inklusive
Rund@@
Besorgnis
Fein@@
Zwecke
entwickelte
französische
person@@
wissenschaftliche
Versionen
Hau@@
Sauna
Zwischen@@
Bro@@
Datenschutz@@
bur@@
Waren@@
verbinden
vorhandenen
anhand
genannte
Nachricht
individuellen
Sozi@@
ins@@
kenn@@
läßt
stattdessen
Park@@
beschäftigen
Stra@@
Wohlstand
vorstellen
rieren
effektiv
verstärken
Kapitel
Städten
zahl
Ara@@
genügend
Schulen
Stein@@
Mitarbeitern
versorgung
ruhig
indi@@
code
kontaktieren
Gewicht
com
schen@@
Anschluss
Werke
era
führten
offiziellen
Kontakt@@
Studio
Vision
Dor@@
Hohen
Syn@@
setz@@
gerät
Geschäft@@
Sektoren
bes
dra@@
els@@
ré@@
asi@@
ou
hierfür
niveau
stands
zusammenarbeiten
wiederholen
Benutzer@@
Straf@@
lebt
fuer
Erzeugnisse
Mer@@
sicheren
außerordentlich
funktion@@
Player
drei@@
Freunden
hängen
herrscht
Pri@@
gebieten
Bemerkung
ingen
maßen
Bewer@@
Ferien@@
hof
nummer
vorbereitet
ee
stellungs@@
ett
Bereitstellung
Werbe@@
erlebt
gesellschaften
beigetragen
entscheidender
pas@@
schem
sü@@
Auge
net@@
Kontrollen
Rest
Fran@@
Kauf
gewonnen
views
Freizeit@@
finanziert
etz@@
95
Kno@@
aussprechen
derer
Regi@@
kleines
leistung
wil@@
Software@@
rit@@
verantwortungs@@
kungen
tier@@
aussch@@
dischen
there
у@@
Staates
lin
modell
sit@@
wohl@@
MP@@
trau@@
ON@@
6.
Frankfurt
ado
ang@@
Speicher@@
ss
nde
sur
25@@
Verb@@
Viertel
Männern
flo@@
http
Beschluss
erhielt
tin
erfolgreichen
investieren
voraus@@
Ungarn
werken
zun@@
gere
angegebenen
buch
Systemen
Flü@@
Kam@@
Brasilien
kat@@
tter
unk@@
yer
98
Sh@@
Eis@@
line
Wohnung
Rat@@
ars
eingereicht
ley
unverzüglich
bestimmter
30@@
Dat@@
Open
Touristen
Vorsitz
Mil@@
Poli@@
gefallen
Einheit
kraft@@
Medien@@
gewi@@
Alle
ulation
и
Grad
Mangel
menschliche
Schlussfolgerungen
Katastrophe
Vater
dans
langfristig
wirtschaftlich
17.
beschrieben
Denk@@
AS
Ansichten
seiten
EZB
Marke
Führ@@
Kontext
.000
stolz
36
fahrer
char@@
schwer@@
7.
offen@@
AKP
Polizei
großem
interessant
Sitz@@
teren
sten@@
Live
Gesam@@
Sand@@
can@@
beteiligen
34
Kurz@@
tes@@
Char@@
kern
vermitteln
hingegen
kar@@
mente
Erstellung
netz
wege
lus@@
erzeugt
Bars
IM@@
ration
herr@@
klar@@
mischen
wiederholt
Einwohner
ID
sprach@@
Spaß
solches
bedeutende
Messe
angebracht
Golf@@
99
Manager
dokum@@
nu@@
31
Genehmigung
leistungen
zeichnen
Pe@@
Rahmen@@
langfristige
hervor
integriert
selben
Lieferung
förder@@
ungsin@@
Konto
anwesend
derte
langsam
Bor@@
elektronischen
zeichn@@
Kas@@
arischen
Positionen
bestellen
Group
laufenden
modern
Rechtsgrundlage
Sar@@
allzu
Post
weitgehend
ast
gewissen
stung
Konsequenzen
ato
Dauer
Sicherung
schriftliche
wert@@
Pakete
oll@@
16.
folglich
pol@@
ziele
wunderschönen
Ca@@
Back@@
bit@@
diesbezüglich
ht
Schlüssel
ater
vel@@
aller@@
gelingt
Flüchtlinge
beobachten
gangs
gesetz@@
mas@@
sozialer
mäßig
krie@@
einzigartigen
Glaubwürdigkeit
Korruption
Le
betreffend
steuer@@
Eisenbahn@@
eingehalten
niedri@@
ona
pour
ISO
Stand@@
punkte
Far@@
chtet
verbindet
Dienstleistungs@@
MS
Red
Wil@@
individuell
version
zuständig
inform@@
mussten
29
Wirtschaftswachstum
Pas@@
Zivilgesellschaft
mittleren
pe
wechsel
Beschlüsse
US@@
ausgezeichnet
bereichen
liefer@@
optimale
Modelle
Sicherheit@@
beantworten
fügen
tag@@
Morgen
Provinz
lieren
ments
gebildet
geschichte
Entscheidungs@@
Schiff@@
erien
speichern
Reduzierung
angegeben
küh@@
offene
.....
enswert
gas@@
Prof@@
Überlegungen
freut
od@@
sparen
ativ
vorher@@
Ir@@
Bulgarien
Nummer
effek@@
einbezogen
Menü
ba
Gast
bereitgestellt
lieber
uni@@
Lebensmittel
Test
48
PT
ll
wirtschafts@@
öh@@
assi@@
effizient
Gegenstand
Prin@@
anbelangt
tol@@
8.
EM@@
wechsel@@
Mel@@
wirk@@
Kroatien
Betrag
Energien
momentan
Ph@@
Prozesse
AM@@
Gefahren
gl@@
militärische
verkehrs@@
Net@@
jährige
ziel@@
Vil@@
ah
probleme
EADS
Stu@@
cken@@
überprüft
regi@@
angeb@@
lte
Gerät
schw@@
teilung
Zy@@
Stat@@
bekommt
Mac@@
plan@@
Brenn@@
zentren
Gewährleistung
ersetzen
qui@@
krimin@@
reduziert
alo@@
Dem@@
gedacht
has
Anlass
aner
konfrontiert
Identi@@
Wachstums@@
Vorhaben
pos@@
Pro
geboten
elte
post@@
Kollegin
behaupten
Verlust
ausgerichtet
Asyl@@
pfen
angesehen
ath@@
Ton@@
steigt
verein@@
esten
м@@
Eigentum
gerufen
Kr@@
dert
problem
Cam@@
Feld
Kontakte
Videos
160
betreiben
entschlossen
verteidigen
Emp@@
Hal@@
fertig
Support
3D
Mus@@
PHP
verteilt
Les@@
leb@@
tte
El
Mrd.
Gest@@
Stoffe
WC
dens
Wind@@
insofern
ologischen
ir
militärischen
Erfüllung
digt
Kranken@@
schnell@@
UR@@
verkehrs
AB@@
Gericht
Stimmen
hö@@
ki@@
ständen
Anstieg
Pil@@
Praktiken
digung
auftreten
Suiten
Parkplatz
Cal@@
gründen
log@@
Hol@@
Verfassungs@@
mangel@@
0.000
Glück
gnis
let@@
läu@@
einzusetzen
künftige
Bru@@
Fa@@
fris@@
Politik@@
hör@@
reg@@
richtet
Schiffe
gendes
strategische
Kulturen
haf@@
institutionelle
Massen@@
wach@@
Bio@@
stimm@@
Roh@@
ders
jedenfalls
Zimmer@@
eil@@
zukünftigen
37
dauert
Geschmack
internen
tar@@
täglichen
eres
hochwertige
Rec@@
Dre@@
Gerechtigkeit
Verletzung
bs
Amt
projekte
unterscheiden
utz@@
Finanzkrise
verfügbaren
Schiff
Belgien
beendet
billi@@
steuern
Gehminuten
amm@@
entgegen
7.@@
gestattet
merk@@
sport
stil@@
well
selten
Kommissions@@
ere@@
fü@@
grosse
Gemein@@
2013
konzentriert
wär@@
De
enk@@
Perspektive
versichern
änden
Schwe@@
melden
Kin@@
Mak@@
Prozesses
ce@@
stör@@
1994
Nachbarn
Entlastung
umfangreiche
aff@@
sah
rec@@
use
Neben@@
Strom@@
griffen
itä@@
rt
sinn@@
Aufsichts@@
fähigen
Branche
grenzen
а@@
Nachbar@@
situation
entspann@@
Kosten@@
Tätigkeiten
wirksame
Tal@@
dienst@@
Ausmaß
bert
brachte
unabhängige
Stimm@@
zukünftige
Fahrzeuge
PDF
eil
natürliche
ting
fang
tis
John
breit@@
gemeinschaftlichen
Übergangs@@
legte
unabhängigen
Gemeinde
Pen@@
Regierungschefs
24@@
Mut
spreche
unterstreichen
heben
ander@@
Madrid
Rou@@
füll@@
Situationen
illegalen
angepasst
plus
geprägt
mitglieder
which
ele
klein
kontrolle
sicherung
nehm@@
Märkten
center
Körper@@
bergen
gaben
praktische
09
esch@@
lo
10.
größeres
sis
Rol@@
Sit@@
Verarbeitung
unterzeichnet
wettbewerbs@@
Pläne
Runde
aktiviert
č@@
Schwer@@
bares
cm
verdienen
Grünen
Know
LA@@
gewis@@
vorzulegen
Organe
Santa
Sur@@
effiziente
komple@@
Ablehnung
Kab@@
Prüf@@
deck@@
sichtbar
zäh@@
way
600
art@@
leitung
12.
wen@@
Wechsel@@
gelassen
Marketing
Personal@@
eth@@
13.
Fru@@
Fehler@@
64
Kanada
bra@@
gelegenen
Ausflüge
fanden
medi@@
Widerspruch
bisherigen
ergibt
vollständigen
aum
zeug
unde
Parlament@@
vorgesehenen
Deutsch
mitteilen
Standort
täts@@
empfangen
ke@@
ungsverfahren
Öl
ella
fährt
tor@@
Freitag
Veränderung
stru@@
tens
33
abstimmen
lig@@
Zuständigkeit
Armee
Boden@@
alisierten
atischen
geraten
netz@@
vorgeschlagene
Sachen
Blog
richtlinie
wachsenden
Programm@@
besonderer
sogenannten
Bade@@
altet
unterliegen
Landes@@
same
Gang
kle@@
richtung
vorbei
Revolution
9.
könnt
Lizenz
Hi@@
Tab@@
lar@@
objek@@
zuzu@@
herunterladen
Es
Übernachtung
äm@@
legi@@
Bon@@
fassung
günsti@@
т@@
Betten
Sammlung
Staatsan@@
bereiten
fäl@@
nungen
ez
tief
ütz@@
800
isieren
Telefon@@
entes
pan@@
Weiteren
Herz
licht
к@@
Abschaffung
anschließen
hr
Beitritts@@
PS
vorschlag
Konflikte
dad
dat@@
gleichermaßen
Freizügigkeit
letzter
Geschäft
Top
amt
dere
get
infolge
konkret
steh@@
vertrag
Jahrzehnten
Deutsche
Ebenen
behoben
politisches
port@@
Rückkehr
Tages
stieg
kontrollieren
Redner
gewähren
Donnerstag
Ankunft
IL@@
38
Abendessen
Fischer
Men@@
Volkes
ands
na@@
spiele
Abhängigkeit
Air
flächen
Handels
Mittelmeer
los@@
ole
verwaltung
Respekt
Ther@@
Vorsch@@
Leitung
gens
häuser
High
Quellen
Vorlage
SE@@
Aqu@@
erneu@@
klu@@
famili@@
Computer@@
Dach@@
fähi@@
methoden
Lok@@
USB
gebeten
nütz@@
passt
wahren
Frühstücksbuffet
geplant
Marken
Schweizer
п@@
Es@@
Ob@@
benen
schei@@
greift
rop@@
gele@@
Mau@@
beru@@
schwei@@
verboten
hau@@
14.
Planeten
wä@@
Cre@@
dargestellt
hu@@
Г
konferenz
ti
8.@@
Distribution
Gemeinschaft@@
chungen
Best
gemeinschaft
hervorgehoben
hohem
55
anzuzeigen
normalen
ernsthaft
griechischen
Führer
dankbar
spann@@
wür@@
Bush
Kap@@
Erinnerung
nice
terung
National
Sohn
arbeitete
schla@@
Büro
The@@
vereinbart
Aktionsplan
Gold
ele@@
krise
lösungen
offizielle
züge
überaus
ty
geniessen
Cap@@
erfreut
SI@@
ware
erkannt
freundlichen
tal
enthaltenen
wonach
bestimmungen
erfordern
Gerichts@@
humanitäre
pat@@
schutzes
Befugnisse
vorliegende
hervorragenden
Bl@@
Mutter@@
Binnenmarktes
Mutter
begleitet
träge
ökonomischen
entdeckt
erwähnen
50@@
Gleichstellung
Han@@
Haushaltsplan
Steuerung
Shop
Zei@@
schweren
umzu@@
stä@@
Termin@@
don@@
ktion@@
96
Investoren
einheitliche
perfekte
schnellen
Apartment
ichte
körper@@
produzieren
druck@@
Maschine
Newsletter
heißen
Berichten
Forsch@@
beschränken
gefragt
gewünschten
senken
zugrunde
gers
Reisen
Zahlungen
Beteiligten
Dritten
Investitions@@
edi@@
jetzigen
komfortable
.de
Rö@@
groß@@
viertel
Pop@@
dos
Rel@@
07
08
ame
komplette
Mün@@
Can@@
voran@@
Schw@@
zahlung
Mach@@
externen
Verteilung
tives
Lag@@
Rechten
steten
untersucht
kräf@@
Großteil
König
Mini@@
Elektro@@
Geheim@@
Heizung
Michael
Vorausschau
enorme
nachdrücklich
Geschwindigkeit
enten@@
erweitern
leichter
stie@@
vorge@@
issen
Ham@@
Reservierung
zurückzuführen
Quelle
Ursachen
Volksgesundheit
ks@@
aufgebaut
kräfte
Partner@@
bende
festzulegen
rechnen
Entspannung
Mittelmeer@@
97
Gri@@
bezahlt
han@@
cor@@
existiert
Generationen
sauber
Orte
Street
kette
Wochenende
geleitet
nutz@@
umsetzen
forschung
kamp@@
resul@@
sal@@
Schwei@@
unterschiedlich
aktuell
Fahrt
beenden
Passwort
Stre@@
ausgaben
bedanken
region
enge
para
Faktor
klassischen
ologische
Gei@@
iniert
brau@@
Fuß@@
Wachstum@@
vis@@
Bereitschaft
Tausende
......
diert
heutzutage
räumen
steigern
Amerikaner
Arbeitsplatz
Mission
Spe@@
yst@@
Star@@
Kriminalität
überein
Barroso
Blut@@
gische
kehr@@
stück
gestaltung
lan
Schla@@
Schönheit
Wandel
anda
schule
Allianz
ON
informationen
einzuführen
Küsten@@
Mö@@
stammt
ves
enheit
wir@@
ätze
EC
flu@@
frühen
antworten
festgelegten
generell
Kontinent
Rom@@
ai
besorgt
ergänzt
Darstellung
Resort
eingegangen
Agenturen
besu@@
umfassend
ffe
Jugend
teils
Papier
Vertrages
ary
treiben
Fil@@
Kapital
Rechtsstaatlichkeit
Kampagne
beg@@
lischen
früh@@
ums@@
Start@@
Anwendungs@@
geeignete
Hamburg
ick
ay@@
fs@@
Dreh@@
Gol@@
berichten
kes
offenbar
türkischen
ett@@
Sü@@
einfach@@
IWF
Konferenz@@
Stiftung
selb@@
Nah@@
korrekt
EL
Lie@@
Währungsunion
Öffnung
genaue
Zeitung
bewältigen
tak@@
Pl@@
sichti@@
chtigen
gien
Jugend@@
Kreditkarte
verfol@@
England
Stärke
Wol@@
Messe@@
kel@@
qualitativ
Eingang
gehei@@
leu@@
kurs
Schulden
uss
Uni@@
mögen
Den@@
empfohlen
Kopenhagen
Poker
Rent@@
eigener
grad
reifen
ativer
Museen
halt@@
keinem
äh@@
verweisen
hast
Beh@@
grossen
oftmals
stattfindet
überwinden
•
ID@@
Tr@@
Zug
ri
ots
Na@@
alem
angewendet
igung
kunden
Wald@@
Nu@@
fei@@
kennt
schriften
gestärkt
Red@@
cho@@
geber
irgend@@
stärkere
Miß@@
Umweltschutz
eingeb@@
ließen
Del@@
Fernsehen
Nahrungsmittel@@
Potenzial
avec
digitalen
fähige
Ant@@
Wa@@
kin@@
mö@@
vornehmen
Anwender
geäußert
nicht@@
Verkehr@@
gei@@
Vit@@
mobili@@
zerstört
Frist
nützlich
denjenigen
lädt
Kompetenz
dasselbe
gegenwärtige
festen
Parameter
Theater
Verlauf
ane
GB
Niederlanden
minister
House
Opposition
Update
verkehr@@
zent@@
Information@@
alisieren
voraus
Schloss
hart
verwende
Zone
30.
Euch
Kandidaten
Berich@@
Kategorien
Bord
IN
Kaffee
software
Gelder
Registrierung
Tal
eingestellt
Haut
great
Bearbeitung
Dokumenten
bild@@
Lam@@
ont
Schlaf@@
Spezial@@
effektive
Handlungs@@
Krisen@@
langfristigen
sammeln
Aut@@
Presse
Wirtschaftskrise
lik@@
Pakistan
rechtzeitig
optimal
prozesse
IG@@
Strecke
erklär@@
frem@@
Debatten
Mexiko
chinesische
atz
Speisen
sichergestellt
chtes
Berliner
Parlaments@@
kel
Grün@@
Symbol
absol@@
ement
modified
Album
Refer@@
Wesentlichen
eben@@
Alt@@
Bestimmung
gelesen
gesetzlichen
knapp
Beit@@
negativen
alisiert
ansonsten
65
Vereinfachung
wendet
zwingen
Beseitigung
trat
Innenstadt
bereitet
gri@@
prü@@
gut@@
Zahlung
Direkt@@
Teams
automati@@
eventuell
kontrolliert
ater@@
linken
typ@@
Erhaltung
Hon@@
langer
Straßburg
off@@
selber
Fluss
Parkplätze
Überblick
froh
Bibliothek
Hardware
mächti@@
öff@@
herrlichen
m2
tö@@
tenden
basi@@
müsste
Freund
under@@
Fel@@
Spitzen@@
eingesch@@
ag
Ferienwohnung
einf@@
lag@@
rolle
Herbst
Tonnen
bedeutenden
lenken
Drittel
behält
gewer@@
Berichterstatters
angemessenen
istisch
außen
flug@@
zukommen
besucht
sta
stammen
bewahren
irischen
wechseln
derzeitige
dische
integrierten
Festival
Mechanismen
gültig
Autos
Todes@@
garten
zeichnungen
Tür
Länge
erzeugen
binden
more
05
gesam@@
hil@@
tom@@
weltweite
unmittelbarer
Parlamente
Belarus
ländliche
1992
Tei@@
Innovationen
mas
gesichert
überlassen
Maria
Ägypten
erklärte
heim@@
stoßen
Stad@@
ay
Auftrags@@
Mes@@
Montag
Suite
Senkung
buch@@
fla@@
zurzeit
Zypern
Kern
Kra@@
German
kümmern
rie@@
Versorgung
anzubieten
finanzieren
entscheidenden
Dingen
Dritte
Lizenz@@
Ac@@
Studi@@
Wähler
soli@@
Geschle@@
Liber@@
poli@@
zü@@
Staats-
Tür@@
kontrolli@@
nam@@
untersuchen
benutz@@
jo@@
neun
wertung
Miet@@
Inn
Regulierung
Projekts
Augenblick
Macht@@
just
Herz@@
Premierminister
auer
hü@@
test
Flash
PPE
gefähr@@
aufs
teste
ст@@
USS
errichtet
tivität
este
fügt
Mul@@
feh@@
ros
zeugen
erzeu@@
glaub@@
gnissen
As@@
Oberfläche
Zusammenhalt
S.
glichkeit
müssten
typischen
Benutzung
Jugendlichen
clean
ç@@
Widerstand
nern
Rü@@
setzte
vern@@
demo@@
Hindernisse
auffordern
Licht@@
dynam@@
gehörigen
Bedürfnissen
europäisches
gekennzeichnet
wort
tru@@
günstige
pass@@
schö@@
hinzugefügt
Mandat
Martin
geführte
.00
ari
bro@@
leiter
nd
Email
schalten
illegale
Institut
klasse
rechtlich
Gemeinschaften
Tests
isti@@
Kri@@
Vertretern
charakter@@
vorgestellt
Spr@@
iges
kri@@
ziger
bett
klimati@@
Sicherheitspolitik
iti@@
roman@@
Peter
free
friendly
rän@@
soeben
Tan@@
angenehmen
fünf@@
professionelle
rad
Comp@@
Saison
eien
unentgeltlich
beinhalten
Nachhaltigkeit
wartet
Pflanzen
angenehm
lern
vergleich@@
Strand@@
spezialisiert
Urteil
42
Berg
Gemeinsame
betrieb
xen
lieben
Detail
Hinweise
kompet@@
kostenlose
Häuser
Pla@@
lichsten
praktischen
separ@@
Patent@@
Minute
fällig
tnissen
Holz
Tau@@
Mechanismus
beeinflussen
kämp@@
Volkswirtschaften
ey
tei@@
they
Beachtung
Ergebnissen
pä@@
200@@
sterben
wand@@
zog
Todesstrafe
Dialogs
Luxemburg
enzi@@
Berge
Objek@@
Mail@@
urlaub
Boot
stor@@
üh@@
fangen
grünen
tigkeiten
gehandelt
gelangt
versammlung
programmen
Obama
Schwellen@@
Zer@@
produkten
ED@@
only
schwere
Finanzierungs@@
Radio
os@@
verfahrens
wesentlicher
berechnet
nes
î@@
Regel@@
armen
schnit@@
älteren
Paul
ausgewählt
gefährdet
posi@@
zige
realer
befasst
dig@@
е
Mädchen
alitäten
wahr
Sieg
begrün@@
verletzt
Übertragung
Journalisten
Schulden@@
Truppen
festzustellen
sidenten
wahlen
bewer@@
Fläche
sitzen
Eu@@
minim@@
ober@@
TR@@
dein
inner@@
9.@@
AG@@
Interessen@@
geschickt
gewählten
restaurant
geblieben
Energieeffizienz
ard@@
bs@@
grund@@
rö@@
Autobahn
Ansprüche
Wirksamkeit
impor@@
fal@@
lös@@
ehen
Kla@@
ichts
schwierige
anzeigen
ehemalige
sc@@
Appartements
Hauptbahnhof
Versammlung
ola
Prozess@@
Text@@
tation
trans@@
SO@@
Umweltfragen
nehme
Schn@@
ärer
Lern@@
Tar@@
bringung
wirkliche
Erlebnis
Wirtschaftspolitik
ade@@
digitale
gänge
angewandt
Käufer
ik@@
verringert
25.
erkunden
Card
Sy@@
wel@@
Anmeldung
OL@@
ents
freund@@
stätigkeit
Da@@
reise
Ausbildungs@@
CA@@
Extre@@
Gewinn@@
Finnland
Höchst@@
Sonntag
Spielen
eist@@
italienische
val@@
ica
Präsenz
hinzu@@
sprä@@
wis@@
ator@@
Polizei@@
gischen
General@@
Verwirklichung
dest@@
finanzi@@
renoviert
sitz
chts
city
85
enter
Pass@@
palästinensischen
Spitze
aufzubauen
Entfernung
Rob@@
regelung
Errichtung
JavaScript
Immobilien
Typ
spät
1990
raums
planen
í
anzunehmen
Modernisierung
dauer
humanitären
ita
Datum
GAP
Gold@@
entfernen
elen
Gewal@@
sauber@@
1993
Zuge
EU@@
geregelt
kap@@
standard
Mod@@
abend
Individu@@
licherweise
not@@
bewerten
sach@@
tigte
A5
Europe
Vorstellungen
tags@@
uli@@
Media
s.@@
Akteure
Prop@@
ata
ergänzen
chtigkeit
lien
tiere
manchen
Out@@
Wohnzimmer
ong
feu@@
verwal@@
Argumente
Kohäsionspolitik
berühmte
rup@@
Spezialitäten
ling@@
überzeu@@
eli@@
gste
tagen
49
Außen-
Dies@@
Betreuung
Räume
Verein@@
dau@@
strukturen
von@@
festlegen
hinweg
besonderes
250
3,@@
III
06
ansehen
letz@@
set
1000
Wissenschaftler
geliefert
lten
projekt
ón
Strände
Entwickler
grund
Sektors
dorf
fr@@
chi@@
sy@@
unkte
Dokumentation
Tauch@@
dom@@
wächst
hervorragend
Betriebe
Arbeitnehmern
wan@@
Krieges
Sie@@
enormen
Schengen
veran@@
Airport
versteht
Glas@@
statten
ungser@@
endet
Är@@
Bedien@@
Form@@
fas@@
gesellschaftlichen
ruhige
zahlungen
Übrigen
Inflation
ansprechen
Vermittlungs@@
Werten
dunk@@
zustellen
Blo@@
Bücher
alisierte
genauer
rägen
zahlt
Ersatz@@
mehrfach
ativ@@
garanti@@
geschlossenen
märkte
Q
gewöhnlich
Pin@@
Kir@@
Religion
Schüler
aktu@@
funktion
Flughäfen
Grundlagen
Kle@@
Urlaubs@@
--
Personen@@
Verbraucherschutz
Weiterentwicklung
Wiederaufbau
ena
generi@@
Ausarbeitung
Russlands
Traditionen
West
alle@@
richti@@
Fan@@
entieren
Cookies
steckt
39
Verzeichnis
tert
Son@@
Auflösung
Ausweitung
Demokraten
aro@@
beu@@
stag@@
General
Ratschlag
beseitigen
nutzt
trägen
bekann@@
cker@@
digungen
gemeinsames
tisches
vermutlich
Organ@@
gestellte
gegebenenfalls
schar@@
verschieden@@
wider
Aufzug
freier
volles
Gesetzes@@
IA
gering@@
Effekt
zweiter
Saint
ausüben
Stamm@@
kran@@
Doppelzimmer
äumen
Jean
Souveränität
verständlich
wu@@
High@@
Reg@@
Regional@@
definieren
icht
offiziell
umso
Philosophie
eit
pul@@
Bildern
Dänemark
Schu@@
Orten
Gottes
adi@@
bungen
Internationale
Marken@@
burger
stitu@@
Übergang
Aussage
bearbeiten
liert
hl@@
peri@@
spra@@
Wohnungen
Zweiten
ändert
mi
solch
¼
ahnen
ines
passen
Nizza
Tieren
schläge
vorzunehmen
02
erteilt
phy@@
Florenz
Tool
anwenden
esischen
Ausbau
überwachen
ous
künst@@
vorliegen
Wellness
eingebracht
enthalt
fehlen
änder
Boot@@
Fehl@@
Himmel
IR@@
Unterkünfte
gäste
Fahrer
Satz
Universitäten
fes
Serbien
entstand
werks
zusetzen
Aktien@@
Vorsitzenden
aufbauen
beabsichtigt
schreck@@
keineswegs
gas
big
gebühr@@
Filme
Vereinigte
ala
alisi@@
desto
reagiert
urs
grös@@
verwendeten
Office
itäts@@
sie@@
sierungs@@
Unions@@
bü@@
essen@@
sischen
wur@@
branche
modern@@
vorgelegten
dlicher
Deutschlands
Samstag
verw@@
ECU
Versicherungs@@
Zus@@
hundert
Gegner
fried@@
südlichen
ück@@
03
stechnik
Milch@@
märkten
berei@@
mali@@
Plenar@@
eingeleitet
Besitz
nächster
umgehen
Ein
EB@@
liber@@
Anbetracht
Oper@@
hinaus@@
Annehmlichkeiten
baus
Fle@@
Objekte
gesucht
Pot@@
izi@@
technisch
Cli@@
Zeu@@
bedürf@@
stecken
afrikanischen
listen
Syrien
kontextuellen
Nord
kop@@
lie
toren
entdeckst
theore@@
gerechte
saal
Vordergrund
landwirtschaftlichen
quote
Mängel
Sau@@
geschäft
satzes
Soldaten
loser
Argument
Listings
tiver
Betrieb@@
terror@@
Analy@@
negative
oni
Ker@@
Kriegs@@
Sonn@@
fizieren
studi@@
ständi@@
ws
gewidmet
hä@@
sozi@@
Finde
erstes
gemütliche
lüsse
Bin@@
Erfolge
unkt
AU@@
31.
See@@
hinzufugen
quellen
Modul
beantwortet
grammatisch
Hy@@
gefährlich
kontextuell
Bestätigung
Cro@@
super
zz@@
Internetzugang
herstellen
kleinere
Sat@@
davor
dene
elegante
elektronische
dateien
stätten
tigten
Niederlande
arabischen
Dan@@
Katalog
Schlusselphrase
Schlusselwort
stärksten
aufgezahlt
Bezeichnung
IF@@
Ruf
ces
veröffentlichen
Besitz@@
Is@@
gkeits@@
mail
verbindung
NICHT
Wasch@@
interne
Christ@@
betre@@
höchst
verbreitet
verstehe
ücken
Airbus
Existenz
ausländischen
derart
erhoben
yl@@
küste
trieben
ökologischen
hilfreich
ía
AL
seitdem
ungeachtet
Mono@@
Wirk@@
becken
24.
ausgehen
let
würdigen
bek@@
professionellen
herzustellen
tho@@
43
Bere@@
günstigen
folge
löschen
Abfall@@
esse
innovativen
behand@@
Dro@@
blei@@
Ehre
deut@@
sozial@@
zusehen
Lau@@
rahmen
daten@@
kam@@
nahme@@
Kommun@@
einst
kurse
sive
Besu@@
Koh@@
Wur@@
Java
Lounge
Erwachsene
Prozeß
angebote
fli@@
Fassung
suche
hochwertigen
integrierte
richtungen
umfassen
Transpor@@
beispiel@@
Entschlossenheit
Fas@@
Tools
Werkzeug
halten@@
staat@@
Betra@@
Rechner
genau@@
parlamentarischen
sichts@@
Kooperations@@
kün@@
Vermögens@@
enger
jüngste
mechan@@
pft
AP
Bom@@
Prodi
ty@@
erwiesen
origin@@
view
üblichen
ausgegeben
pp
steller
Konvent
effizienter
günstig
hnen
oc@@
old
ziel
Amts@@
bedroht
größter
omm@@
smus
angehen
erheben
vorsch@@
wendung
44
Renn@@
beteiligten
Audio
ange
excellent
wit@@
Komm@@
Spaziergang
gegenüber@@
Steigerung
Wand@@
ichten
jahr@@
öffentlicher
OS@@
entsch@@
ity
wachsende
Venedig
Vertrag@@
Brand@@
Prag
kollek@@
konsequent
regionen
ystem
che@@
Kompetenzen
früh
bürokrati@@
existieren
Bestell@@
Bü@@
schä@@
stern
Publikum
weichen
widmen
Presse@@
Umwel@@
glob@@
Gruppen@@
vollem
Kyoto
Mari@@
hohes
sche@@
bewegt
Lateinamerika
waffen
welle
Frauen@@
prozeß
berichtet
änge
typisch
gesetz
700
Ablauf
Aspekten
Heimat
Leben@@
Ratifizierung
Sachver@@
lia
paket
ausländische
bit
erung@@
Foto@@
betra@@
Sim@@
dy@@
kra@@
Erreichung
Gebühren
Je@@
Verbrauchern
euer
grenzüberschreitenden
Drei@@
Verteidigungs@@
blo@@
falsche
AC
pla@@
schung
zugs@@
Ide@@
Schreiben
Ja
intensiv
Reser@@
Off@@
Plaza
Versprechen
bahn@@
fern@@
maximal
schwedischen
ähnlichen
überrascht
Einsatz@@
Symp@@
band
ble@@
hielt
langem
Motor
Weltkrieg
bewußt
chan@@
ehe
niedrigen
mung
sektors
Dynamik
Lehrer
Sekunden
beinahe
tum
Maschinen@@
Schicksal
komplexe
120
Durchsetzung
helpful
parallel
russische
vertraut
Konzer@@
Anmerkungen
Volkspartei
ñ@@
frü@@
gewicht
reibungen
Benutz@@
Kommentare
Last@@
erkennt
Schne@@
möglichkeit
Autor
Vorrang
finanzierung
erwerben
Kopf@@
Sens@@
MO@@
weilen
41
Modus
Binnen@@
betriebe
nei@@
zeichnete
Pul@@
Western
spanische
Ausblick
Ausrüstung
Nichtraucherzimmer
atur@@
sse@@
ê@@
beibehalten
stischen
Lohn@@
mäßige
vertrau@@
yn@@
Entwicklungshilfe
achtet
behauptet
sä@@
10.@@
Pau@@
Via
gebenen
geren
hung
Slowakei
Ursache
jährlichen
hafter
kombiniert
Konvention
auswählen
bruch
reis@@
н@@
Garantien
MySQL
erleb@@
gemessen
Che@@
Poly@@
fi
Behörde
Gemeinden
din
gelegene
neter
zeigte
Air@@
Lab@@
aux
linge
maß@@
tie
Klarheit
Menschheit
kehr
stet
ca@@
1989
Pflanzen@@
könne
Statistiken
Washington
Australien
Ci@@
Fleisch
bewertet
Rennen
alistischen
chemische
standes
bewegung
trei@@
unterschiedlicher
vertritt
dieren
Haushalts
Nation@@
wa
getreten
medizinische
Client
Verkaufs@@
entliche
erheblichen
gige
luss@@
tour@@
verurteilen
verbreit@@
Seele
geringen
Beach
aj@@
gesetzten
umgehend
vertra@@
zugeben
Hän@@
erteilen
ises
kostenlosen
vermittelt
wunderschöne
auff@@
Rotary
anzuwenden
sak@@
David
Str@@
Erzeu@@
blicken
förderung
Hände
mithilfe
Autom@@
Don@@
Plas@@
beweisen
innere
äuß@@
Luxus
4,@@
Ereignis
Rich@@
engen
mäßigen
teilungen
1991
Abteilung
Häfen
wander@@
Lim@@
Wichtigkeit
gehörige
sau@@
zweif@@
ando
dur@@
Weit@@
esi@@
begegnen
wirklichen
§
2012
Ausrichtung
Energies@@
Kommissionspräsident
Pet@@
gemä@@
seri@@
а
Herkunfts@@
Rechnungs@@
gingen
stands@@
Aussagen
EG@@
verursachen
anzupassen
klein@@
schü@@
Klassi@@
Lager
OT@@
zentraler
Vier@@
Vorgehensweise
uri@@
währ@@
22.
Brücke
Export@@
dieselbe
Comm@@
fahrzeuge
Amerikas
räu@@
Fla@@
aush@@
flexibel
Meinungs@@
Weine
basis
centre
motivi@@
з@@
Hö@@
mein@@
reibungs@@
Fortsetzung
präzise
Alternativen
UT@@
fot@@
sogenannte
sprech@@
Beschränkungen
Cock@@
Skype
Tor
deutliche
glaubt
design
fungen
wirft
Cu@@
Offenheit
aktualisiert
erinnen
nö@@
ó
Strom
enth@@
wes@@
23.
Ram@@
befürworten
gend@@
icht@@
wald
Kenntnisse
schönes
Bestellungen
regionaler
sität
Rückgang
ehr
ehrlich
Festplatte
GNU
Glauben
probieren
sab@@
Felder
lehr@@
Ag@@
Ministerpräsident
cal@@
erarbeitet
klin@@
respektieren
ž@@
04
Verwal@@
ess
fft
inneren
Trop@@
ungst@@
Produktivität
psych@@
spüren
stattgefunden
Plätze
einiges
Palette
р@@
Tit@@
Minister@@
Schau@@
blick
dia
dieselben
erfol@@
funk@@
kauf@@
ú@@
Würde
comfortable
grei@@
Bewusstsein
EF@@
Tour@@
Wett@@
seu@@
Putin
grenze
li
IC
ł@@
User
Werkzeuge
any
ela
komplexen
schnitt
Betracht
Gesicht
ahn@@
Mol@@
angekündigt
Fon@@
fragt
steuer
umfangreichen
Revision
Feuer@@
ausführ@@
uneingeschränkt
Lieferanten
Netze
Tru@@
Ferienwohnungen
Pati@@
Problematik
agt
lassung
tlicher
Betreiber
Nachdruck
begründet
ständiger
IP@@
Quell@@
\
auswirken
Kennzeichnung
Südo@@
erweisen
äder
Bauern
erleichtert
gebäude
politiken
fortsetzen
gnisse
intensi@@
nötigen
sport@@
Mad@@
taus@@
11.@@
klären
tivi@@
zwölf
Mischung
Südafrika
ausgestattete
isse
leichte
47
Dru@@
Zuverlässigkeit
fuhr
modi@@
proz@@
Original@@
about
arbeiteten
cs
derselben
kohär@@
RO
zustande
Inhalten
Kürze
Verbrau@@
ama
iner
otel
reform@@
vertrauen
Bett
Einzelheiten
Hot@@
Kohlen@@
Fans
Show
Verk@@
gemeinsamer
häl@@
popul@@
besit@@
bot@@
einzig
fün@@
habt
s-
tatsächlichen
wol@@
pt@@
ère
formuliert
nä@@
Tabak@@
fertigung
geehrte
Wahrung
direk@@
Zürich
organ@@
position@@
sech@@
gieren
imp@@
schenken
Zeitplan
angenehme
rufe
Zerstörung
ero
over
Aufhebung
Burg
Drogen
NL
Reinigung
vo
Inten@@
Minderheit
Protokolls
Risiko@@
baut
musikali@@
verschaffen
drängen
erforderliche
faszini@@
stro@@
я
Fabri@@
Zielsetzungen
anerkennen
ble
drin@@
endgültige
gestartet
gemütlichen
kurzer
Zimmerbeschreibung
vorliegt
Übernahme
Tief@@
bers
Lebensmittelsicherheit
Brü@@
wand
Abbau
eg@@
lebenden
Bevölkerungs@@
geringer
kredi@@
religiösen
schätz@@
Georgien
Projek@@
eure
gering
Anti
Haf@@
bezeichnen
prak@@
Block@@
Chancengleichheit
Mich@@
Schreib@@
Tat@@
fairen
verzichten
wahre
Gre@@
Hä@@
miß@@
46
moderner
derungen
leistet
traum@@
Händen
Sel@@
ance
eleganten
tan
österreichischen
Kop@@
Weltwirtschaft
ating
getrennt
realisiert
schwan@@
mechanismen
nation@@
schreibt
Regen@@
Vertrieb@@
gebung
ökonomische
präz@@
Ausnahmen
Schil@@
vorsieht
Herkunft
Klimawandels
ausgehend
gü@@
Taten
pak@@
Gewinn
Fisch
Rechn@@
Robert
Zucker@@
Zunahme
spektakul@@
Erarbeitung
Lü@@
â@@
ail@@
dring@@
Fang@@
bedauerlich
lass
Metro@@
greif@@
ol
Nicht
genießt
would
zugestimmt
Eröffnung
Liberalen
Stahl@@
brauch
funktionen
herum
stärk@@
ton@@
verwiesen
Anreize
Design@@
Fahrzeug
Steuer
verstän@@
Heimat@@
erwähnten
geeigneten
technischer
tex@@
verabschieden
Europa@@
Wettbewerbs
arbeiter
anpassen
cli@@
empfängt
Bürokratie
Wiederherstellung
marktes
erstreckt
eröffnen
übermitteln
Schwar@@
erarbeiten
gepf@@
geringe
sicherer
stil
52
Bauern@@
dienstleistungen
eindeutige
heim
liger
Großen
by@@
Gebir@@
Port@@
Terroristen
Jahr@@
schie@@
ym@@
zimmern
retten
Alters@@
SV
Verfahrens
kampf
Nachmittag
Zivil@@
gerechnet
herrschen
streben
ursprüngliche
vereint
¶
avi@@
bere@@
unterbrochen
verteilung
alisten
part
Edel@@
Musi@@
mäß@@
platten
verbindungen
Übersicht
übt
51
Umstände
obligator@@
Гј@@
Hostelsclub
USD
anforderungen
angenommenen
gelernt
mes@@
Bitte
Gas
Stau@@
close
s.
Landwirtschafts@@
News
haber
liegende
zehn@@
Wür@@
mechanismus
mün@@
ь@@
aufnahme
kas
located
transpor@@
Safe
gehabt
zweck@@
dam@@
plötzlich
Verfahrens@@
atische
kali@@
Bosnien
Privatsphäre
dahin
fikation
hor@@
zunehmende
Einnahmen
zwanzig
Proz@@
aut
verzer@@
hiermit
ral
zeichneten
Global
Handy
fuhren
medizinischen
Objekt
Schuld
formular
dien@@
zugelassen
Stock@@
industriellen
interessanten
kan
meldung
rischen
ч@@
VER@@
bus@@
dul@@
jeglicher
Mac
Themen@@
bestände
ons@@
onn@@
sou@@
Empfang
Thomas
Verordnungen
lossen
Sä@@
lusses
26@@
hunder@@
trieb
Events
Händler
ence
erend
mess@@
schlechte
spätestens
Migration
aufgestellt
text
verarbeitet
vermieden
Appartement
Finanzen
Formulierung
Maß@@
methode
diesmal
eigentliche
innen@@
prinzip
riert
Feu@@
Haushalte
Logik
Stur@@
drückt
gebühren
änderungen
Ehr@@
Im
feste
här@@
komfortablen
like
George
grenz@@
mach@@
odi@@
planung
Panoram@@
Samm@@
king
è
üb@@
parks
86
blieb
enes
integrieren
landschaft
Glas
Updates
aufgeführt
Fremdenverkehr
Versand@@
befürwortet
erlangen
lle
Ausgrenzung
Kuba
gewünschte
Mobil@@
PL@@
SA
agen
spielte
tions
Fal@@
S.@@
Sho@@
Theorie
Verabschiedung
europa
tauchen
Hohe
einstellen
ier
Jan@@
ire
unzu@@
Begründung
geld
sende
zweit@@
durchzusetzen
server
wäl@@
dru@@
felder
gert
Kapazität
Mails
ssig
Verfolgung
Referendum
gegenseitigen
wärts
Raums
maximale
DA@@
läufe
relevanten
plätzen
interes@@
jek@@
alistische
tende
öse
Erhalt
Hafen@@
chtige
doppelt
kleineren
orientierte
Handlungen
antes
antwor@@
publi@@
Edition
Royal
arbeits@@
berührt
Gewinne
IB@@
Mittwoch
University
handels@@
inger
kritischen
sendung
Ausbeutung
Service@@
absolute
sonstige
Spannungen
ats@@
ello
hy@@
omen
Sound
ania
Stufe
beruflichen
tigem
Clubs
Rezession
Weiß@@
automatische
beruhen
Tabelle
menge
ät
Gem@@
Mü@@
Nichtraucherzonen
Wind
Wo@@
passieren
terungen
zeichnung
Menschenrechtsverletzungen
Satelliten@@
bezogen
typische
29.
Produktion@@
Urheber@@
Versuche
behandlung
serv@@
Basis@@
Marina
Nation
Summe
imm@@
Bele@@
Meinungen
Rin@@
Schrift@@
box
ham
wertvolle
Außenminister
Vari@@
Wälder
länger@@
non
wünscht
Express
Bühne
Dublin
schle@@
Aktivi@@
räum@@
schwieriger
Ah@@
Leiter
Weg@@
sign@@
Aktion@@
Module
konkur@@
leidet
nachzu@@
verarbeitung
HTML
bed
kg
lei
Rechnungshof
abli@@
dri@@
staatlicher
Abgeordneter
gewinnt
problemlos
stay
tos
Baum@@
späteren
zten
öffnet
26.
72
gerechtfertigt
geräum@@
höchster
kä@@
mittlere
Föderation
Jugendliche
Belastung
abgeben
externe
leh@@
wies
Marokko
Meister@@
nete
stag
verstärkte
Bürgerbeauftragten
graph@@
.org
Anzeige
Herr@@
Risi@@
gebau@@
Haar@@
Image
Spektrum
organisierten
Mitarbeit@@
dün@@
machten
unterscheidet
Archi@@
rich@@
Digital@@
Pic@@
Tom@@
Wild@@
zel@@
Automobil@@
European
Pak@@
herunter@@
union
individu@@
syn@@
Wünschen
argum@@
kund@@
polnischen
Bewohner
israelischen
unterwegs
Anträge
Funktionalität
ausreichende
endgültigen
erlassen
verk@@
fiel
gast@@
ration@@
tausend
teuer
wirksam@@
SCH@@
angeblich
leitungen
BSE
Wesen
beschleunigen
Osteuropa
genes
kanische
Mur@@
stür@@
Angabe
beschreibt
handels
oper@@
Funktionieren
gestal@@
rad@@
Eli@@
Fakten
Linien
tic@@
führungs@@
hört
lers
organisierte
kö@@
ür
28.
Fremd@@
Last
bisschen
fik@@
normen
Bou@@
DER
gab@@
rum
Centre
Gentoo
Präsentation
Zahn@@
Zusammensetzung
basieren
initi@@
lassungen
Power
zuverlässi@@
Wetter
sitz@@
tigungen
Port
Energiever@@
Minibar
Wellness@@
detaillierte
einführen
Anbindung
NRO
Spezialisten
Spre@@
geni@@
Camp@@
ación
nem
veranst@@
Kredi@@
iso@@
nah
spi@@
wahl
benannt
eingeladen
luss
personal
system@@
ärmsten
Getränke
Kabel
schlü@@
AP@@
AT
Erzeugung
aly@@
ans@@
demokratisch
ektor
gelegte
Charme
het
ältere
On@@
Source
Vertrieb
ci
empfiehlt
Balkan
Fischereipolitik
Sha@@
dauern
tigungs@@
vorrangi@@
halb
kostenfrei
tätigen
vent@@
verliehen
г@@
Türen
Wald
ablehnen
gebunden
real
Kontra@@
beeinflusst
fahrts@@
geplanten
überwacht
modernes
neben@@
würdi@@
Beamten
Für@@
Medikamente
abgegeben
ckung
tiken
Kernel
Verlängerung
eignen
investiert
Energiequellen
gehör@@
gio
Beurteilung
Jung@@
Reit@@
Schei@@
drucken
einstimmig
Performance
gebe
griffe
rou@@
work
Augen@@
Ausgangs@@
Einwanderer
MB
Ungleich@@
bedienen
etc
28@@
Kau@@
Trend
alisierungs@@
berufen
punkten
regel@@
vielsei@@
Versorgungs@@
ni
streng
teln
Vertei@@
chens
griff
when
agi@@
eintreten
gelingen
SS@@
sagten
stützen
Million
Unternehmer
ams
din@@
usi@@
Bergen
AR
Garten@@
Pension
bigen
immerhin
q@@
Französisch
Köln
dnis
fahrten
gebraucht
vereinbarten
Schnittstelle
kurzfristig
trag
würdig
alleine
aussehen
austausch
dargelegt
meistens
Menschenrechten
derjenigen
starkes
west@@
Direk@@
Pflichten
Sig@@
Beratungen
Seiten@@
angebotenen
künfte
12.00
Einschränkungen
Erwägung
Produzenten
ausgedeh@@
effizienten
einnehmen
englischen
nieren
strukturi@@
Ordner
fon@@
than
Funktion@@
Stock
politi@@
Los
Phänomen
zugute
überein@@
Fax
Training
slo@@
täten
Adressen
OM@@
name
realen
Filter
Friedens
Mani@@
Open@@
AN
Geschäften
losigkeit
passende
geschafft
llen
sz@@
tika
12.@@
Rahmenbedingungen
Saal
Schutzes
Steuerzahler
Traum
geladen
istischer
keit
Europ@@
Original
mien
Imp@@
kommun@@
meldungen
weitaus
mobile
Ken@@
nachhaltig
älter
Posi@@
ernsthafte
light
liz@@
parti@@
Strah@@
bewahrt
geteilt
lokaler
Hostel
Mengen
Richter
03@@
stücke
technologische
teilte
Krisen
chtig
namen
nisses
Dok@@
biegen
gter
obgleich
Beschwerden
Ergänzung
Feststellung
feiern
materi@@
54
Anwesenheit
EP
Gebäuden
gestiegen
ome
orien
por
Quali@@
Unsicherheit
Verfasser
kostengünsti@@
Arbeitgeber
Check
Einschätzung
pfli@@
Arbeitsgruppe
Fak@@
aturen
leitet
å@@
jemals
vergeben
new
tern@@
Ferien
auseinander@@
geräten
Leuten
Maxim@@
Verluste
eigentlichen
tot@@
Dritt@@
Ausübung
Kongress
beschließen
bewirken
quelle
schluss
schöner
vorschläge
Tim@@
Gärten
auen
eigenem
erbaut
neten
ungere@@
zeitgenös@@
Börse
gewiss
versehen
vorgehen
atives
bi
bor@@
erheb@@
geograph@@
Alpen
Power@@
anien
eingeräumt
entlichen
kommerziellen
Konferenzen
abe
natur@@
Operation
brü@@
inakzeptabel
multi@@
ressourcen
sichtlich
vielfältigen
zellen
Verletzungen
beach@@
film
lon@@
prakti@@
produzi@@
dien
gebnis
präsen@@
Betrug
betten
fro@@
teilzunehmen
wahl@@
27.
DS@@
Stell@@
erfasst
qualifizierte
Konzentration
angefangen
deutsch@@
geistigen
mul@@
Lieb@@
Unterhaltung
breit
zwe@@
Termin
Vertretung
flug
vielfäl@@
Lek@@
bedro@@
drit@@
globaler
irische
onien
ruft
unterstütz@@
verpflichten
Bildschirm
ose
these
Est@@
Gebühr
fehl@@
zunehmenden
Hof
Speis@@
erstaun@@
ret@@
Cat@@
Ret@@
flexible
ord
92
J
kunden@@
sonstigen
ées
Got@@
grü@@
verbesserte
Fei@@
Portal
Vertre@@
erneuerbaren
verwirklichen
2.0
orientierten
süd@@
Ele@@
Steu@@
normale
vertreter
Insel@@
Muster
Van
pal@@
q
stete
Island
ohnehin
stein@@
Alp@@
ausstattung
eff@@
kriterien
eindrucks@@
priv@@
Drittstaaten
Fußball@@
orts
ßten
dachte
stö@@
Grundsätzen
Key@@
Datenschutz
Waffen@@
blichen
inischen
statisti@@
Plus
bestens
fenster
fiziert
schlimmer
Inkrafttreten
Parti@@
disch
gesammelt
kontinuierlich
NI
Quar@@
skosten
wäh@@
zögern
27@@
Künstler@@
gericht@@
gesundheits@@
gratis
verletz@@
Angriffe
Mehrwert
beliebigen
ruf
verzeichnen
Aufnahmen
rates
Bewältigung
Erweiterungs@@
Sony
deutlichen
emen
gleichwohl
boden
ktions@@
legten
pt
stabili@@
worfen
68
Lager@@
abili@@
kro@@
oberen
vernünftige
ès
Demokrati@@
Schmer@@
cou@@
Bot@@
Nov@@
Profil
beizutragen
namens
ute
wirkungs@@
Beschluß
demokratischer
gefährden
geschäft@@
größe
Architek@@
Py@@
verschmutzung
Rassismus
Still@@
ausführlich
führungen
ville
ösen
Community
Erbe
Inspek@@
Mobili@@
enswerte
other
ysteme
A4
Al
gehe
respektiert
Konflikt@@
nord@@
uen
Güter
Kapazitäten
verkün@@
Europar@@
Medizin
Netzwerk@@
sätzen
trags@@
Adobe
Büros
Tag@@
bürger
Wissen@@
andernfalls
produkt
viert
bekanntlich
top
womit
5,@@
Früh@@
Schnell@@
abilität
,000
Intervention
ausgewählten
derartigen
Subventionen
ds@@
Herrschaft
Ingenie@@
Kü@@
Rußland
Selb@@
getötet
regul@@
Export
Frequ@@
Rubrik
Sitzungen
strasse
Besteuerung
Kö@@
affung
radik@@
ranten
tiefe
Ausschüsse
Tsch@@
Woh@@
Kräften
gelegten
sur@@
Fri@@
Gespräch
schaff@@
wirksamen
Hör@@
Konkurrenz
Kreativität
Merkmale
erweiterten
fizi@@
lichste
äum@@
Heil@@
Optim@@
angewiesen
fliegen
gst
ruhiger
völ@@
visu@@
basierte
eingeschränkt
nbsp
seits
registrieren
Tem@@
Will@@
della
information
ink
realistisch
Verteidigungspolitik
technologischen
Foundation
Konstruktion
Tel@@
bewiesen
spiegelt
zentrali@@
Gran@@
Konfiguration
Unterzeichnung
ordnungsgemäß
Kirchen
arische
faire
mern
stens
Emissions@@
Geräten
demokrati@@
registri@@
Äußerungen
Gerichten
Konzepte
Techniken
Wettbewer@@
berichte
französ@@
stren@@
gefährliche
profession@@
xis
Weltbank
fortgesetzt
klär@@
kritische
ska
ust
verwalten
komfortabel
IV
Karriere
gesonder@@
Anwen@@
Gipfeltreffen
nötige
AV@@
Grünbuch
jed@@
schein@@
extra
Feier@@
Tochter@@
gels
trennen
Anhörung
Aufenthalts@@
Dol@@
Exper@@
konstruktive
lam@@
lehnt
schrittweise
Tö@@
erörtert
fehler@@
lege
periode
verantwor@@
ET
Metall@@
Trek
schiff
unterbreiten
day
schließe
stur@@
ebt
elli@@
flicht
hl
konzipiert
voneinander
Jag@@
einzugehen
grenzüberschreitende
kreis
spre@@
vernünftig
1,5
Art.
Flugzeug
Human@@
angelegt
bedauere
pole
Kil@@
Unterlagen
bür@@
frucht@@
ye
Rem@@
digte
live
su
zielt
beabsichti@@
ös
б@@
anlässlich
benden
bilateralen
Kit@@
Lehren
bindung
frischen
noten
ypen
Distri@@
Peti@@
·
Branchen
Einkommens@@
area
Beschäftigten
Fernseher
SC@@
Studium
aktualisieren
atten
Eng@@
Illu@@
PR@@
bahnen
ethnischen
hte
köst@@
nat@@
innov@@
luß
mar
zin@@
Gut@@
Regionalpolitik
leid
transparent
vorbehalten
Bö@@
anne
nachdenken
teilten
LO@@
herrliche
schein
uns@@
Aktivität
Kapit@@
Ner@@
Vorfeld
bearbeitet
Abstimmungen
Alltag
Halle
konsequ@@
konzep@@
moder@@
Regimes
kontrollen
netze
town
Nam@@
Palace
Rek@@
gelt
koordini@@
tren@@
Hist@@
Moskau
bereitung
bre
66
Abenteuer
discher
erfahr@@
erische
fühlt
wiesen
Experim@@
II.
hersteller
zwischen@@
71
C.
Install@@
Lasten
größerer
sorge
Konzern@@
Nacht@@
home
versicherung
voran
ô@@
Europol
Regulierungs@@
Umsatz
begleiten
begrenzte
erwähnte
Lad@@
basierten
Bul@@
Puerto
Scho@@
Vorgaben
bru@@
jo
schrieb
übermittelt
gefährlichen
terer
zips
Hunder@@
hef@@
ähn@@
Beste
Datei@@
Motto
eig@@
vergleichen
verpfli@@
Katastrophen
bist
fter
leich@@
ora
ties
Energiepolitik
Übereinkommens
Lehre
Missbrauch
beruhi@@
ebene
kritisiert
orientiert
stoß
Bewegungen
Prävention
seln
strenge
vorgesch@@
Log@@
aufgerufen
beiträgt
interessieren
islam@@
kehren
par
hebt
iser@@
kulin@@
erneuerbare
mo
IV@@
Komit@@
PA
einhalten
orienti@@
potenzi@@
Justiz@@
alternative
endgültig
gulierung
diger
TE
Erfolgs@@
Fluggesellschaften
Lernen
angeschlossen
card
empfin@@
kehrt
vorteil@@
erfolgte
keinesfalls
strengen
Attraktionen
IK@@
Transfer
monat@@
örtlichen
56
Life
ated
mol@@
sitzung
Gener@@
negativ
änder@@
Ga@@
ehrgei@@
inbegriffen
runde
wen
Gegenwart
Wort@@
aktivitäten
beurteilen
russ@@
vorhin
ausgesch@@
außerord@@
tägliche
Hektar
Schle@@
Wachstums
heu@@
Bezahlung
Koordin@@
erfolgreich@@
gewisser
tin@@
v.
Eigenschaft
Frühjahr
Höh@@
bevorzu@@
einher@@
forderte
sexuellen
zielen
anst@@
bewe@@
familien@@
reiz@@
Erwer@@
Flugzeuge
analy@@
gesp@@
hungen
mod@@
Schwarz@@
langs@@
59
Rein@@
ermutigen
kreu@@
Budapest
Fü@@
Offen@@
Top@@
Bedienung
Eingri@@
ausserdem
falschen
geli@@
vermögen
ökonom@@
erreichte
liberalen
rats
unterbreitet
Gefängnis
blu@@
knapp@@
loh@@
Batter@@
Massage
Professor
sicherungen
ys@@
Dienstleistung
Vel@@
Transaktionen
registriert
terrasse
wendungen
änderung
Armen
Besitzer
Leg@@
Wissens@@
anstelle
ball
schaft@@
Designer
ani
schlechten
Aktien
Ran@@
under
würdige
53
Fischer@@
Fähr@@
Mallorca
Völker@@
arbeitungs@@
ausgelöst
berufliche
bran@@
übergeben
Hit@@
Vers@@
datei
itäten
würfe
Blan@@
Diam@@
Fron@@
Hügel
Strasse
austau@@
gutem
kompak@@
komplex
lic@@
Optimierung
Zuständigkeiten
abends
bilder
chner
e.@@
erinnere
hon@@
konzept
pfung
sters
abhängi@@
ambi@@
enttäuscht
legitim@@
Israels
Wille
beschei@@
red
verwöhnen
verän@@
Dritter
Gum@@
Tennis@@
bene
erörtern
realisieren
rechtfertigen
Gewinner
Rand
Schatten
Team@@
beschreiben
klassische
Kün@@
Real@@
beizu@@
solide
verwen@@
cre@@
eingerichtete
geeig@@
Data
Dikt@@
Subsidiarität
Vorsitzender
Arbeitsbedingungen
Genuss
Hamas
ertem
ratifiziert
SD@@
deli@@
exklusiven
freundliches
gegeb@@
qualifizierten
Lang@@
gewinn@@
ministerium
museum
näh@@
sische
stab@@
unerlässlich
Pflege
Rand@@
deutscher
entscheidet
James
Work@@
hüb@@
marquis
schwi@@
Libanon
Reaktionen
Wor@@
internationales
mieten
Buchungs@@
Up@@
bildungs@@
bischen
steuerung
Kabel@@
beobach@@
droht
err@@
gerweise
Ecke
exklusive
ignoriert
überwiegend
Amtszeit
aktion
lohnt
zeuge
Konjunktur@@
geordnet
Solar@@
abkommens
konzent@@
ques
reichung
Betroffenen
ausser@@
mische
ologischer
uter
Besuchern
Futter@@
beschrän@@
grüne
vorange@@
minist@@
Galerie
Seen
aufgaben
chende
Überarbeitung
Tochter
erläutern
gewachsen
kommende
Bilanz
Touren
ausführen
ever@@
gewünscht
ill@@
Heiligen
Zufriedenheit
genehmig@@
zigen
östlichen
Autoren
Russ@@
Streit@@
grundlegender
op
Nan@@
Verantwortlichen
Vermittlung
acc@@
back
derten
wachsen@@
ökologische
Sowjetunion
Verträgen
akzeptabel
umgekehrt
visi@@
zah@@
Budget
Rit@@
bevorstehenden
erzielten
hard
weißen
wenigstens
Palästinenser
Schü@@
kritisch
positionen
Gran
Ufer
dt
ema
Aktualisierung
Vergnügen
geholfen
rech@@
richt@@
widri@@
Ministerrat
fertigt
freu@@
Ach@@
Fortsch@@
Islam
arch@@
unzureichend
zell@@
Desktop
aben
konto
Empfänger
Hom@@
SS
geschlagen
verhe@@
vierte
6,@@
isten
sle@@
58
Anweisungen
Gö@@
Tempo
Tragödie
Vereinigung
best
daneben
een
wör@@
Arbeitnehmer@@
japanischen
rali@@
schützt
Arbeiter
Arzneimittel
bekräftigt
reibung
öffent@@
й
Kurse
Reich
Textil@@
auto@@
deu@@
Gipfels
meister
riesige
ßer
Cou@@
bauten
fach
gegenseitige
top@@
MA
Metern
absch@@
night
Cha@@
gesetzte
vorn
Get@@
Renten@@
Unterdrückung
fälsch@@
gangenen
haftet
ulen
Berei@@
Schwimmbad
Taus@@
Viel@@
ader
musik
untergraben
Abschluß
Anhang
Wiederauf@@
Zimmerservice
inf@@
projek@@
zeigten
Canon
Realisierung
Resolution
Verhand@@
erhöh@@
some
Content
Fried@@
Städ@@
lehnen
treff@@
Erkenntnisse
Gesprächen
Tun@@
samen
suite
Jahrzehnte
Pack@@
fak@@
tra
ра@@
EIN@@
Finanzmärkte
Gewerkschaften
Mittelmeerraum
Schlag@@
Arzt
Bewertungen
Eine
beleu@@
erläutert
iler
info
lock@@
Beruf@@
Gewi@@
Shi@@
Tel
Gepäckraum
Las
ð@@
Baby@@
PO@@
ac
bedenken
irgendwelche
partei@@
stän@@
tat
va@@
Lebensmitteln
Lebensqualität
Wahr@@
befriedi@@
stü@@
wichti@@
thaf@@
Banken@@
Effekte
manu@@
verl@@
wozu
Heimatland
Rande
eld
erworben
ille
landes
protokol@@
umfassen@@
zerstör@@
Güter@@
Tourismus@@
achtung
pol
run@@
tags
verwaltet
Abstand
gigen
makro@@
spruch
spä@@
ura
üblich
elektron@@
elemente
thin
trieb@@
wofür
CS
Digital
Dokument@@
Mitglieds@@
servi@@
teure
cer@@
fac@@
gesell@@
onie
Anhänger
Governance
analysieren
enorm
mündlichen
teilgenommen
88
füh@@
van@@
weiterzu@@
Ali@@
Betriebssystem
Heili@@
ablen
eingebunden
gesellschaftliche
star
Aufforderung
Investition
Tickets
blä@@
geführten
zuge@@
Trink@@
sinn
Beruf
Tschechischen
gäbe
interessan@@
trauri@@
Abstimmungs@@
Gau@@
Papier@@
dreht
bot
brenn@@
ost@@
reale
zumal
Audio@@
Café
Versu@@
dem@@
integri@@
schn@@
tors
Herberge
Litauen
beträchtliche
jährliche
sied@@
67
Anregungen
herz@@
sist@@
verti@@
Diese
Rak@@
Tak@@
intensive
verhäl@@
Event
Hotelsafe
Kul@@
ckte
haltenen
vorbe@@
Party
Trends
Zinsen
angeneh@@
been
comp@@
händler
ran
vereinbar@@
195@@
Einzelnen
Mah@@
basierend
erb@@
zurückkehren
Einschränkung
Weiterbildung
agentur
stische
xe
ältesten
AD
Gerä@@
Ost
Schattenberichterstat@@
föder@@
steigenden
SE
einzigartig
einzuhalten
idealen
vorkommen
Instrumenten
Oliven@@
Schre@@
begeistert
frisch
vermis@@
Erzeuger
Innovations@@
gesunden
ico
Übersetzungs@@
Zü@@
berühm@@
nutzbar
sum
93
Beratungs@@
Repräsent@@
ausger@@
betrag
ernste
stritten
zusprechen
Unternehmen@@
bank@@
industri@@
Bern@@
Sei@@
ähr@@
ding
einzelner
fur@@
Anreise
Maastricht
Mazedonien
mission
wü@@
Ve@@
bezahl@@
niedriger
UND
jeweilige
komp@@
rich
Temperatur
plä@@
small
Rahmenprogramm
Wartung
ero@@
konsolidi@@
mitgeteilt
place
ritts
ritts@@
site
Free
Front
Gerichtshofs
engagi@@
rag
schil@@
strafrecht@@
Finanzmittel
Malta
angeben
einzubeziehen
gegenseitig
kore@@
regierung
reine
stätte
Übersetzungen
Dienst@@
kompatibel
konsul@@
längst
status
Archiv
Karten@@
Kreuz@@
deutsch
kenntnis
Behin@@
herauszu@@
low
hinein
lossenen
ungsh@@
Saf@@
Sin@@
diskrimin@@
idealer
notwendi@@
pf
Ausstellungen
Fahrrad@@
Gesellschafts@@
Konzep@@
Süd
einziges
fertigen
wiederhol@@
Atlan@@
Einwohnern
Kathedrale
Scheitern
freies
A3@@
BMW
Chr.
Wit@@
deutet
frist
pfe
Corporate
Industriel@@
aufweisen
frag@@
ganz@@
gisch
reichhal@@
Playa
Tot@@
ash@@
Kandidaten@@
Zul@@
gefällt
harte
Ernährung
Fes@@
Zurück@@
öl
Luf@@
Mini
Wiener
qualifizi@@
sexu@@
tiker
Konsultation
arab@@
pis@@
verglichen
Büro@@
Ein-
Kredite
UNG
kennen@@
längere
nom@@
örung
Pir@@
nennt
Dach
Erst@@
beider
einzel@@
implemen@@
ix
zerti@@
überlegen
Integrations@@
Mont@@
Spi@@
forderten
geo@@
klarer
Analysen
Prote@@
Verkäufer
halb@@
my@@
schneiden
vereinfachen
Cra@@
Lobby
Nat@@
Pon@@
Schön@@
Virus
kommerzielle
einig@@
löst
KOM
erhol@@
stabilität
HT@@
XP
eingerichteten
gelang
haus@@
schieben
schnei@@
weitreich@@
Entschließungs@@
Ratsvorsitzes
anz@@
auswärtige
birgt
gin@@
Haushaltsplans
Mass@@
Schö@@
begangen
gelung
loses
verschiedensten
vit@@
wirkungen
Ol@@
Skla@@
Ursprung
Verhäl@@
denselben
effektiver
messe
verträ@@
äufe
übersetzt
Differ@@
Referenz@@
vierten
Absichten
EW@@
Flotte
Orts@@
Rock
ahl
ausgewo@@
chem@@
kompletten
konfli@@
Deb@@
Flug
Gir@@
Infek@@
gerichtete
kommens
niederländischen
в
Legislativ@@
Marktwirtschaft
Wenn
deinen
fizierungs@@
hotel@@
kab@@
technologie
Auslegung
Gam@@
Tee
abwechslungs@@
blatt
kn@@
unteren
zukünftig
zö@@
Lösungs@@
gewe@@
rie
vorherige
B5
Montage
Sper@@
annte
bedauerlicherweise
first
ine@@
letztes
Instruments
digten
vernachlässi@@
Verstärkung
ami
plant
ron
sorgfäl@@
vieren
after
board
immer@@
neueste
sache
wohn@@
bas@@
dlichkeit
durchgeführten
schaden
still@@
äußerster
о
Sozialdemokraten
Stan@@
Taste
unterhalten
verhandeln
án
Berater
CE
konstru@@
Partnerschaften
erbar
ino@@
saison
EP@@
Erfol@@
Fun@@
Kie@@
LE
Studien@@
bewähr@@
glück@@
mündliche
stärkeren
tou@@
univer@@
Palästina
Taiwan
ann
cas
gsp@@
samkeit
schlechter
schrieben
wus@@
engagiert
lagern
Problem@@
Wü@@
inos
versetzt
zte
AF@@
Inhaber
Spit@@
Wie
ausgewogenen
beeinträchtigt
Entstehung
Feld@@
Richtlinien@@
Sz@@
amerikanischer
berechtigten
gebühr
verbesser@@
All
Entwicklungszusammenarbeit
akzept@@
mmen
vorherigen
Brau@@
Gitar@@
ple@@
ritt
web@@
wolle
Ul@@
Verhältnisse
ensystem
ssigen
57
bliche
genehmigt
verhältnisse
zur@@
ünd@@
höh@@
programmi@@
77
Fir@@
dä@@
vielfältige
sämtlichen
Geschenk
Panorama
Halbinsel
Sex@@
Ty@@
entfer@@
iPhone
inhal@@
inst@@
sexuelle
Jugoslawien
Stahl
Wes@@
beln
streit@@
verständ@@
Zins@@
chtern
frequ@@
ttes
verkauf
Diensten
Hum@@
Play@@
Temperaturen
ierungen
sla@@
Ausfahrt
Bedingung
Point
bekanntesten
errichten
friedlichen
inieren
restau@@
zurückge@@
Bli@@
antrag
verehrten
vorsichtig
Vorsitzende
einheit
schnelles
Fi
Master
charman@@
die@@
gleicher
rasche
Flüge
nehmern
Apple
Gebiet@@
Migrations@@
Vizepräsident
bedingt
glich@@
ito
jähri@@
lands@@
Cent@@
amtierender
lück@@
met
niedrig
ruppe
verwand@@
Juden
Slowenien
durchsetzen
größtenteils
wick@@
Aussichten
Fahrzeug@@
Kohärenz
TH@@
beseitigt
menten
traditionell
Mobile
kus@@
wenngleich
Box
Feuer
Initiativ@@
Liqui@@
Zwangs@@
bevölkerung
bon@@
fluss
quali@@
verbrau@@
vermu@@
Gesetzes
Quoten
Reak@@
Swimmingpool
abzielen
bewertung
denkt
substan@@
Korrek@@
Sul@@
gebrochen
keit@@
kultur
orten
wäs@@
zahlreicher
Berichterstattern
IM
Sand
spak@@
äck@@
Kernkraft@@
fran@@
schulden
Aro@@
Mehrwertsteuer
bricht
iere
schlage
ungarischen
Eigentümer
PRO@@
ages
einheiten
keits@@
malen
ther
wirkung
Mili@@
Mä@@
Pilot@@
ignorieren
start
südlich
Hans
Stich@@
führender
Beendigung
Befehl
Leidenschaft
finanziell
gesunde
gewählte
größt@@
portugiesischen
urs@@
zerstören
©
Administration
Dur@@
aufgehoben
kapazität
potenti@@
rücken
türkische
willigen
ym
Brief
auszuüben
itt
rem
alter@@
anspruchs@@
bo
dazu@@
sts
Verbre@@
europä@@
landwirtschaftliche
wissen@@
Opfern
gebilligt
rus@@
worauf
American
Ausgang
Index
Piazza
inspi@@
Beobachter
Geschäftsbedingungen
St
ament
chron@@
gehörigkeit
weis
Geist@@
ausgelegt
bestimmung
ellem
kurz@@
schnitte
sieb@@
Hochschul@@
Merk@@
Mode
zungen
effektiven
rachte
schwerer
siven
unterliegt
Automati@@
Gelegenheiten
Perspektiven
lager
mitzu@@
wissenschaften
aufeinander
personenbezo@@
schaf@@
straßen
Ereignissen
Hard@@
ermitteln
verleiht
Öff@@
04@@
Kanal
Koordination
Passagi@@
Textes
tausende
vers
7,@@
Konkur@@
agieren
jähriger
luxuriöse
stau@@
9,@@
Rio
analyse
could
traum
Implementierung
Len@@
Luftfahrt@@
bedien@@
begrenzten
nützliche
projekten
vil@@
SQL
bach
esslich
glücklich
zusammenzuarbeiten
89
sinstru@@
ко@@
belegt
e-
einzurichten
esta
set@@
Auseinandersetzung
Bit
PC@@
erischen
üben
Dienstag
Genf
Zwe@@
faßt
gekauft
irgendeiner
sendet
ı@@
Kluft
Zw@@
befürworte
biologischen
ends
verschieben
Besonderheiten
Erforder@@
Stein
aufwand
diensten
entran@@
tü@@
Ankündigung
Armuts@@
cos
eingereichten
Eigentums@@
Einheiten
Küchen@@
Neue
unan@@
verstoßen
63
Hen@@
SAP
Völkerre@@
don
gal@@
meter
Fragestunde
Internetseite
Legitimität
Ton
Variante
einzelstaatlichen
kirche
ori
primi@@
vielfalt
Award
Mailand
flotte
partner
Autor@@
Massa@@
Rechtsa@@
ables
aterie
freiem
reduzi@@
sprachigen
verankert
94
chenden
einmalige
energie
gerechten
griechische
unterhalb
Aufwand
Gelände
Komplettpreise
finanzieller
PSE
materialien
Installations@@
Reichtum
daraufhin
erwe@@
ests
junger
ordnungs@@
ald
personenbezogenen
wenigsten
Blick@@
Spuren
Wikitravel
Randlage
Zit@@
artige
aufrechterhalten
digit@@
diverse
schaftlichen
AK@@
Hab@@
Kommissare
Tatsachen
dak@@
dauerhafte
herzlichen
müsse
unmittelbaren
Wahrscheinlichkeit
anten@@
aria
lis
pot
Charak@@
Oli@@
lette
sien
82
Que@@
UNESCO
Verzögerungen
eken
fehlende
regelmäßigen
verliert
Pum@@
Schmu@@
Tendenz
inde@@
regen
wünschenswert
TS
Verzögerung
aut@@
biets
klares
ühr@@
Elementen
berühmt
enser@@
gebene
malerischen
most
trock@@
versuche
wehr@@
Fehlen
ester@@
koh@@
Blu@@
Features
Kreis
Szene
endete
nördlichen
verhandlungen
Eintritt
Formel
Onlin@@
Unterhaltungs@@
Vorbereitungen
begreifen
besetzt
normal
zent
Architekten
Board
Entschließungen
gerich@@
ingt
Beweise
Dir
Fr@@
air
fru@@
ichts@@
räge
ted
Afri@@
Gegenstände
MP3
kräften
morgens
oria
steck@@
Konflikts
Mit
New@@
chambres
erlau@@
verschi@@
verz@@
mäl@@
tels
Überwachungs@@
Defizite
Marketing@@
Weihnachts@@
Whirlpool
öhnt
Bis@@
Blut
Captain
Ged@@
Organen
Zusammenbruch
asen
authenti@@
erie
konstruktiven
mengen
ordnen
rist@@
stabile
strö@@
AIDS
Aktions@@
abgesch@@
gelöscht
ströme
tran@@
veranstaltungen
zutiefst
Christen
Denken
I.
Libyen
kontroll@@
я@@
Aufruf
Max
Reb@@
angehören
mehrmals
their
zukunfts@@
Ernährungs@@
bereitzustellen
endem
2015
Untersuchungs@@
cul@@
xes
Arbeitskräfte
Frage@@
abstimmung
zustand
Segel@@
analysiert
ausführliche
breites
gerichteten
iss
62
Arbeitsweise
Bag@@
Bekann@@
Integrität
Main
Tech
Tunesien
geschwindigkeit
reicher
stunden
Reihenfolge
frühere
giert
menü
startet
außergewöhnliche
häusern
religiöse
zuverlässig
Argentinien
Kaffe@@
Material@@
Schalt@@
dei
gene@@
Öko@@
Bour@@
Datenbanken
Luxus@@
Stadtteil
Trennung
anbietet
gebrau@@
gesun@@
inwieweit
leihen
Effektivität
Grafiken
Inneres
Kompromis@@
UM@@
auseinander
gefasst
gravier@@
two
A.
Begriffe
EVP
Sorgfalt
Stabilitäts-
Wert@@
chtungen
detailli@@
ento
ärm@@
anderswo
orie
stärkt
69
App@@
EM
Tipps
Vista
Zugangs
situ@@
Anim@@
Glob@@
besticht
geho@@
gemis@@
kompliziert
mehrerer
reform
rägern
schuldig
schungen
Reserve
Schli@@
bedauern
dsch@@
unterstreicht
vention@@
91
Ech@@
Kommissionsvorschlag
effizient@@
gipfel
hotels
kenntnisse
Speicher
format
hilfen
stungs@@
verschoben
Sc@@
belgischen
dend
verknüpft
Green
emissionen
sender
streichen
Seever@@
Spielraum
allo
cent@@
friedliche
warmen
beliebten
besseres
flüge
kämpft
parlamentarische
vorne
zwangsläufig
Geschlechter
firmen
langjährige
nähe
C5
Kirk
Vorwand
Wach@@
cal
ford
islamischen
städ@@
tre
zweifel@@
73
Christdemokraten
Ersatz
bedeutend
drehen
entworfen
genauen
wechselt
Ausgleich
Mem@@
Real
Ski
ics
kanz@@
kunst
starker
OK
aci@@
asiatischen
erschienen
män@@
Zwecken
atorium
sun@@
Leid
Sem@@
erschein@@
gemü@@
hen@@
jahres@@
Billi@@
Territorium
atur
erzi@@
prote@@
Visa
bren@@
funden
intelligent@@
reit@@
Central
Phot@@
ausgezeich@@
mittag
nig
orte
übrig
Neues
defizit
maßgeb@@
Vorbild
taten
verhältnis
Vermeidung
gefolgt
kultur@@
nie@@
wandern
Golfplatz
Menschenhandel
Treiber
anen
drück@@
isierten
но@@
Km
durchgesetzt
durchschnittlich
glücklicherweise
hi
leidung
struktu@@
ua
Wechsel
Weißbuch
achte
erwar@@
füllt
geltend
geschätzt
igkeiten
mittlung
terin
Ale@@
Av@@
DC
bereitstellen
blü@@
setzungs@@
sicherheits@@
umfassendes
BR@@
Betre@@
Freien
Islam@@
Kopie
Krie@@
Wochen@@
ffene
gewann
sex@@
wurfs
Asi@@
Bay
berger
qui
schmerz@@
Besich@@
Frankreichs
Schwan@@
ally
entschei@@
kü@@
unglück@@
verbot
wunderbare
zweimal
Dich
Energieversorgung
Mauer
beitreten
industrielle
nachvoll@@
EX@@
bedeutendsten
flexi@@
gabe@@
lägen
tolle
Anzeichen
belieb@@
einsei@@
müßte
vorhandene
і@@
Fertig@@
Fris@@
Jahrzehnt
Konflikten
Zut@@
port
untereinander
Ank@@
Kup@@
Schlei@@
chnungen
fic@@
korrigieren
revolution@@
sozusagen
splan@@
weisungen
Eintrag
Physi@@
allmählich
blau@@
piel@@
vertei@@
Person@@
Qualitä@@
Stimmung
Zulassung
rachten
veröffentlichten
zugän@@
ED
Logo
bereichs
Fli@@
attrak@@
bestä@@
dan
dauerhaft
geschätz@@
gram@@
kopieren
stunde
unweit
ölle
Albanien
Aufträge
Az@@
Wurzeln
nehmbar
ong@@
61
76
Empfän@@
Gastfreundschaft
Ungleichheit
Wahrnehmung
gehörte
gesorgt
gni@@
BO@@
Charles
Jahresbericht
Kandi@@
strategien
Epi@@
andem
betrug
entiert
esti@@
78
Inv@@
MA@@
Poker@@
Rahmens
Salzburg
ausgestatteten
erweiterte
max
unvergesslichen
verfasst
Beru@@
Bud@@
Parks
Prak@@
Standpunkte
ausbildung
ax
gek@@
rechnung
verband
wesens
wuchs
Konstruk@@
banken
bew@@
ear@@
konz@@
netes
order
tetes
Thailand
fischen
lichkeits@@
realisti@@
Dolmet@@
Hoh@@
cas@@
erschien
fair
frische
Ganzes
Kaiser
Rechtsan@@
ausgedrückt
fel
geklärt
lem
minutes
regelmäßige
zel
freundlicher
gebenden
iss@@
kir@@
korrekte
gnis@@
verbindlich
Stuttgart
berich@@
chemischen
dat
getestet
indirekt
optimalen
äle
Zubehör
sonni@@
Taxi
bte
Hilfen
Thermal@@
Wetter@@
müh@@
systematisch
OR
Voraus
tauschen
Ausnahmere@@
Touristen@@
prüfung
überdies
Fertigung
Grundfreiheiten
Nationalpark
Ostsee
artig
glie@@
gran@@
Pack
defiz@@
vorangegangenen
900
Bildschir@@
Leistungsfähigkeit
assungs@@
ausgebaut
bezogene
fundament@@
schau
vielfach
Komponente
Uhr@@
fis@@
genheit
kamera
rische
Demon@@
Durchschnitt
bevor@@
klass@@
lässi@@
Alexander
arte
bereitschaft
schulen
Ari@@
Att@@
Stütz@@
Verein
verbieten
weitem
Amp@@
Bonus
Kommentar
Spanisch
belegen
door
gericht
hinzuweisen
schwarzen
schön@@
therapie
Ärzte
Binnenmarkts
Vir@@
genügt
runden
Flüchtlings@@
Glaub@@
Präsidium
Space
Zug@@
bemerken
bietern
gegebenen
schir@@
stoppen
vin@@
Gaza
Netzes
Rh@@
Sich@@
demnach
fek@@
großartige
lische
Abfälle
Cham@@
unverbin@@
Gleichbehandlung
Mitwirkung
archi@@
ausgewogene
institution@@
verkauf@@
Ernennung
Informationsgesellschaft
Nich@@
leichten
nette
ok
vorrangig
Ero@@
Gemüse
Gäste@@
Rats@@
Ursprungs@@
reservieren
treibt
vermehr@@
zierte
Erfin@@
Versand
Vorredner
Weltkrie@@
Zielsetzung
aden@@
identi@@
Wohlbefinden
besagt
even
Fußball
Literatur
Neuigkeiten
Portu@@
Welthandelsorganisation
beliebt
datum
ferenzen
gültigen
mut
team
zeitraum
40@@
Lap@@
Sortiment
Zauber@@
zulässig
.-
EA
Konzert
Laser@@
Put@@
Snow@@
bezauber@@
deutlicher
tatsächliche
Geschichten
car
HIV
anmelden
einzustellen
hem@@
stahl
symboli@@
Berechnung
Parlamenten
Sän@@
arium
ausgearbeitet
maß
schreiten
stechnologie
Europä@@
Strate@@
anwend@@
läge
ols
stufen
t-
wahrnehmen
Fleisch@@
Simbabwe
Sternen@@
bestellt
gerin
ies
räder
weitergegeben
Betrugs@@
Fitness
ati
förmi@@
äter
Festung
HD
Impulse
Sensibili@@
hindert
spieler
verbreiten
Release
Tele@@
ank
anstreben
atemberau@@
büro
schicht
sichert
steigende
vorausgesetzt
Devisen@@
Besonder@@
Bir@@
Casa
Informations-
Level
PD@@
Ratspräsidenten
Statistik
Swiss
easy
ml
pap@@
saubere
späten
ssige
Mühe
Signale
Stränden
Trag@@
Vertriebs@@
arme
deb@@
ony@@
Heu@@
Registri@@
uten
wende
M.
Transa@@
abgehalten
faktor
irre@@
meint
schwedische
setzten
Arbeitslosen@@
Himm@@
CDs
Dum@@
Fokus
Nahrungsmittel
Porto
Toi@@
Treib@@
bul@@
bürger@@
cel@@
own
Dörfer
Mittel-
hinterlassen
io
rahmens
Dringlichkeit
Kühlschrank
Wunder
abzielt
höchst@@
tien
zonen
Schiffen
Umstrukturierung
aufre@@
fahrt@@
ory
besichtigen
einla@@
pläne
thaus
ual
vorschlägt
Bier
France
GR@@
Ruh@@
doppel@@
fließen
lab@@
liziert
reib@@
user
verwirklicht
ye@@
Aufrechterhaltung
CD@@
Ord@@
ji
verschwinden
Argum@@
Doha
Fuss
Nom@@
Norwegen
fahrzeugen
ffer
irgendwann
latein@@
unzureich@@
ßte
Flüchtlingen
Jun@@
bewirkt
gkeit@@
häufiger
mangelnde
shaushalt
too
Domain
Nuklear@@
TA
befreien
gt@@
heil@@
moralische
punk@@
Benach@@
Busse
Erreichen
Finanziellen
SI
Stellenwert
antiken
ms@@
tem@@
Einladung
otten
porte
Anmerkung
Annäherung
Bla@@
Funktions@@
Loch
begrenz@@
erfor@@
Bür@@
Ticket
Verkehrsmittel
aktiver
AM
Besteller
DEN
Gebrau@@
Vermarktung
Zentren
passenden
ppen@@
scho@@
ж@@
Edi@@
Indonesien
damaligen
dition
gefühl
harten
kommunistischen
lob@@
ux
Gefangenen
Tou@@
entwickel@@
herunter
Glück@@
Karl
Landschaften
Partei@@
Richard
anfangen
eland
horizon@@
tend
Schiffs@@
Substanzen
akt
masch@@
Fitness@@
Gefän@@
Impf@@
Sicherheitsrat
Tagungs@@
Währungen
gegrün@@
iten@@
mache
Konta@@
PH@@
Petitions@@
Semin@@
beantragen
bewus@@
bungs@@
einbringen
laufende
vereinfacht
Mitentscheidungs@@
Techni@@
benötigten
gebir@@
sachen
verstärkten
м
81
Adri@@
CHF
Control
Demokratien
Ess@@
gründlich
latt@@
yo@@
Beton@@
Infrastrukturen
Premium
chnik
heb@@
neo@@
Ansätze
blin@@
verteilen
Finanzi@@
Fristen
Gleichheit
beding@@
bewundern
ünde
Gor@@
Operationen
Säule
Zellen
produ@@
stattung
wickelt
Bestand@@
By@@
Formul@@
Gefan@@
enswer@@
halts
preisen
städtischen
tl@@
tnis@@
world
Automobilindustrie
Tibet
arien
drücke
feier@@
glicher
kapital
pum@@
schaftlich
unvermei@@
Spek@@
Techn@@
glei@@
inge
öhnung
Behinderungen
Generalsekretär
Satelliten
Sicherheits-
Sou@@
ome@@
schuss
Begegn@@
GO
Män@@
Patri@@
Projektes
food
gezielt
gleichzei@@
reiben
stam@@
ständiges
ßer@@
Kompromisse
ausgenommen
main
veränder@@
Konzerte
Wärme
andal@@
ansä@@
bekam
oms
shof
vernünftigen
Verkauf@@
Vogel@@
packen
Meer@@
alli@@
ditionen
ergänz@@
leute
lief
mie@@
out@@
ventionen
who
Bad@@
Künstlern
Peking
comm@@
pass
Ke@@
beeinträchtigen
Beobach@@
Kontin@@
pack@@
tiefen
veröffentlichte
winkel
Applikationen
Eth@@
Guide
Indikatoren
betreibt
skrä@@
Gläu@@
Menschenrecht@@
Pfer@@
massive
persönlicher
prochen
verschul@@
Klar@@
Kommand@@
Weis@@
a.@@
fähiger
kapit@@
Alkohol
Display
Gesetzen
anzugehen
ario
benutzer@@
cat@@
his
klausel
stehe
Benutzern
befür@@
esische
ř@@
Hunger
amente
formationen
ligkeit
nachzudenken
äußer@@
Einwände
UC@@
beantragt
ct
Music
Nero
Sol
Typ@@
house
preises
GVO
Anreiz
Zentralbanken
aspe@@
gesetzliche
maßgeschnei@@
offensicht@@
olog@@
schien
Cho@@
Institute
Zeitungen
than@@
wieso
Foren
Joseph
dänischen
gehend
hütung
prin@@
schwarz
teter
ě@@
Jahre@@
Mitgliedsstaaten
schre@@
westliche
überra@@
Klick
niedrige
optimieren
ssel@@
Autonomie
Bruder
Copyright
Executive
Exek@@
Finanz-
Inflations@@
Nichtregierungsorganisationen
Peri@@
differenzi@@
dringen
m.
verbin@@
Abwicklung
Fot@@
Geldpolitik
Griff
Nachteil
anischer
befu@@
behindert
kung
ries@@
sozial
5.000
Räumen
Schaf@@
bten
eingang
lingen
ologisch
vice
2,5
Hongkong
Nachbarschaftspolitik
School
bö@@
energie@@
keiten
schwerwie@@
walt
agements
angeführt
herausge@@
DIE
Diktatur
SP
Studios
koordinieren
schwe@@
ular@@
vorhaben
EX
Palästin@@
ahr@@
beliebtesten
hre
74
Nutzungs@@
bekräftigen
brachten
chem
engagieren
erreichten
gesetzlich
rell
sha@@
Augenmerk
Diplom@@
Doppelbett
Gesamtheit
Metro
TO@@
ø@@
Aufsicht
Entschädigung
Schlu@@
Schwier@@
dauerhaften
pflan@@
DA
Kommunikation@@
Vorstand
brut@@
erkennbar
geschicht@@
lüssen
ßes
Airlines
Feri@@
Geträn@@
auftritt
ausgeübt
elung
mittelfris@@
Einblick
Flughaf@@
Verantwortungs@@
alisti@@
ausgewählte
begab
geordneten
hebung
selek@@
til
touristischen
vi
Orientierung
Statut
Sto@@
Vietnam
acken
eingeben
gelegentlich
ho
ital@@
kompetenz
luft@@
tragenen
Eleganz
Veranstaltungs@@
fünfzehn
illi@@
installi@@
mark
schwä@@
zunehmen@@
Hir@@
Völkern
andau@@
dürften
perman@@
then
Etik@@
Linken
anscheinend
def@@
englische
holung
lot
äden
Flach@@
Spra@@
Square
Verbrauch
atik
gangene
schäden
spür@@
technolo@@
vorbereiten
Cle@@
Ern@@
beweist
Dam@@
Route
modelle
Euror@@
LAN
Teu@@
Verbindungs@@
beruf@@
elegan@@
global
schüsse
zon@@
Lich@@
Ress@@
Sierra
Treibhausgas@@
einsetzt
verträge
Redebeit@@
Zugangs@@
erschüt@@
höhe
zuverlässige
Einfluß
Geburt
Jahrhunderte
bemerkt
grundlegend
Übertrag@@
Brow@@
Fac@@
Krä@@
bark@@
hinzuzufügen
senen
ures
Beschäf@@
Früchte
viertens
Erneuerung
Lot@@
Teilnehmern
autor@@
bezogenen
exist@@
grundlage
sh
ziehung
Alpen@@
Audi@@
Ball@@
Kosme@@
Telekommunikations@@
Verpackung
eds
eigert
erzählt
eta
sowje@@
GPS
Muse@@
Sec@@
Stockholm
fertig@@
hochwer@@
ott
Blue
Single
leiste
nnen
strom
Bun@@
Eisen@@
dementsprechend
gelag@@
qm
stärke
Inn@@
willkür@@
Ameri@@
Breit@@
Inanspruchnahme
spe@@
vorzubereiten
Naturkatastrophen
Rohstoff@@
cl@@
identifizieren
medizin@@
ühle
Unternehmer@@
fikationen
funktionier@@
skraft
zierten
Dafürhalten
Für
Klin@@
Rab@@
Spielern
lern@@
u.@@
Baden
Bat@@
Echtzeit
Forst@@
Heim@@
Internetseiten
Konsumenten
onisten
ät@@
Aller@@
Gültigkeit
Hintergrund@@
Workshops
abteilung
eits@@
facilities
fers
gebor@@
qualit@@
religi@@
schätzt
shand@@
träglich
Hung@@
Säu@@
attraktive
indire@@
inierten
oom
éri@@
Ed@@
Num@@
Publik@@
Reden
Security
billigen
erfassen
fä@@
gelände
strecke
Anpassungen
Einbindung
ernannt
findung
gemeinschaftliche
starb
Italiens
XML
abgestimm@@
ison@@
lichung
perfek@@
schieden
votre
Kamer@@
Migranten
herausra@@
krank@@
Beförderung
Blin@@
Direktor
English
Möbel
Vergü@@
direkter
enthal@@
mensch@@
wachen
Freizeit
Passagiere
Provin@@
Schottland
architekton@@
intelligente
intensiven
latt
BA
Explorer
Streitkräfte
azi@@
Et@@
Kühl@@
Nachbarschaft
Nokia
andt
hôtel
illegal
into
versetzen
fossi@@
renovierte
römischen
strebt
tchen
Autorität
Chaos
ING
Schlacht@@
Toleranz
ppt
по@@
Radi@@
Sili@@
Spir@@
Vulkan@@
asp@@
eventuelle
gliches
länge
regu@@
rot
spannen
stechn@@
unternehmer@@
Dutz@@
Enth@@
geschmackvoll
hervorzuheben
kennung
ous@@
verschärft
Erkrankungen
Lun@@
Netzwerke
Visi@@
Zeile
aufweist
automatischen
dynamische
eux
part@@
such
unum@@
Fertigungs@@
LT
Sekre@@
ao
dynamischen
erholen
fortzusetzen
geschlossene
hang
right
Arena
Songs
kus
möge
sus
yp
Abwei@@
Dienstes
Hoffnungen
Hoheits@@
Maßstab
Prof.
Tä@@
anzen
bil
ersuchen
gesenkt
herrsch@@
sser
sätz@@
87
Persönlichkeiten
Listen
Obst
Run@@
d.@@
gesendet
ultur
zivilen
Demokratisierung
Haushalt@@
Meister
Sicht@@
Stellungnahmen
Zinssätze
historisch
ischer@@
mitglied
nahen
Haushaltsjahr
Kleidung
abzulehnen
acht@@
ttern
vereinbaren
zusammenzu@@
Gesundheitswesen
Schienen@@
adet
chlich
dahingehend
lim@@
tradi@@
Acht
Besetzung
Konzern
Privi@@
Rechtssicherheit
Sozialpolitik
festhalten
geschle@@
kunft@@
übergreif@@
Kapitalismus
Kari@@
Rücken
genutz@@
lux@@
länen
scheinbar
sensi@@
ć
Interview
Lauf
Termine
demzufolge
lé@@
siv@@
soll@@
unterstrichen
Milch
alternativen
bis@@
dorthin
ernden
manager
rang
tic
Außengrenzen
Musiker
Vorbehalte
bom@@
führend
geachtet
internet
problematisch
τ@@
ALE
Aff@@
But@@
Games
NO@@
stanz
Forscher
Höhepunkt
Umgeb@@
ernähr@@
fehler
jenige
rem@@
Königreichs
Resultat
artigen
erender
friedi@@
ow
DR@@
Kalender
Kreu@@
bun@@
geholt
zugreifen
Š@@
Angebot@@
Bab@@
Erschein@@
Zoll
elegant
gster
made
ras
350
Ama@@
Basel
Monte
Profession@@
Schie@@
Sevilla
ausgestellt
votes
wertvollen
Beschaff@@
geräumige
irgen@@
Account
Helsinki
Paradies
außer@@
bedürfen
Campingplatz
Kanäle
Komplexität
Maus@@
Zivilisation
ausmachen
beglückwünsche
dacht
gos
pas
stabilen
unzählige
verlust
wiederhole
Gegebenheiten
Generaldire@@
IA@@
amtierende
begleit@@
drängt
ssel
Fünf@@
fa
tliches
what
ín
EWG
Lamp@@
Louis
Mark
Schluß
Sun@@
audiovisu@@
double
ländischen
voranzutreiben
abwei@@
aran@@
beihilfen
besie@@
erfahrenen
rungen
schätzung
verweist
Auswahl@@
Business@@
familie
gebnisse
verbindliche
Auftraggeber
Begeisterung
FA@@
Radio@@
air@@
arr@@
außergewöhnlichen
bekämpft
fundi@@
koordiniert
mus@@
ov
transatlantischen
vorzuschlagen
zügen
Entwicklungspolitik
Erwerb
Ganzen
Nachfolger
Navig@@
Siemens
TO
baute
genheiten
ly@@
nos
quoten
83
Minder@@
Tschetschenien
bücher
elf
gefangen
kos
ny
Herstellern
Warcraft
beachtet
dierung
dämm@@
tari@@
vorbereit@@
Artikels
Infos
aten@@
ausgebil@@
here
kreative
warm
Kameras
Kloster
Quadrat@@
SW@@
blicke
business
diversen
lichere
mittel-
tener
Kindes
dichte
explo@@
sand@@
Aufgaben@@
Buchstaben
Menü@@
Störungen
etten@@
nische
Dest@@
Minimum
Wich@@
heimische
oberfläche
schwäch@@
verlängert
Lobby@@
Lust
Plugin
Schnei@@
beam@@
beobachtet
mann@@
roten
Network
Rezep@@
beeindruck@@
ku
massiven
ventions@@
österreichische
Buffet
er-
mobilen
teu@@
volumen
ammern
amtierenden
iche
kunde
Entdeckung
Minderheiten@@
Ori@@
Vin@@
abgeschafft
abzuschließen
bewahr@@
grenzt
ning
schwach
Black@@
Main@@
PK@@
Quartal
Spor@@
irgendeine
.-@@
Folgendes
Gewährung
Kn@@
Not
begrenzen
fehl
legislativen
80@@
Ansprechpartner
Commerce
Redezeit
Strafgericht@@
begriffen
herrschenden
irgendwie
tschechischen
vollkomm@@
Fahrzeugen
Immunität
Kernenergie
Subjek@@
Verz@@
gründe
halts@@
versprochen
zern
Ära
önnen
100@@
Rollen
abschließen
ago@@
bles
etwa@@
indischen
packt
really
Alb@@
dicht
etzen
people
Bundesrepublik
Erwachsenen
Kanz@@
fungs@@
isierte
loss
modernsten
serklärung
tie@@
unmittelbare
Entschließungsanträge
Stro@@
geschützten
Folge@@
Interface
Roman@@
beunruhi@@
einzuleiten
enor@@
erInnen
ination
ney
profitiert
schaftlicher
verschlüssel@@
Abend@@
Engineering
Journ@@
Kurs@@
anspruchsvolle
männ@@
zierung
Afrikas
Nikon
Sat
Ziels
ausreichen
durchschnittliche
igten
inen@@
male
timm@@
walk
Breakfast
Bün@@
Michel
RSS
Regierung@@
ausgerüstet
blockiert
digkeit
optionen
Hunderte
One
angemessener
benachrichtigt
festgehalten
freiwillig
trags
verlu@@
Aufklärung
Roll@@
Zutaten
aufhören
elem@@
henden
rüger@@
schreit@@
trop@@
vergleichbar
zug@@
übertrag@@
Gil@@
Landwirten
Repar@@
appar@@
faktoren
ы@@
Brun@@
Ehe@@
Theater@@
dustrie
wunderbaren
bildungen
did
lieferung
resi@@
total
verwandeln
Instabilität
bestraft
multilateralen
sek@@
Antrieb@@
Bedrohungen
Defizit
Schließung
Terror@@
ager
geld@@
halben
langes
ruf@@
services
Beitrittsverhandlungen
Esp@@
Kompromiss@@
Zucker
ards
bearbeitung
club
element@@
europas
ftung
greifende
kümmert
Konvents
bewäl@@
forum
geräumigen
gesu@@
grafischen
reihe
LA
Monats
beherbergt
gang@@
gerungen
itten
privater
tierenden
unglaublich
Aufstieg
Entscheidungsträger
Olympischen
Past@@
wirksamer
Lesen
Pharma@@
abhängen
bestanden
bewegungen
diplomatischen
erbe
markiert
ständigkeit
sämtlicher
án@@
Deine
Moldau
PP@@
Republi@@
ausgeprä@@
bün@@
flüsse
iranischen
vereinbarung
ystems
Kampf@@
Publikationen
Saddam
Verhinderung
Werken
Zeitalter
ausgeben
fangs@@
spr@@
ttä@@
Bedürf@@
Chef
Geschäftsführer
Quad@@
beides
beratung
cy
spartnern
.net
Anwendungsbereich
atz@@
christ@@
herrschaft
schlimmsten
GA
Gefähr@@
Jazz
abschluss
eras
gin
siv
wertet
ão
Gegenden
Residence
Technology
Wör@@
eigent@@
elli
partner@@
zenten
180
Gay
Gesetz@@
Logistik
Nordkorea
Zentrums
fizierten
heik@@
pflegen
Überleben
Durchführungs@@
Richtigkeit
grafische
konkre@@
schaftliche
schrei@@
Masse
Sammel@@
begünsti@@
bereitgestellten
ept
irgendwo
legend@@
rung
schweigen
Beträge
Kali@@
Rechen@@
Veget@@
Verbündeten
bedient
berau@@
geschäf@@
trinken
Akzeptanz
Bestrebungen
Bewegungs@@
Gedanke
Schätzungen
Therapie
begeben
eo
nutzung
xis@@
öser
On
Sound@@
Vermögen
echter
Ausstellungs@@
Gewe@@
Hindernis
Militär
annten
rumän@@
verhandelt
web
Cer@@
Ferienhaus
Funk@@
Gepäck
Servic@@
brin@@
pragmati@@
signifikan@@
Meinungsäußerung
diesbezüglichen
fluss@@
regelungen
schaftsp@@
Aktu@@
Job
Ungleichheiten
Wissens
based
forderungen
gemachten
stungen
verbundene
zufriedenstell@@
Krimin@@
Norm
down
ermittelt
sparteien
ý
Chin@@
Free@@
Lieblings@@
Pazi@@
dramati@@
gemütlich
int@@
sigkeit
spreis
ön
Artikeln
Düsseldorf
Endes
Sab@@
Sozialisten
Wanderungen
ausdrück@@
lok@@
BI@@
Fair@@
Katastrophen@@
Kongo
Ok@@
Spon@@
Syner@@
dität
spon@@
unterschied@@
Behandlungen
Phasen
Zwischenzeit
wissenschaft@@
Befu@@
erho@@
etabli@@
kontra@@
nisch
side
Button
Folter
KDE
Letz@@
Strecken
Visum@@
bele@@
gemeint
kommunizieren
rest@@
60@@
Lev@@
bestehend
dol@@
größ@@
höherer
schaut
stützt
wandeln
Übermittlung
Bürgerrechte
Cab@@
Chile
Erdbeben
Lat@@
Standorten
Wandern
deckung
gratuliere
stechnologien
zir@@
Glücks@@
Isol@@
Kreatur
ST
Unterricht
Volkswirtschaft
biologische
merken
mord
stim@@
Epo@@
Korea
demnächst
gewöhnlichen
glichkeiten
kaner
pflanzen
zeile
ausgewogen
fän@@
gewöhnliche
smo@@
soviel
wirtschaf@@
1988
Pr@@
Vorsicht
ements
künften
ologen
Line
Mig@@
Saudi
V.
entation
gerlich
umen@@
verzö@@
110
Auflagen
Chinesen
Elektriz@@
Kriterium
Nav@@
Schwerpunkte
abzugeben
field
optimiert
Broschür@@
Dep@@
Flüssi@@
beeindruckende
bürgerschaft
enswerten
gestrichen
konstitution@@
verdanken
CH
Erkenntnis
Firefox
Flächen
News@@
anzusehen
laufend
salon
will@@
Elite
Extra@@
Fis@@
Freie
Fülle
aktionen
anwendungen
architek@@
bathroom
exzellente
för@@
kultureller
mittelalterlichen
racht
schon@@
verordnung
überwälti@@
Horiz@@
Kamp@@
Nutzern
Schritten
Tastat@@
Zustellbetten
fisch@@
gesich@@
wehr
Industriepolitik
Inst@@
Maus
behei@@
folgte
iPod
pflicht
rent
turm
84
Gehir@@
Register
SM@@
allen@@
gehand@@
getr@@
jemanden
jenseits
oth@@
ukra@@
Lizenzen
Tagungen
ain
isen@@
künstlerischen
spit@@
stufe
westlich
79
Time
geschul@@
knü@@
maßgeblich
möglicher
stuhl
Etage
Höhen@@
OECD
Stern
betragen
denkbar
fassten
tsp@@
Erfassung
Nachteile
elson
hoff@@
offizi@@
ray
stal@@
Übereinkunft
ен@@
Alkohol@@
Angeboten
Ay@@
Dienststellen
Felsen
Finanzminister
Infrastruktur@@
Schauspiel@@
fang@@
fur
gewaltige
isst
italien@@
parking
sky
zo
Gä@@
Stim@@
ech@@
frau
genommenen
geschenkt
schriftlichen
ausgeliefert
bege@@
japanische
phase
sichten
Hochschulen
Konz@@
Seg@@
Vide@@
alist
atte
nich@@
ond
Schlußfolgerungen
Stabilisierung
anzuerkennen
eign@@
gelan@@
schlicht
statt@@
themen
Ansprüchen
Dich@@
Tanz@@
Zertifizierung
Zäh@@
ppi@@
versorgen
én@@
Assozi@@
Heiz@@
Pfad
attraktiven
muslim@@
radio@@
strit@@
Bay@@
EE@@
Gewer@@
Laut@@
Meilen
Offizi@@
Spiels
eda
virtuellen
Begrenzung
Cy@@
Entwick@@
HU
alien
dd@@
einbeziehen
gebrachten
kum@@
tür@@
wirst
zurückkommen
130
Gestalt
betreut
erhöhte
griffs@@
machung
Nar@@
magne@@
mächtigen
traf
usses
zulegen
Fahrrad
Häusern
Jan
Schwach@@
fut@@
klarstellen
personen
problemen
raff@@
teres
ueber
Genauigkeit
Jahreszeit
artikel
echt
nischen
nischer
zuständige
ë@@
α@@
Aktiv@@
Blä@@
Deck@@
Ganze
Labor@@
Palast
Umstellung
Zuliefer@@
dringlich
felt
unglaub@@
veranstaltet
versuchte
ь
Gemeinschaftsrecht
Kunststoff@@
Lor@@
Reparatur
Schlacht
erhebt
tung@@
Bandbreite
Etagen
Mitgliedsländer
bet
leuten
ode
robu@@
wurf
ört
Fremden@@
Interpretation
Leipzig
Lis@@
Müt@@
ansprüche
einrichtung
kunfts@@
ky
Beobachtungs@@
Garan@@
Mountain@@
aufrufen
erzielte
erzählen
hase
versprechen
westen
zusammengestellt
Gan@@
Laden
Mensch@@
Reichweite
eria
geber@@
menden
perfekten
solidar@@
ttaus@@
wahrgenommen
Anzeigen
Beibehaltung
Territ@@
Vorgang
Zigare@@
belastet
ellen@@
heimischen
lasten
ova
treu
†
Fischereiabkommen
Funktionsweise
Vor
chi
existi@@
kritisieren
tab@@
Sitzungsperiode
seg@@
soren
unüber@@
vermieten
Loc@@
griffs
rah@@
schrän@@
Breite
Engli@@
Erziehung
Host@@
SL
Tempel
cr@@
formuli@@
kürzen
perat@@
Jac@@
Set
TEN
VIP
altungen
ath
israelische
konstruk@@
open
vorgesehene
Datent@@
einhalb
gia
lieferungen
medien
mitt@@
potenziellen
sinstrument
stellvertre@@
univers@@
untergebracht
Eingabe
Konsolidierung
Seh@@
erstklassige
hochrangi@@
tent@@
zin
1980
8,@@
FC
Fundament
Räumlichkeiten
Wärme@@
Wäscheservice
abschließ@@
beginn
buffet
ebung
herbei@@
oberste
stellbar
synchron@@
themati@@
Beleu@@
Franzosen
Gaz@@
befreit
bik
flexiblen
gedenkt
verkörper@@
äd@@
Erhebung
Technologie@@
berg@@
over@@
steine
widerspiegelt
Chem@@
Formate
Konvergenz
Verhaltens@@
bör@@
läufigen
rum@@
stetig
Änderungs@@
Ministerpräsidenten
Shops
Tari@@
angel@@
infolgedessen
jk
zuführen
Arbeitszeit
Behandlungs@@
Vorbe@@
behindern
erwarte
gefertigt
mediterran@@
tigsten
var
Dör@@
Estland
Griechenlands
Haltestelle
Klassen
Sudan
bilaterale
shaush@@
wissenschaftlich
zeh@@
Hotelzimmer
Kohäsion
OLAF
aire
aufhalten
ente@@
genetisch
komplizi@@
ographie
schmer@@
Quer@@
Rohstoffe
diente
einrichten
erweise
nächstes
zugang
zuhalten
DR
Gewerk@@
aufrechtzuerhalten
auseln
bemü@@
tiz@@
1986
Dolomiten
Zeitschrift
druckt
erhielten
mischer
relevant
Begleit@@
bestätigung
schied@@
Aufpreis
debatte
disku@@
weren
Anleger
exakt
krieg
mäßigkeit
territori@@
verwandelt
wohin
Begleitung
Den
Gesprä@@
Kontinents
Modellen
Wirtschaf@@
bahnhof
ball@@
besuchte
erstre@@
kenne
liter@@
mem@@
unkten
Spann@@
Terror
hielten
klassi@@
mals
verknü@@
Anreis@@
SY@@
Spiegel
Terminal
anerkannten
multilater@@
ungsphase
Christian
Eck@@
Erweiterungen
Stil@@
URL
morali@@
nachfolgenden
Assist@@
Bed
CE@@
Fotografie
ION
Milli@@
Plug
Viren
berechti@@
geheim@@
ht@@
jet@@
verantwortung
Darlehen
IE
Il@@
Mannschaft
RE
Rettungs@@
Turni@@
Zusammenfassung
berge
geeinigt
hs
pension
schwächen
speisen
übernahm
1945
Angel@@
Benz@@
Fäl@@
Kongress@@
Punk@@
Sports
beauftragte
beis@@
überdenken
Hypoth@@
definitiv
lierung
mutz@@
setzungen
vereinbar
Überwindung
Hyper@@
Interventionen
Zusagen
ali
europa@@
Ausschüssen
Fischereis@@
Hall
Hauptziel
Nordirland
beheben
erbringen
front
pel@@
vorzugehen
zufriedenheit
Klang@@
aufkommen
cer
einfaches
geschwindi@@
ggf.
gängig
t.@@
unkomp@@
verursachten
vollsten
Anleitung
Durchschnit@@
Klaren
Leist@@
Mittagessen
ators
christlichen
demselben
gründete
sweise
verläuft
ückt
Co.
DS
IX
Löhne
Motoren
Szen@@
abel
aufgeführten
beauftragt
gefahren
onte
verlängern
ving
CON@@
Gremien
Grie@@
Korrektur
Sprit@@
Valencia
bed@@
blich
off
streiten
Auskunft
Tren@@
allgemeiner
dachten
ende@@
forder@@
gebucht
po
prozessen
til@@
zügi@@
Aufnahme@@
Kriege
akzep@@
besser@@
ción
Bestände
Kä@@
Trä@@
Zukunfts@@
lev@@
willst
übertragung
Was
aufgeben
eili@@
transparente
win
DO@@
Europäisches
Leucht@@
ahn
ehl
facto
where
Gru@@
Jerusalem
Sozialpartner
atom@@
korrigiert
Dunk@@
Gesetzgebungs@@
Verschlechterung
Warnung
ichtungs@@
skep@@
tismus
älteste
Schnee
artier
sers
versorgt
Birma
Chr@@
Seminare
Tabellen
Texten
cur@@
experim@@
musi@@
och
offenkundig
restrik@@
spläne
wachstum
wählt
Bek@@
Dresden
Ersten
Nä@@
Rechtsrahmen
Turm
ais
ban
einigt
exo@@
formation
gnü@@
hand
ish@@
keln
kter
wöch@@
Drucker
Partnerschafts@@
Quark
Reisenden
Versicherung
empf@@
gescho@@
para@@
sinken
zweites
Fuss@@
Hier@@
Home
Schwächen
Temperatur@@
Tut@@
Ven@@
seinerzeit
slowak@@
verteidigt
währung
Asyl
Beg@@
Plattformen
Suites
anna
duktion
partnern
vorherseh@@
widerspiegeln
Öffent@@
ер@@
boot
bürgerliche
01.@@
Akademie
Blair
Verwand@@
dor
rierte
strukturellen
ungeh@@
wünsch@@
zeitlich
ästhe@@
Pakt
Palma
Sieb@@
Tier
beschäf@@
bie@@
cap@@
dent
dner
entnehmen
sil@@
untersu@@
vernünf@@
Patten
Tennis
access
arti@@
bilität
nder
Frühstücks@@
Preises
Sicherstellung
juristischen
zurufen
Datens@@
Gut
Nigeria
Rep@@
Tiefe
Zie@@
entziehen
ometer
positives
ро@@
Angestellten
Innov@@
Os@@
Stadium
Subsidiaritätsprinzip
altern@@
beugen
many
nahe@@
nördlich
sfer
territorialen
vierung
Cafés
Trock@@
anschauen
artiges
handelte
katho@@
Appell
Côte
Kolumbien
Potential
Tauchen
sorgungs@@
tagung
Algerien
Angehörigen
Kron@@
Lande
SK
aufrecht
beunruhigt
fache
plung
ritte
verläss@@
üblicherweise
Ausbruch
Hannover
Komplex
Periode
Strafe
Tepp@@
beginn@@
blieben
galt
heruntergeladen
verdi@@
wissenschaftlicher
CA
Einsparungen
Energiem@@
Kamin
Kompromiß
Konservativen
Symbole
Vene@@
arbeitenden
eingebettet
formulieren
komfort@@
repräsent@@
wälte
Gesichtspunkt
Kämp@@
Leu@@
Prüfungen
Spam
beloh@@
enter@@
fizierte
gehalt
justi@@
ähnlicher
Festivals
SMS
beschleunigt
dek@@
ext
mittelständi@@
situationen
verlan@@
verlor@@
zwecken
Grafik@@
Jahrestag
Schuh@@
Stoffen
agen@@
lek@@
rass@@
vereinen
verwendete
wohnt
Allgemeine
Balkan@@
Fan
Filmen
Salz@@
entschuldigen
geschah
günstiger
kehrungen
Gebäudes
Spannung
entsprechender
ganzheit@@
gänzlich
idylli@@
mag@@
verbrauch
Allgemein@@
BM@@
Beschränkung
Brüder
Spekul@@
Vertrau@@
einheimischen
gelassen@@
liebt
schlu@@
Ermitt@@
Place
Planet
bedaure
lier
Entwickl@@
Gun@@
ROM
Skri@@
Welle
Wiederein@@
höher@@
kostenfreien
1985
Jes@@
bedeutender
belast@@
definierten
gewichte
klo@@
schwachen
untersagt
Pfeiler
SU@@
Singapur
Währungsfonds
gewähr@@
greifenden
katastrop@@
liberale
sports
widmet
Gemü@@
Rechtsprechung
Vollständigkeit
ausgegangen
instrumente
polizei@@
stabil
Aluminium
Biokraft@@
Delegationen
Haut@@
Null
Politikern
Schmi@@
Wand
ferenz
geschnit@@
illa
osteuropäischen
scheu@@
Bemühen
FT@@
Flo@@
HO@@
beha@@
entfernten
geplante
weiterentwickelt
yo
Bol@@
Medizin@@
hinnehmen
seit@@
unden@@
zyklus
Aufteilung
Chemikalien
Exporte
Harmonie
Kommissars
ausschließ@@
ensu@@
erbare
firma
gerte
gewaltigen
umen
unternimmt
Flusses
Inneren
OSZE
Spen@@
assen@@
bein@@
berechtigte
drasti@@
häufi@@
lit@@
price
tier
vorüber@@
Ce@@
Marco
Meeres
Mitbürger
Wall@@
ehrgeizige
einges@@
kost@@
nov@@
zia
Ath@@
Downloads
Gerü@@
Handhabung
Serien@@
gründet
therapeu@@
Aufstellung
Fili@@
list
near
samm@@
unen
Ble@@
Chat
Times
Wagen
anschließ@@
hauses
neh@@
Auslands@@
Einleitung
Gewässern
Konferenz-
Mineral@@
derartiger
enttäu@@
erli@@
lichten
nichts@@
polnische
vergabe
wiederherzustellen
ń@@
Sandstrand
Song
Terrorismus@@
Verpackungs@@
aufnahmen
bester
bige
sprüche
steil@@
uneingeschränkte
ña
Anlage@@
Association
GUE
LCD
Mir@@
berat@@
en.@@
getroffenen
glän@@
merkt
sitzes
Bibliotheken
Fest
Inform@@
Ira@@
Schulz
asien
asten
ihrerseits
steil
stellern
strahlung
Aussehen
Schuld@@
Ze@@
angekommen
dal@@
holt
initiative
komb@@
veranlassen
vertrieben
Auftrag@@
Botschaften
Designs
Deut@@
Gefühle
Hob@@
Institu@@
Momente
PE
Verkehrsmitteln
besorgniserre@@
gan
grö@@
tional
ture
unterschiedlichsten
virtuelle
CO
Jur@@
Koch@@
Nachtleben
aufgegriffen
auswahl
beliebige
come
erfreu@@
ethnische
grundsätz@@
versichert
Ansehen
Freilassung
Fundament@@
Glo@@
Ten@@
belastung
restaurants
1987
Netto@@
Reiseb@@
betreffende
ermutigt
europaweit
gerung
geschlossen@@
gewahrt
modus
zucht
Block
Blumen
ancen
einschlägigen
historischer
spiegel
Einwander@@
Gesetzgeber
Kohle
Vie@@
bestrebt
gangen
privilegi@@
reiches
repräsentiert
verweigert
ę@@
Erwärmung
Instrument@@
Kart@@
Verhaltenskodex
amp
enstein
hinreich@@
ow@@
sk
techni@@
zusätzlicher
500@@
Befürchtungen
Freihandels@@
Millenni@@
Spy@@
Unregelmäßigkeiten
W.
ordnungen
sozio@@
zusammenhän@@
Eis
Geschäftsreisende
Gewähr
Leser
Management@@
Monta@@
Schwanger@@
fortgeschrit@@
konfigu@@
mitzuteilen
quiet
serie
verbesserten
wirtschaft@@
à@@
Klu@@
Multimedia
anfän@@
dago@@
kür@@
termin@@
Müller
Nächte
abgedeckt
dimension@@
herauszufinden
herkömmlichen
richtete
Edinburgh
Klausel
Lebensbedingungen
Lieferungen
gesetze
olo
spot@@
vorwiegend
Badewanne
GF@@
Oper
Set@@
high
tätigkeit
02@@
A.@@
Herstell@@
Imperi@@
Kompetenz@@
Konsu@@
Protot@@
Variablen
Verpack@@
Yo@@
gekrön@@
inierte
verarbeiten
zweier
ärkte
Besatzung
Minde@@
Road
Streben
blauen
eingeschrän@@
han
maxim@@
Attra@@
Cel@@
Nahrung
Schriften
Tap@@
Verbin@@
Wohlergehen
tigste
zauber@@
Fro@@
Moder@@
porte@@
tics
tilien
unterstützten
ühlen
Appart@@
Diagno@@
Gemeinschaftsebene
Genfer
Lettland
Protektionismus
hten
jahres
log
rek@@
roler
östlich
Aufstockung
appelliere
augen@@
außen@@
benachteili@@
bon
space
vermei@@
ymp@@
Übersetz@@
Fut@@
Gemäl@@
Jak@@
SC
Solarium
Symb@@
Ticket@@
Typen
ommen
platt@@
reinen
stamm@@
Keram@@
Mie@@
aussieht
ckel
od
respon@@
rol
schri@@
spru@@
Bron@@
Toskana
Unfall
Wechselkur@@
agenturen
gemeldet
geschä@@
nel
station@@
Bestandteile
Charakter@@
Micro@@
Reh@@
ght
mende
sole
temperat@@
tücher
Intel@@
Krist@@
Persönlichkeit
Plätzen
Schulungen
Teils
freiwillige
geehrter
geprä@@
kas@@
lebens
streng@@
umfangreiches
wünschte
ängen
Alliance
Auszeichnung
ENT@@
Jon@@
Standor@@
Sym@@
Zah@@
befürchten
schritt
veränderten
Energiet@@
Erleichterung
Geschwindi@@
KW
Meil@@
Zent@@
begrüß@@
carte
einzeln
entdeckte
exportieren
griff@@
prim@@
tro
Armen@@
Kran@@
Reisende
Veranstaltungsräume
einräumen
großzügig
haft@@
organisator@@
sitzt
strecken
Blü@@
Erzeugnissen
Fax-
J.
Spaniens
ausreich@@
como
gefährlicher
gelte
hinausgehen
lässigkeit
teilnehmenden
unverändert
verzeichnis
voraussichtlich
zusammengefasst
zün@@
Gesundheit@@
Klassen@@
Milliarde
Rez@@
Simul@@
Verstöße
auton@@
dü@@
sorgung
tradition@@
äume
Germany
beach
begannen
funktions@@
Gründer
ICH@@
Voraus@@
aufw@@
einfluss@@
make
them@@
wäch@@
ér@@
Beantwortung
Münzen
Nachrichten@@
Protokol@@
antwortet
aufgeteilt
ganzes
halbe
iser
orientieren
sahen
steigerung
unterrichtet
unterstützte
verlaufen
versi@@
überschritten
Avi@@
Belastungen
Besucher@@
Herzegowina
Research
Verfas@@
adresse
ares
befes@@
einnahmen
gestütz@@
hafen
histor@@
häufigsten
konkreter
nationales
obliegt
schrecklichen
sé@@
umfangreich@@
überwachung
Akteuren
Elektronik
Publi@@
Riviera
operieren
rationen
richtlinien
sem
za@@
Berichterstattung
EIB
Ford
Portfolio
Schauspieler
Wiederaufnahme
elektrischen
rede
seid
sensiblen
utes
verfü@@
Stabilitätspakt
andin@@
entscheidungen
konvention@@
vorgaben
Behauptung
Medikament@@
Organ
Zusammenhalts
polis
stable
transport
ziehungs@@
Anbau
Label
Privatisierung
Südtirol
konvention
vertrags
β@@
Ashton
Bonus@@
Exempl@@
LIN@@
Vieh@@
deter
fik
gleicht
sofor@@
tour
zügig
überraschend
Befreiung
Dauer@@
Instanz
Konsum
Paar
Vertrauens@@
abzustimmen
befindlichen
fängt
pfer@@
versicherungs@@
willen
Dä@@
Gescheh@@
Vergabe
beautiful
bien
entierte
klagt
komponenten
teur
Fische
Füßen
Größen
Prim@@
Streit
Teilnehmer@@
abhängt
einziger
kombinieren
urop@@
zwingend
Genehmig@@
Interess@@
file
fleisch
gg@@
nachkommen
point
unterzeichnen
verfassungs@@
Auseinandersetzungen
Erste
Sozialdemokratischen
abgel@@
abger@@
dlern
ο@@
Super
marken
räumt
schiff@@
ämmen
ALDE
Evaluierung
Therap@@
ierter
staates
strand
Laufzeit
Ros@@
bevorzugen
geschäfte
nett
now
té@@
video
Der@@
Entfer@@
Holiday
Noten@@
Zufall
angere@@
beanspru@@
cio
das@@
einwand@@
graf@@
inne@@
juristische
schlug
ägyp@@
Galileo
Jesus
abe@@
amer
befin@@
bräu@@
gesteuert
güter
vertrauens@@
Diskussions@@
Ideologie
Prü@@
Villen
behilflich
gl.
lässig
zivi@@
Autovermietung
Development
Erdgeschoss
Patente
Seel@@
Technologi@@
Varianten
Wellnessbereich
eriert
erledigen
esses
kontinuierliche
stationen
studierte
Experten@@
Gute
Kürzungen
Mot@@
Religi@@
Verurteilung
bring@@
distan@@
folgendes
förderungs@@
rate@@
schäd@@
tivitäten
Akt
SDL
acher
allgemein@@
ankommen
anti
essor
fachen
gesetzgebung
umfassender
älen
Eigentums
Ergeb@@
Größen@@
Koalition
Verzeichn@@
haltens
konver@@
mittelalter@@
positiver
schwarze
Band@@
Durchbruch
Erlaubnis
Flair
Kommunismus
Solana
Wäldern
ame@@
gängigen
lung@@
längeren
privat
sprung
thos
unberühr@@
ätz@@
Fund@@
Leh@@
cha@@
ehrgeizigen
gendsten
lebte
offers
prüft
rez
unvergleich@@
Ausdehnung
BER@@
King
LED
Messen
affen
anbieter
berechnen
nein
seitigkeit
spektrum
tei
Abonne@@
Dienstleistungsrichtlinie
Editor
Konsequenz
Mitentscheidung
Van@@
Well@@
fehlenden
häu@@
rump@@
ат@@
9001
Bestreben
Gastronomie
Grö@@
angehört
erem
ernsten
gebil@@
herbeizuführen
lenstoff@@
präsent
strei@@
telefon@@
überarbeitet
Fotografi@@
Katalo@@
Lit@@
Obst@@
Verheugen
aku@@
fürchte
lität
restlichen
tam@@
utzen
verurs@@
zeugt
zwecke
Allah
Monte@@
Renten
Süß@@
ausschlaggeb@@
html
krei@@
sont
140
Demokratischen
Friedensprozess
Hygi@@
Leiden
Mitglied@@
NE
Room
auszubauen
einzigartiges
graben
loc@@
Eintritts@@
Professional
Stern@@
echtes
erledigt
komplizierten
persönliches
stürzen
transeuropäischen
1990er
Kino
Misch@@
Pestizi@@
Rücksicht
Wartungs@@
band@@
sofortige
super@@
tempor@@
warme
х
Applikation
Gesundheitsversorgung
Sied@@
ads
beeindruckenden
einstellungen
exklusi@@
extra@@
kommend
norm@@
rangi@@
springen
Blau@@
Samsung
anmerken
Christus
Errungenschaften
Käse
Serviceleistungen
ava
cc@@
erzeugung
find
lindustrie
läßlich
portal
räte
Auslieferung
Finanzielle
Krebs
Ring
Züge
geordnete
jeglichen
massiv
tter@@
Ander@@
Anmel@@
Grafik
José
Prophe@@
dienstes
ermögli@@
gig
kauft
å
Klärung
Posten
Richtungen
Schulung
agnen
away
breiter
ct@@
empfehle
gewäs@@
kontinuier@@
ministeri@@
voranzubringen
Atlantik
Auswirkung
Controller
Gl@@
Haushaltsausschusses
Körpers
Schwäche
ausgeht
bettzimmer
drän@@
eilung
erweist
r.@@
rieben
vertiefen
Kohäsionsfonds
beschä@@
bezir@@
mie
Beispiel@@
Inhalts@@
Kampagnen
Nach
Vorsorge@@
ankommt
geist
letter@@
solle
stage
ärten
Black
Forschungs-
Fün@@
Konfigurations@@
Plu@@
VI
diox@@
tigkeits@@
überschreiten
ANT@@
Ausgewogenheit
Kongre@@
Mei@@
Pel@@
ags
folg
thal@@
umgewandelt
weites
wissens@@
wohlhab@@
Bügel@@
Dr@@
Haftbe@@
IR
holz
mau@@
tragene
wies@@
CAD
Cl@@
Fischler
Somm@@
Zahl@@
absoluten
angrenz@@
shop
Abfahrt
Marktan@@
Vö@@
ees
graus@@
ierungs@@
liebe@@
pon@@
reiten
sea
Kommando
Mitgliedstaates
Modell@@
Rap@@
Weihnachten
amm
imstande
ischerweise
Bed@@
Elektron@@
Streitigkeiten
Trainings@@
Unrecht
Willkommen
chtigung
denz
diesjährigen
gl
gtes
potenzielle
schätze
sprit@@
verständnis
Arabien
Fracht@@
ME
Pad@@
Photo@@
Skulp@@
Themas
Werkzeug@@
anspruchsvollen
inkl
köni@@
phone
zuvor@@
Balance
Kel@@
Oase
Sus@@
beurteilt
euer@@
gebern
ogra@@
Dienstleister
Dimensionen
End
Frühling
Krankenhaus
Pfund
Zertifik@@
archä@@
gewin@@
inten@@
mig@@
netzen
schär@@
strengere
toler@@
versteck@@
Cr@@
Kampfes
Public
Unfälle
Zivilisten
amerikan@@
chteten
konsu@@
konzer@@
läufig
meisterschaft
offener
verhaftet
ök@@
Einmischung
Lagerung
Meerblick
Rücktritt
auslän@@
bevorzugt
gerer
herausragende
jem@@
langjährigen
wendi@@
wovon
æ@@
т
Erwägungen
Zyper@@
aufgegeben
inu@@
ness
punkt@@
repar@@
sn@@
stad@@
trug
unterricht
Clinton
Diagnose
Diplomatie
Embr@@
Handlung
Lärm
Meinungsfreiheit
Upgrade
beschäftigung
cell@@
fragte
geschaff@@
onischen
zau@@
Arten@@
Filter@@
Gleiche
SL@@
Standorte
Strei@@
Telekommunikation
Vormittag
Wikicars
begehen
deinem
fasste
gangs@@
gezahlt
grundle@@
riebenen
Bevölkerungsgruppen
Brot
Crew
Nachweis
Stoff@@
Verw@@
Weitergabe
alisierungen
dehnen
luxuri@@
sident
Chal@@
DV@@
Einigkeit
Etiket@@
Wortlaut
alog
angezogen
dreißig
rot@@
ume
wäsche
Haushaltskontrolle
ffekt
großartigen
kw
melten
palästinensische
verlin@@
Ausnahme@@
Hur@@
Verknüpfung
bir@@
extremen
nachtei@@
nahmen@@
thi@@
ε@@
Betrieben
Kirchen@@
Zo@@
angebot@@
beauf@@
water
10.000
Bedauern
Bei
Bewirtschaftung
G20
Haiti
IBM
Skript
amen@@
attraktiv
demie
dez
draußen
kanal
operativen
read
siedlung
ug@@
übersehen
Erforschung
Qualifikationen
Sky@@
Umstand
buchs
katastrophal@@
lagen@@
moralischen
tschech@@
äne
Beschluss@@
Innenhof
Schwimm@@
eingenommen
entschied@@
extreme
gezielte
übereinstimmen
1979
Bit@@
Dom
Med@@
Ron@@
agne
einander@@
inhaltlich
luxuriösen
nir@@
put
ruppen
sebene
tivere
Dev@@
Dün@@
Fotografen
Kodex
aktuell@@
beträchtlichen
dion
heiligen
ika
inspiriert
kündigen
plant@@
Ökonomen
EURO@@
Fotokopiereinrichtungen
Jahrhunderten
Note
Verts
Vorbeu@@
Zuschauer
ae@@
bedingten
erneuerbarer
möchtest
Botschafter
Fachleute
NGL
Tampere
annt
dafri@@
etabliert
klingt
toff@@
willi@@
3000
Komple@@
Premi@@
Rhyth@@
Strafen
Strafre@@
eingetragen
erwarteten
evo
gnügen
kroati@@
mangelt
park@@
ärz@@
Banan@@
Flücht@@
Informationsschalter
Käl@@
Sum@@
Umwelt-
book
gebot@@
gelder
investitionen
manipu@@
misch
reflek@@
virtu@@
Anfänger
Erholungs@@
Folgenab@@
Gehäuse
Taliban
Terroran@@
auszuführen
bewusstsein
erkenn@@
nummern
rats@@
stem
Brief@@
Ex
Expan@@
Gutes
Haftungs@@
Parlamentarier
Russen
afft
angestre@@
faden
offer
promenade
pur
städte
Camping@@
Flugzeug@@
Fußgänger@@
Langzeit@@
Sender
Strö@@
beherrscht
belie@@
chtungs@@
hoben
risiko
stan
turel@@
unternehmen@@
verschieden
Big
British
Erläu@@
Fahrzeu@@
Inc
Lar@@
Pflan@@
Sequ@@
Wertpap@@
erholsamen
ey@@
gepflegt
gross@@
jahre@@
show
tiefer
vernehmen
Cir@@
Immig@@
Montenegro
api@@
ham@@
korb
kurzfristige
neut@@
schränken
value
zar@@
zusätz@@
überleben
Bearbeitungs@@
Berat@@
Dorf@@
Glückwunsch
Konzeption
brand@@
fing
gelad@@
geograf@@
geradezu
haltungs@@
ordnet
ph
renomm@@
weitergehen
wunderbar
Fitnesscenter
Jacques
Vorstands@@
befand
effizi@@
entlassen
erstattet
niedrigeren
AND
Kaff@@
Prozessen
SD
Stä@@
Unterscheidung
korrek@@
shofes
weiße
Layout
Liga
Messung
ODER
afri@@
chni@@
chnung
elektrische
inische
mitgliedern
pannt
transparenter
verschlimm@@
äus@@
Oster@@
Ostse@@
Superior
Wohl
ausstellung
mediterranen
nachhaltiges
rahmen@@
thiop@@
zwingt
Ausgaben@@
Daniel
Francisco
Tie@@
angesprochenen
flich
sia
vertik@@
vorsehen
wettbewerbsfähig
zeich@@
zi
Änderungsantrags
Platten
Reservierungen
Shopping
Urlaub@@
akadem@@
biger
multinationalen
neun@@
ones
physikali@@
sere
sos
stehend
öhne
Beitrittskandidaten
Bonn
Eisenbahn
Entdeck@@
Enttäuschung
Entwicklung@@
Kalten
Lav@@
Philosop@@
Sichtweise
Sing@@
Umfrage
anim@@
ausch
gor@@
intellektu@@
quasi
rote
schiffe
schot@@
wörter
Aufschwung
Gebäu@@
Kreis@@
Liebhaber
Speed
Zuwanderung
erzeugnisse
getro@@
hundert@@
int
konta@@
mittags
ox@@
strich
türk@@
wem
zufällig
zweck
Ökonomie
Aktualität
Anleihen
Beobachtung
Kooper@@
Kuli@@
Lock@@
Om@@
Science
Straßenverkehr
bisweilen
doppelte
imperi@@
renommierten
schal@@
verschärfen
Auftreten
Auftritt
Cast@@
Magazin
aufgezeigt
gasse
interven@@
jü@@
kürzung
reguli@@
rix
weiß@@
wärtigen
Instand@@
Telefonnummer
Vot@@
ap
brücke
dent@@
elligkeit
erkt
geschnitten
müßten
schnellstmöglich
splan
strategischer
Überschwemmungen
Bak@@
Beschleunigung
Erkenn@@
Golden
Ly@@
Nationalismus
Naturschutz@@
Ref
ateg@@
farbe
nacht
realistische
telefonisch
vermi@@
Tarifa
alternativ
beizubehalten
flan@@
lauten
ließ@@
schlafen
sert
sinter@@
Auswertung
BS
Hôtel
Schengener
Shir@@
beziehe
bra
cam@@
operi@@
pakete
som@@
tnismäß@@
Ausflug
Bewerber@@
bulgar@@
ign@@
rückt
2014
Program@@
Verstoß
chliche
finnischen
höchstem
kunft
link
standardmäßig
ungsindustrie
äumt
Dialog@@
GN@@
Gewässer
Mön@@
PCs
Private
Stufen
Waffe
Wat@@
anteil
beteiligung
erschwert
gastronom@@
Beschäftigungspolitik
Feedback
First
Gedan@@
Green@@
Mar
Zertifikat
eindeutigen
mitunter
tasie
ungarische
Übersetzer
Entscheidungsfindung
Kommissionsmitglied
Länder@@
Pass
Ry@@
Vertiefung
anfangs
gefügt
jenem
ouren
skap@@
stattfand
strikt
tech
üsse
Auf
Erwachsen@@
Invest@@
Kling@@
Lebensdauer
ede
gischer
lokal
operative
pa
prinzipien
reichlich
saf@@
thei@@
wirtschaftliches
öne
übersetzen
Richt@@
Straftaten
herum@@
kapitali@@
versu@@
на@@
Bestand
DIN
Erinnerungen
Handels-
Pressemit@@
large
muster
stitution
vis
wanderung
21.@@
Boutique
Fed
Sendung
Up
Volk@@
full
lossene
ordentlich
rak@@
spartner@@
unabhängiger
öst@@
Bezirk
Company
Riesen@@
Sani@@
View
Yor@@
Zusage
alters
behindertenfreundliche
ckten
gon
legungs@@
schloss
sprachige
sses
tachten
thilfe
Übernachtungen
überwunden
Familienzimmer
Glan@@
Stress
Transit@@
abon@@
aufer@@
ice
stück@@
Dien@@
Don
Friendly
HP
Heraus@@
Organis@@
Stei@@
Tisch@@
WWU
chtete
elektro@@
erober@@
informellen
koennen
still
veranlasst
versamm@@
worum
Arch@@
Aufbau@@
Clu@@
Donau
Japans
Soft
Stri@@
Stücke
benachbarten
ffs
graphie
inner
kommerzi@@
little
rations@@
tariat
Abreise
Beitra@@
Etappe
Garage
Mart@@
Südkorea
Toten
Vic@@
WM
büros
forsch@@
freiwilligen
Biotechnologie
Kast@@
Priv@@
Schir@@
Wörter
anführen
around
außergewöhnlich
beeindruckt
dringende
irakischen
leug@@
sent@@
Ernst
Fehlern
Küh@@
Kürzung
Multi
Pakets
Schlag
Stück@@
Umweltpolitik
Vent@@
Vorgän@@
erfolgreicher
wollt
ähnliches
ел@@
Anpassungs@@
Drittländer
Finger@@
Frü@@
Geduld
Haft@@
Kraftstoff@@
Resultate
Roten
beziehungsweise
drastisch
ernsthaften
ewi@@
gespeicher@@
rent@@
schlech@@
strukturelle
verbreitete
1.000
Besatz@@
Bestes
Bier@@
Geburtstag
Intel
Itali@@
Lul@@
Monti
Treffpunkt
afgh@@
alla
angegriffen
cro@@
kanern
namentlich
pot@@
sar@@
verfolgung
Kalifornien
brasili@@
feldern
human@@
interpre@@
istik
rise
setzbar
sprü@@
undes@@
vention
verab@@
Assi@@
Bildes
Liter
ahl@@
angs@@
flexibler
geringfü@@
kapazitäten
objektiv
ports
rale
schütz@@
val
zio
zugewiesen
zumeist
Japan@@
Phan@@
Programmier@@
QU@@
Venti@@
aufrichtig
bestimmtes
handel@@
klingen
ping
sto
stücken
transportiert
verweigern
Beamte
Dür@@
Schnittstellen
Tätigkeits@@
entschied
fenen
grä@@
gur@@
ordnungsgemäße
.ch
Consulting
Male
artik@@
beliebte
bili@@
genossen
jüdischen
leger
oberhalb
sorg@@
tica
zol@@
во@@
Seminar
Snacks
Spaziergän@@
Zonen
auferlegt
erfahrene
hänge
ministers
sinnvolle
veränderte
Europäern
Haushaltsmittel
Labour
Reader
Sri
ethischen
rierten
tain@@
unabdingbar
ying
Asylbewer@@
Franz
appellieren
ehren@@
fir@@
gleichnam@@
klam@@
listet
ota
seither
sprecher
tnismäßig
Emission@@
Geis@@
Logos
Profil@@
Send@@
Verschiebung
ereien
flucht
nit@@
strahlt
unverzichtbar
wahrschein@@
Tabak
Verlei@@
beschädigt
dramatisch
erschwing@@
eröffnete
jedermann
proble@@
spakt
stün@@
them
Israelis
Konsultationen
Navigation
Rindfleisch
Vollendung
fikations@@
gül@@
o.@@
Bä@@
Geburts@@
Jungen
Sant
empfehlenswert
höre
intensiver
mauern
verse
Dampfbad
Day
Hochschule
Ratspräsidentin
Schlussfolgerung
Schriftsteller
Spass
Säulen
Zugestän@@
bekannter
gleichung
sozialistischen
--@@
Handbuch
Jubil@@
Mathemati@@
Nationalen
Psych@@
Slideshows
Volumen
Vorgänger
Wi
eintritt
fert
geringeren
großzügige
grundsätzliche
tali@@
zulässi@@
Andreas
Aussprachen
Eingliederung
GT@@
Gesetzgeb@@
Stabili@@
Verschlüssel@@
existierenden
fasst
fielen
hende
institu@@
kostspie@@
tot
verantwortlichen
vorab
zeug@@
Investitionsbank
Kost@@
Ras@@
ace
available
elektronischer
jah@@
lagerung
lio
mail@@
national
radi@@
vermark@@
Kontinuität
Mär@@
Turnier
Vorteilen
Zauber
Zeichen@@
appen
erkan@@
gif@@
has@@
nomm@@
reichhaltiges
schritt@@
Behinderung
Finanzdienstleistungen
Hav@@
Rabatt
Rang
VI@@
chro@@
gekürzt
hindern
ourcen@@
unnötig
verbände
Cup
Er
Jugendherberge
Kolonial@@
Restau@@
Vertrauens
Verwirrung
ault
fehle
gültige
quer
spazi@@
BE@@
Bettwäsche
Johannes
Pixel
Platten@@
Sav@@
Servern
aal
entf@@
etes
gesandt
komplexer
möbli@@
orik
tierungs@@
Differenzen
Fraktions@@
Klei@@
Lücke
Pariser
Straft@@
Tode
archie
brauch@@
eistungen
emotion@@
ffenen
gescheitert
gewohnt
ital
itali@@
oli
verletzen
verwe@@
werdet
wischen
Ähn@@
Anna
Vaku@@
agten
breitung
oriums
standardi@@
treffend
Cit@@
Mitteilungen
Partition
Reihen
Rhein
Shuttle
Umstrukturi@@
bewährten
bloß
ermuti@@
pos
teri@@
unvergess@@
Brust@@
Ministeri@@
Ortschaft
Schaltfläche
geleistete
iti
klassen
lings
zione
Einträge
Prestige
Rechtsetzung
Renovi@@
Zuhause
angele@@
erfris@@
gegensei@@
halle
minute
much
verbot@@
Anlaß
Boote
Gründungs@@
Rosen@@
Verband
auslösen
fahrung
niert
rechtlicher
schwar@@
verspricht
wächt
360
FS
Personals
Zeilen
anhaltende
ato@@
bürgerlichen
eingeschlossen
ernde
sentation
Österreichs
Medium
begeg@@
behar@@
next
portugiesische
reichsten
ule
willigung
FR@@
Mahlzeiten
menschen@@
used
Befürworter
Fluggesellschaft
Mitgliedsländern
Moderne
South
akte
feinen
langfris@@
olen
produktiv
stir@@
umliegenden

.jpg
HR@@
banischen
deuten
erklärung
erreich@@
glas
internation@@
misst
ue@@
zitiere
zugenommen
zuzustimmen
Börsen@@
Caf@@
Grundstück
Holland
Internetanschluss
Mobiltelef@@
Sn@@
Substanz
UM
Vertreterin
Vizepräsidentin
downlo@@
eu
exklusiv
finanz@@
gelö@@
pression
sorten
unterzogen
wachstums
His@@
Materials
Schwein@@
White
angem@@
eva
garage
illegaler
vorschrift
wein
Beteili@@
Def@@
Fall@@
Klo@@
Mehrheits@@
Residenz
bol@@
dokumentiert
erieren
haushalts@@
kompati@@
töten
Rumä@@
bezo@@
geografischen
gängen
identifiziert
person
tschaft
worüber
Öster@@
Dienstleist@@
Galax@@
Nähr@@
interessen
post
relevante
soziales
1984
300@@
United
az
ee@@
ermordet
esst
fortschrit@@
nachzukommen
traten
Spenden
Trocken@@
Verspä@@
begriff
fühl@@
ils
Bilder@@
Jobs
Metall
Patent
Psy@@
Rats
Ses@@
Signal@@
Veranstalter
William
anhaltenden
chers
dies@@
hn
ih@@
krankungen
kreativen
stol@@
summe
zzo
Athen
Demonstrationen
Einwanderungspolitik
Feind
Stolz
Stud@@
Wohnungs@@
aggressi@@
demonstri@@
fremden
innovativer
jähr@@
kot@@
posten
progno@@
schich@@
ungen@@
vertrete
Corporation
Das@@
Dere@@
Flughafen@@
Freihandelsabkommen
Kinderbetreuung
Roman
Salon
Verschmutzung
asch@@
bedingte
bisherige
luß@@
med
salle
sene
Freun@@
Homo@@
Hunde
Speicherung
Standpunk@@
Tool@@
beschriebenen
cks@@
gesetzes
geänderten
holi@@
platte
schock@@
schädlich
schädlichen
äuser
17.@@
Abent@@
Akte@@
Aufenth@@
Spiegel@@
Strukturreformen
Stärken
Waff@@
arm
definierte
té
у
Cin@@
Rasse
entzieht
hie
slowen@@
speicher
unab@@
С@@
FL@@
Rad
Reisever@@
Rhein@@
Rückzug
Stipen@@
Universitäts@@
Vermitt@@
airport
ausgeweitet
bat
ex
geleiteten
getä@@
prinzipiell
skop@@
sprechende
vorsitzenden
ätzen
äß@@
AV
Schuhe
Terrassen
Zehn@@
antrags
apartment
enta
iran@@
ji@@
ry@@
studio
ä
Gur@@
Mehrzahl
entwicklungen
exp@@
mußte
nachts
Arbeitskrä@@
Cala
Mauern
altes
aster
dramatischen
einseitig
fallenden
kurbeln
legal
modernste
nerin
non@@
renten
vereinigung
vergröß@@
überwie@@
Bayern
Brit@@
Darfur
Freiwilli@@
Gesichtsp@@
Kette
Labor
Maßstäbe
Nutzungsbedingungen
angesiedelt
bai@@
befaßt
eventu@@
gesteu@@
ind@@
sammlung
ш@@
Antibio@@
Full
Garden
Gig@@
HS
Kollektion
disziplin@@
prior@@
professionell
stilvolle
stran@@
wertes
Apart@@
Figur
Import
Milit@@
North
Souven@@
Vernetz@@
Versamm@@
desig@@
dou@@
einsehen
igt
kurzfristigen
modells
romantischen
schwierig@@
Arzneimitteln
Autob@@
Erfahrungs@@
Fitnessraum
IL
Obergrenze
Stehende
ami@@
disziplin
erhöhten
gi
omet@@
ungsum@@
verschwunden
Überzeu@@
Assoziierungsabkommen
Downlo@@
Inspi@@
Jer@@
Kuns@@
Tok@@
aters
auszuarbeiten
ernamen
rechn@@
should
unterworfen
widersprü@@
90er
Auschecken
Chro@@
Erfordernisse
HA@@
Regisse@@
anerkannte
annimmt
brach
etzt
nachhaltiger
äf@@
Ass@@
Eich@@
Frau@@
Gouverne@@
Rahmenbesch@@
Ric@@
Stationen
Wegen
Wertschö@@
benachteiligten
funk
gefä@@
ira
schme@@
zuversichtlich
zweifelsohne
то@@
Agr@@
Diszipl@@
Schichten
Thematik
Vorder@@
Vorgänge
elek@@
hierher
spannende
strategisch
theater
Aktionsprogramm
Brok
Einzelpersonen
Junior
Niederlage
ail
erlangt
genügen
gespräche
niederländische
pper
tschaften
zugeschnitten
Friedrich
GP
Sup@@
Verfassungsvertrag
dec@@
einmaligen
eten@@
hinten
meister@@
sheit
ICH
Lärm@@
Minim@@
Mund
TE@@
Vervielfäl@@
Warte@@
blickt
dex
durfte
gru@@
kers
zusammengearbeitet
Alpha
Amsterdamer
Bell@@
FÜ@@
Organismen
Sign@@
einkommen
niens
vene@@
wohnheiten
äußerten
Informationsaustausch
Meldung
Umsatz@@
Zell@@
angen
benennen
niveaus
rinzip
uner
warnt
ι@@
Anschein
Effek@@
Einstimmigkeit
Fau@@
Maustaste
Proteste
Renaissance
begri@@
e.V.
entstehenden
euren
lernt
militär@@
stent
steu@@
text@@
Arbeiter@@
Briten
Konsum@@
Lob
Mittelalter
Zuständigkeits@@
act
ambition@@
dum
igungen
lächer@@
organe
tivitäts@@
zentrums
Demo
Istanbul
Nordamerika
Tanz
Vortrag
jenes
nuklearen
risiken
uts
var@@
Dynam@@
Muslime
Ortes
Santiago
ados
angemeldet
aufmerk@@
bequemen
beträchtlich
dür@@
einleiten
einzuräumen
geisti@@
regelmä@@
sens@@
vermin@@
zivile
CEO
Freundschaft
Hubschrau@@
Linke
Sozial-
WE@@
bedau@@
brun@@
fällige
gendem
getrennte
lizen@@
stro
tim
0,00
Auffassungen
demonstrieren
hit@@
inhaf@@
intern
spätere
ware@@
ämp@@
Action
Dun@@
Finger
Gleichberechtigung
KG
Kind@@
Olympus
UR
dalitäten
geehrten
genann@@
stauran@@
verdeutlicht
vorübergehend
Brie@@
Hybri@@
Krieg@@
Metho@@
Seu@@
bequeme
ction
erstma@@
fotografi@@
gier
natürlicher
schlägen
spezielles
unlau@@
äst@@
übri@@
1978
Bäume
Büchern
Ins@@
Softwa@@
Tol@@
Vernichtung
Wähler@@
bucht
raum@@
veren
weitergeleitet
äufers
1967
Adress@@
Ambitionen
Entla@@
Jord@@
Mix
Szenario
auszuschließen
leist@@
qualifizierter
stanzen
ц@@
Santer
Siedlung
UL@@
alitä@@
angenommene
ausrüstung
separate
skre@@
staatsan@@
techn@@
AKVIS
Mehrwertsteuer@@
Ressource
Rock@@
cket
dus
einladen
ersucht
gesundheitlichen
unzähligen
ś@@
Andal@@
CR@@
College
Palacio
R.
erwartete
schirm
stattfindenden
temp@@
tropischen
BC
Deluxe
Einkauf@@
Game
Invasion
Pferde
bestmögliche
erbracht
nachgewiesen
pflanz@@
tili@@
tritte
Anzahlung
Explo@@
Flä@@
anci@@
anträge
bewährte
dell
eingesetzten
erwor@@
fahren@@
public
stant
verleih
voranzu@@
ça
ünsti@@
450
Bruttoin@@
East
Einstieg
Krank@@
Leistungs
Logistik@@
Theat@@
Tschechische
Verantwortlichkeit
anerkennt
jeher
leiden@@
pré@@
reservi@@
ritt@@
trie@@
verbindlichen
ре@@
Asy@@
Erscheinung
Les
Recher@@
Synchron@@
Tom
abler
atisch
because
bud@@
dium
kontinent@@
lot@@
lüssel@@
reißen
schreitet
Bünd@@
GEN
Pensionen
Prozent@@
Schande
Verf@@
Verlu@@
eister@@
vergrößern
Ehren@@
Gruppi@@
Südameri@@
Tam@@
Verlagerung
Wohnsitz
aket
benötigte
filter
immen@@
likationen
phar@@
situated
verstößt
überqu@@
Angeles
Beschei@@
Einsatzes
Investi@@
Pflege@@
Pä@@
Siedlungen
Wellen
allgemeinem
ausfallen
behin@@
engere
ingu@@
raschen
respek@@
sting
Alber@@
Kriegsver@@
Laufenden
Para@@
Pferd
Storni@@
ded
gestützt
logisch
modul@@
Bill
Ky@@
Phil@@
Tank@@
administrativen
allererst
beliebig
haush@@
künstlerische
riebene
ruhi@@
spartei
sty@@
transa@@
ungsergebnisse
Anhän@@
CC
Co
Flucht
Gesundheits-
Kok@@
Ltd.
Neuse@@
Phili@@
Stift@@
befugnisse
bilanz
eindeu@@
eingetreten
erschö@@
gemeinnüt@@
lerin
phi@@
schrift@@
zentr@@
Aktionäre
Ball
DI
Gremium
Komment@@
Pierre
Produktpalette
Schokolade
Stor@@
agement@@
flügen
gelun@@
gestrigen
letztere
ungel@@
vul@@
Austausch@@
Diversi@@
Hussein
Konzerne
Trieb@@
UK
Veter@@
Zeichnungen
bauer
bewaffneten
lon
pit@@
ror@@
spart
studieren
touren
wöchentlich
Detail@@
Pflicht@@
Segment
Vorjahr
Wettbewerbspolitik
aton
audi@@
blockieren
gesprä@@
halter
ington
maximalen
pran@@
schwerwiegende
verzichtet
Shutt@@
Unterri@@
Verwen@@
Zir@@
dul
gla@@
haut
ossen@@
profil
vertraulich
wettbewerb
zurückgreifen
Belange
Cambridge
EV@@
Fenster@@
Gemeinschaftsrechts
Lissab@@
Meldungen
brem@@
cksil@@
dis
dän@@
endsten
erlei
gebo@@
herein
häre
kasus
licht@@
size
titel
unges@@
ure@@
Abwesenheit
Codes
Entwicklungsziele
Ermäß@@
Konten
Oberflächen@@
Phänom@@
Rahmenrichtlinie
Soli@@
Verdacht
Veröffentlichungen
angegangen
anzeige
chens@@
dämp@@
kristall@@
schwache
worin
400@@
Arti@@
DL@@
Einreise
Finanzrahmen
Mann@@
alis@@
allo@@
angaben
aufenthalt
ausdrücken
füllung
mietung
risi@@
wohner
Disk
Neuen
Präzision
Rechenschaft
Verweis
Wertpapier@@
assozi@@
barem
pun@@
Überraschung
Auflage
Eltern@@
Kritiker
Lücken
Master@@
Nordo@@
Ozean
Terra@@
betro@@
brennen
dankt
diplom@@
gesundheit@@
kleinste
kontro@@
langwi@@
lasse
äufer
GE
Gali@@
eingehend
spezifischer
zertifiziert
äuft
Handelsabkommen
Indiens
digungs@@
gemäß@@
gh
höchstens
institutionen
kammer
konstruktiv
manuell
zwan@@
Authenti@@
Autonom@@
Cubase
Dé@@
Entertainment
Geschäfts-
Rauchen
Rettung
einsatz
erstklassigen
mel
ständigung
transparenten
wig
Apache
BL@@
Kreditkarten@@
abhalten
atemberaubenden
erstaunlich
findest
krankung
ralismus
ssa
widersprechen
ны@@
Ansatzes
Gedächtnis
Geheimnis
Urlauber
enterrasse
küche
less
ungsweise
unlängst
vorzustellen
übergehen
Biom@@
CS@@
Palazzo
Smith
Verbraucherpolitik
anisch
autorit@@
dal
eichert
genschaft
geringere
ile
verbleibenden
Alli@@
Gef@@
Jack@@
Malware
Menüs
Paket@@
Skandal
Wan@@
auffäl@@
ausmacht
billiger
ea
edatum
fuhr@@
hauptstadt
kommission
nachweis@@
revi@@
statistischen
thema
utz
Grenzwerte
Wahlkreis
eitern
füge
itz
kopf
massi@@
schmu@@
vorgelegte
zentrales
Antonio
Föder@@
Handelspolitik
Ima@@
Kun@@
aches
ausdrückliche
nehmlich
Als
Defiz@@
Kämpfe
Steck@@
Vorzüge
aufgabe
besetzten
radikale
wachs
zukommt
Ausflugs@@
Einwanderungs@@
Fortschritten
Freig@@
Geltung
Investment@@
Modells
Pit@@
Provence
Verlag
aufgetreten
fantastische
galerie
grie@@
gy
herrschende
sequ@@
waffen@@
Baum
Feli@@
Haartrockner
Hochzeits@@
Menschenleben
Pressefreiheit
angewand@@
block
entwicklungs@@
fertigte
ffek@@
fliehen
fließt
jahren
legungen
verschlechtert
vielerlei
Ark@@
Klein-
Kompati@@
Madeira
Verkehrs
Zeugen
grenzüberschreit@@
kehrte
lebten
liest
schade
vision
Buchten
Dringlichkeits@@
Force
Getränken
Klaus
Kopien
Mode@@
Wortes
check
eite
enthi@@
farben
1982
80er
Cur@@
Gehör
Getrei@@
KS
Kambodsch@@
Mobiltelefon
Moh@@
alp@@
austra@@
betrachte
geri@@
konfiguriert
lagerungen
nes@@
ografie
tender
äqu@@
Bürgerkrieg
Flugzeugen
GASP
Lon@@
Malaria
Schluss@@
auffor@@
ausschli@@
detaillierten
maßnahme
stattungen
tragischen
vernichtet
ätzung
Grün
Gütern
Häu@@
ION@@
Industrien
Linien@@
Marine
Nei@@
Seil@@
betreiber
exportiert
ité
kombin@@
menschlicher
obersten
orn
prop@@
winden
yn
zip@@
Binnenmark@@
Exchange
Feder@@
Quality
Weltmarkt
doppelten
ehemaliger
explizit
gewichts
gründliche
jahrelang
Konvergenz@@
Träger
aufgreifen
ima@@
ologi@@
surfen
unser@@
vergangen
zählung
überraschen
Abänderungs@@
Bedar@@
Branchen@@
Geltungsbereich
Mein@@
Rate
Rati@@
chnei@@
mitte
neuer@@
ophi@@
reak@@
sein@@
spürbar
steuert
windet
Massenvern@@
Neapel
Produkts
Radik@@
Rest@@
T.
Tarif@@
Ultra@@
begünstigt
gehörten
komplizierte
konventionellen
reserven
schür@@
treibung
uliert
widerspricht
ит@@
Anforderung
Langl@@
Nahrungsmitteln
Ohren
arkt
blich@@
entum
exzellenten
hinnehmbar
schuldung
verwir@@
ň@@
Atomwaffen
Emotionen
Engine
Frank
Juan
Kak@@
auftre@@
dahinter
einschränken
fleisch@@
geistige
gli
hochwertiger
messungen
städten
telef@@
ting@@
unwahrscheinlich
versteckt
wn@@
Aussteller
Dau@@
Figuren
GH
Pause
Rum@@
Umwandlung
bewaff@@
eicht
erfreulich
homo@@
mexi@@
rechnet
schallisoli@@
ungsermächtigungen
Mord
neuem
rechtmäßig
öffnung
13.@@
API
Camping
Fassade
Leder@@
Olympi@@
Pop
Ré@@
Solutions
amo
det@@
entsp@@
gehender
geltende
gewöhn@@
hellen
inne
key
konfigurieren
logische
media
militärischer
piel
pil@@
verabschiedeten
wechs@@
Änderungsvorschläge
üstet
Brunnen
Lieder
Nobel@@
Opera
blau
eingestuft
gefaßt
traditioneller
vorschlags
̈
Beweis@@
Irr@@
Wissenschaftlern
funktionierenden
gästen
motoren
übergreifende
Class
Flora
Impuls
OM
Schönheits@@
Sozialfonds
ask
bedenkt
besserer
brüche
edo
eilen
erhäl@@
festival
nähere
senkung
vorantreiben
Ausschluss
Jen@@
Mitarbeit
Paare
Präsidentschaftswahlen
Stornierungen
Wählern
fabrik
hervorragender
instru@@
mitgli@@
plans
rierung
strahlen
verä@@
1975
COM
Defini@@
Köst@@
Religionsfreiheit
Silber@@
angekün@@
begeistern
cour@@
gleichwer@@
hervorra@@
lierungen
paßt
unvergessliche
zeitlichen
zubereitet
Buchungen
Hund
Neuerungen
herausgegeben
loggen
mächtige
ulieren
Anzei@@
Hydro@@
Präzedenz@@
Venezuela
Wissenschafts@@
disp@@
ebenen
fragten
gelieferten
haftes
hilfsbereit
klick
kopiert
netzes
ours
oxi@@
pel
technologien
ull
überflüssig
Billionen
Malaysia
SSL
Sarkozy
Skep@@
Wellen@@
abri@@
analo@@
schlei@@
schließung
unklar
vent
Barack
Cav@@
Einfuhr
Getreide
Motivation
Screen@@
geschi@@
kinder
trit@@
Computern
Einverständnis
S.A.
Sonnenunter@@
Wiedergabe
ausreichenden
dik@@
endste
figu@@
gliedert
körper
rer
Beta
Disk@@
Flagge
Herunterladen
Luftverkehrs@@
Mitgliedstaats
Monitor
Univer@@
Unterstütz@@
ameri@@
belä@@
brauchs
chet
entgegenzu@@
gefüllt
onds
Aktionsplans
Aufenthalts
Bananen
GM@@
Haushaltslinie
Man
Oran@@
Schrift
Summen
Träume
bestimm@@
diplomatische
life
pfeiler
renovi@@
3,5
Beam@@
Dim@@
Freundlichkeit
Fusion
Ibiza
Info
Juli@@
Küsten
Them@@
afrikanische
ahr
ander
debattieren
erseits
musst
verpack@@
1970
Berlin@@
Distribut@@
Konfron@@
RI
Sac@@
Tschechien
durchschnittlichen
fit
identisch
unschul@@
vos
Boutiqu@@
Erwar@@
Grande
Immobilie
Kunststoff
Script
Stille
besprechen
bestehender
bike
englischer
gewirkt
haltestelle
läufige
sprüfung
Ausfuhr@@
Chemie
Digit@@
Sieger
aks
bedacht
bedeu@@
darzustellen
erwäh@@
fÃ
gewor@@
hilfs@@
macher
meistern
shower
tail
unbesch@@
zelt
Algorith@@
CP
Londoner
Mercedes
Mw@@
Universum
anstehenden
ax@@
baum
ehem@@
frühzeitig
ja@@
touristische
wesentliches
Betrei@@
Bio
Hallen@@
Hemm@@
Krebs@@
Legitim@@
Reflexi@@
Stras@@
Umweltschutz@@
Unterstützungs@@
Vereinig@@
entstandenen
faktisch
leeren
lück
rief
servieren
ston
zeilen
Fremdenfeindlichkeit
Haushaltsausschuss
Market
Prozentsatz
Qualifikation
Streifen
abzubauen
freigegeben
interpretiert
islauf
möglich@@
niemanden
Ad
Neut@@
Wunsch@@
beschäftigungs@@
duk@@
hieß
nier
Am
Anstrengung
Bach@@
Berufung
Besonderheit
Sard@@
Sinn@@
altungs@@
außenpolitischen
beauftragten
essi@@
gedrängt
later@@
perfect
resp@@
samt
tout
verhält
verur@@
Anfän@@
Arbeitsplatz@@
Dateis@@
Fat@@
Olivenöl
Ziffern
fälligen
immt
knüpfen
minuten
permanent
welch
zuladen
Intelligenz
att
automaten
beratenden
biet@@
family
ketten
konstruktion
schuld
systematische
uropä@@
Abfall
Arbeitsprogramm
Buenos
Frühstücksraum
Null@@
Rechnungshofs
Trump
Waffenstill@@
Zivilbevölkerung
etliche
legislative
llt
massage
naher
schlimm@@
steam
versenden
vorsorge
Ausgleichs@@
Dokuments
Frühjahr@@
Furcht
Jury
Spezialist
Universal@@
fassungs@@
jugosla@@
matik
option
produktiven
timedi@@
umstrit@@
1976
Inhaf@@
Internets
Leistungsverhältnis
Ment@@
Objekten
Prognosen
bewusste
enstern
enzial
freilich
stock
tun@@
zufügen
zurückzukehren
zusam@@
Ängste
1980er
Erwähnung
Italienisch
Var@@
Village
ank@@
cri@@
eile
herausgestellt
isoliert
sog.
149
Beitrittsländer
freig@@
großzügigen
petit
siniti@@
tec
weitergeben
Engagements
Forschungen
Workshop
besich@@
bloße
diesbezügliche
erendes
spezifisch
wärts@@
Überprü@@
Frankfurter
Programmierung
Reinigungs@@
alarmi@@
kleinsten
kompetente
tom
197@@
Diagra@@
Einkauf
INTER@@
Luftverkehr
Misstr@@
Rout@@
Unterbrechung
aufgeworfen
dition@@
englisch
getrieben
ison
mittelten
quantit@@
sektor@@
urer
year
Großbritanniens
Herangehensweise
Instituts
Organisations@@
Präsentationen
Spalte
Titel@@
Ung@@
ado@@
einheitliches
fass@@
geschützte
mittler@@
sportlichen
unterrichten
werks@@
Acc@@
Besten
Gassen
Min
Mitgefühl
Nit@@
Sicherheitsrates
Solidaritätsfonds
Stoff
Sun
ableh@@
anschau@@
behör@@
infra@@
krebs
letscher
materiellen
operation@@
urheber@@
verpassen
zuteil
Andro@@
Autobahn@@
CL@@
Court
Demonstration
Flexibili@@
Initi@@
Thun@@
Wiederbelebung
angemessen@@
behaup@@
erneuert
etablieren
jahre
noti@@
struk@@
verhängt
Dossier
Patch
Sher@@
Urheberrecht
Verantwortlichkeiten
besonderem
bilanz@@
eurer
expan@@
fernsehen
fläch@@
gebiet@@
ktoren
weigert
wicklung
Bürgermeister
Diskre@@
Durchmesser
Erdöl@@
Hai@@
Parall@@
Tendenzen
angestrebt
bedar@@
besied@@
einheitlich
elektr@@
esa
gbarkeit
glaubwürdig
icher@@
leer
republik
vorankommen
Beihilfe
Entschuldigung
Erstellen
Unruhen
Wanderung
anderwei@@
ausgeglich@@
dliches
esenen
fantastischen
schwier@@
shil@@
squ@@
zurückgezogen
Cri@@
Provider
State
baden
bische
chines@@
ish
kanadi@@
sid@@
stütz@@
tos@@
ökologisch
Bundesregierung
Interoper@@
Sounds
ammer
beschränkungen
diff@@
eden
gesund
psy@@
terten
verfügbare
zahlungs@@
Frieden@@
Kompon@@
Koordini@@
Programmi@@
Smart@@
Vernunft
grenzüber@@
reformen
rus
schlag@@
shalle
1968
Aires
Leer@@
Präsidentschafts@@
Ungar@@
Urspr@@
Vul@@
fantas@@
gefeiert
herstellung
schied
verhei@@
09.@@
Adria
Anlagen@@
DP
REACH
Revolu@@
Ruinen
Shanghai
dei@@
kon
qu
schenko
semi@@
Bezir@@
Bike
Domini@@
Equ@@
ants
beliebi@@
kommunikation
nous
peti@@
probe
übliche
Financial
Finn@@
PS@@
Panasonic
Piz@@
Produktionen
Roboter
Whit@@
bequ@@
beth
bst
pools
sag@@
vez
Dank@@
Grüne
Gü@@
Liter@@
RS
Sauberkeit
behinder@@
kann@@
mand@@
till@@
xx
Kroati@@
aß
luft
ranken

ò
Modi@@
Währ@@
deal
generation
hause
partement
spiritu@@
DJ
Vorbereit@@
gleichs@@
gner
tas
ght@@
grösste
größer@@
mah@@
may
need
original
sing
05@@
Lied
NCC
Stable
Trainer
abstra@@
aqu@@
ktor
zeitig
Abu
FTP
Frühstück@@
Klang
Kro@@
Luftfahrt
Resol@@
Shop@@
Wag@@
adidas
fühle
krati@@
landen
rh@@
ul
Die@@
Shar@@
bend
bie
proch@@
Camp
DVDs
Lodge
Rav@@
Regen
Wh@@
emm@@
money
muy
ordin@@
vere
Hun@@
Schach@@
days
hom@@
tsam
äußert
Eta@@
Flam@@
GU@@
Kund@@
Merkel
aber@@
alts
any@@
v.@@
â
AGB
D.
Eur@@
Rohr@@
SV@@
wissenschaft
Chemi@@
Rus@@
eko@@
tails
Elek@@
Keller
Technologies
amas
beschreibung
entlich
hell
shi@@
Gab@@
Jackson
Unabhängi@@
VO@@
aciones
rand
на
LateRooms.com
Masch@@
Mitter@@
dge
eigen
endung
espe@@
europ@@
jur@@
Classic
Depression
FAQ
Lum@@
ops
CM@@
Health
glas@@
semble
Geschm@@
Haag
grat@@
Conne@@
Hof@@
Lanzarote
Lido
River
Siena
Tis@@
building
walking
western
06@@
35@@
Spei@@
content
wn
Key
Kinnock
TER@@
Wolfgang
pau@@
ruhen
schließ@@
sho@@
3.0
Erleb@@
Erlebnis@@
L.
Origin@@
element
ffer@@
hausen
leg
rab@@
Blas@@
Bluetooth
PRO
isation
style
vorsitz@@
Brem@@
Call
Gle@@
HD@@
Sli@@
TC
plo@@
risten
Castell@@
Zerti@@
bart
kr@@
orial
spitze
umini@@
Beli@@
Museums
WHO
gigan@@
inv@@
ziplin
Bran@@
Formu@@
Palästinens@@
aga
Jah@@
ental
kil@@
künstler@@
mond
ograf@@
ring
stati@@
Exist@@
Stellen@@
Victoria
bibliothek
ender@@
z.@@
,5
ECHO
Gepäck@@
maj@@
organis@@
wah@@
ü
Dec@@
Schal@@
absurd
asses
erforder@@
reception
Angeb@@
Bett@@
Clients
Philipp@@
Reservi@@
inte@@
Promenade
sekt@@
DH@@
blas@@
ller
ruhe
unabhängi@@
Dame
Flan@@
Woo@@
integr@@
ore@@
23.@@
Human
Ji@@
Voyager
ommiss@@
spiegeln
Baby
IK
Kris@@
Sex
Zentr@@
cy@@
everything
fester
umge@@
Produ@@
acks
bay@@
cra@@
gle@@
rea
schiede
ù
Latein@@
Learning
Probe
UV
ability
chef
niem@@
sage@@
sell
ski@@
wel
wom@@
équi@@
Ergän@@
Info@@
cking
erle@@
investi@@
mé@@
ology
ovo
rep@@
rut@@
s.com
sens
shaus
Gui@@
Trade
ause
fangs
irs
thand@@
Deep
Legi@@
Profile
erken@@
natür@@
rier
schrau@@
Excel
Highlights
Inte@@
Profit
Tuber@@
aganda
beschleun@@
far
frau@@
herkömm@@
itu@@
ş@@
Fab@@
Lob@@
Satelli@@
Südti@@
energi@@
enfalls
kind
19.@@
Bali
G8
Seeh@@
Tai@@
anwes@@
enkt
optional
quality
spacious
urban@@
verschle@@
ы
1981
Gent@@
Net
Yu@@
ature
computer
inien
language
ultim@@
Französ@@
Mom@@
heart
klus
Git@@
Göteborg
Schnitt@@
accu@@
gewiesen
moment@@
sibili@@
Äu@@
Orchester
autom@@
exzell@@
mme
splatz
Adapter
CIA
Scanner
Special
TM
enken
ffel
long
18.@@
Ep@@
VP
Wall
master
risen
transpar@@
1973
Federal
Konjunk@@
OP@@
dauer@@
ynn
F.
damali@@
erstklassi@@
mos
split@@
tat@@
σ@@
Ange@@
Buchstab@@
Club@@
Naz@@
administrative
amb@@
staun@@
vir@@
1983
Heran@@
Internation@@
Temp@@
Tha@@
aia
dh@@
ennen
nachfol@@
neg@@
16.@@
Arm
Hz
MD@@
Picard
Wireless
exter@@
lies
Ben
Informatik
PM
RAM
cha
floor
196
Clear@@
Gn@@
ners
sili@@
täu@@
Dü@@
ENT
ESS
Eurostat
atten@@
nik
otten@@
schmi@@
170
Präz@@
Val
agu@@
genie@@
map
unverzicht@@
wski
Г@@
Act
Bevölk@@
Container
KE@@
ers@@
ал@@
Banner
Hitler
Kreuz
Mio
Over@@
islat@@
Monum@@
fabri@@
Abs
Facebook
Hart@@
KL@@
Miner@@
Word
level
og
player
sah@@
sets
stream
1974
Evange@@
Haush@@
enza
mobil@@
Austra@@
Bug@@
Fres@@
Sites
Vig@@
lement
times
vie
ан@@
Ai@@
Arbeitsp@@
Kne@@
Raf@@
ational
before
esco
kompon@@
onale
selbe
220
Cube
Medik@@
Wart@@
codes
Erika
Peru
Thal@@
defin@@
Dou@@
Geburt@@
Memory
arier
erwä@@
etings
multination@@
spie@@
stel@@
works
Behau@@
Orienti@@
Ring@@
kok@@
strah@@
ular
Abstimm@@
EST@@
Konzent@@
Laser
Neu
Print
index
problemati@@
Auff@@
rel
thes@@
1500
Dop@@
Installer
Knei@@
Kommissionsprä@@
flow
tron@@
Azur
Milosevic
Model@@
ago
korre@@
kulturel@@
ordnungsgemä@@
sing@@
ype
68@@
Benjamin
Erdbe@@
Schluß@@
apo@@
ardi@@
cle@@
num@@
reisende
ris
solven@@
tests
Drive
Films
Rathaus
asser@@
einzigar@@
fin
Avenue
Chicago
G.
How
SM
Urlau@@
bia
einma@@
engli@@
rums
servativen
within
Import@@
Plans
bonus
direct
ean
press
reali@@
roll@@
COD
Cop@@
Fä@@
Nas@@
Pom@@
Rede@@
sums
wan
Geor@@
Nachfol@@
Sche@@
dse@@
mini@@
Bern
Bremen
Dri@@
SIS
Servers
ano@@
ausgestat@@
eira
enhan@@
pur@@
take
Arran@@
Computers
Leb@@
Split
entin
geschmack@@
say
sin
ò@@
ASEAN
Bungalows
KO@@
Verbün@@
annes
fix
table
tragung
waff@@
ρ@@
2.000
24.@@
Sir
Tunnel
attra@@
cco
flächen@@
forderung
Aufenthal@@
Chief
Outlook
Talent
rift
uses
Scher@@
bestra@@
each
ep
help
quite
Clar@@
May@@
Ple@@
between
empfoh@@
hof@@
ires
konzipi@@
EGF
President
aps
central
during
quar@@
Ann@@
cz@@
last@@
sensible
unent@@
wirtschaften
125
FT
HR
MAR@@
Treff@@
aktivi@@
entsprechen@@
ritten
root
ï@@
11@@
90@@
ART@@
Hack@@
Kombin@@
Kommission@@
Wah@@
ld@@
p.@@
ühren
ARE
Energy
Famili@@
Transfer@@
azz@@
jor@@
zy
Andr@@
Arznei@@
Straß@@
cen
gehöri@@
lose@@
nia
org
uch
weiss
IO
Lux@@
Pur@@
ering

Oslo
Premier
Stars
Wu@@
through
Eurex
Nahrungs@@
aya
messer
populi@@
ria
го
EST
Jet
Maison
cca
dio
lug@@
128
Converter
Entschä@@
Fur@@
Smart
Social
chil@@
email
nobyl
unge
ycling
Artik@@
Manhattan
Riv@@
Stick
außergewöhn@@
lektu@@
support
utt@@
11.00
Engel
IND
ases
bewu@@
ld
press@@
tner
Franc@@
Marbella
OL
every
ländische
sober@@
tico
CN@@
Donau@@
Hou@@
Visu@@
Walter
gon@@
rüh@@
shopping
03.@@
15.@@
Access
endor@@
flie@@
hung@@
mysq@@
wood
Anhör@@
Arm@@
Firewall
NT
Quot@@
Stadtzent@@
Store
half
ju
rechtzei@@
Anonymous
Grau@@
Lake
RA
irak@@
sichtig
Oxford
Schatten@@
Wales
benach@@
cla@@
invol@@
safe
stabil@@
70@@
D.@@
Geo@@
Il
SH@@
Telef@@
intu@@
kriminierung
Mosk@@
Rind@@
Schwarz
Spani@@
kat
tus
ни@@
22.@@
Algarve
Brand
Frattini
Language
Nürnberg
jn
jour
lah
verabschie@@
č
Generalsekre@@
Gros@@
arran@@
lugins
renz@@
verhand@@
word
194@@
Animation
CAR@@
Cook@@
Deri@@
Geschen@@
NT@@
OG@@
Phar@@
aging
ML
ery
propri@@
stößt
très
Abgeord@@
Goo@@
cho
stars
ward
äten
Nad@@
Tony
aming
chst@@
einheit@@
led
rank@@
Berlusconi
Bolkestein
String
gekenn@@
hoc
somm@@
züglich
5000
AB
Cot@@
Jä@@
Laeken
Monster
dite
iden
illu@@
journ@@
nar@@
nas@@
o.
ret
single
wing
zon
об@@
Barcelon@@
Carlos
Scre@@
cin@@
entre
ining
qualitative
TNG
gelei@@
philosoph@@
sme@@
stop@@
tta
Finan@@
Go
beziehung
cit@@
ctor
mentierung
provo@@
vente
öhnen
Library
oration
rap@@
Klau@@
Stefan
dep@@
dopp@@
erc@@
feder@@
ism@@
mani@@
photo
puis
street
öhn@@
Harmon@@
Pilot
Schaff@@
oli@@
Chan@@
Kopen@@
ament@@
cen@@
inn
kriti@@
Bren@@
GBP
Kim
Mitglie@@
ect
gam@@
1977
Austria
Cyber@@
Favor@@
Karel
LI@@
Sant@@
gy@@
strafe
Ägyp@@
Harry
cip@@
ebo@@
fied
got
1969
HI
IRC
Län@@
Tum@@
core
delle
gler
ical
strate@@
uneingeschrän@@
yle
Agent@@
Brasi@@
SAT
etzung
motor
zusagen
Alt
Pod@@
Rimini
assungen
chnolo@@
ida
wohnern
É@@
Immo
Künst@@
Mun@@
dit
Images
Link@@
Wertsch@@
expor@@
loss@@
ote@@
völk@@
Bestimm@@
berichterstat@@
enen@@
flä@@
inien@@
lli@@
Adam
LateRooms
Login
UK@@
dum@@
iner@@
shire
Boo@@
cz
lieu
ses@@
stante
E.
Scri@@
again
etta
schafter
ğ@@
Heb@@
Johann
Mou@@
cial
ony
register
trav@@
ý@@
entre@@
witz
Acces@@
Boli@@
Cannes
Dampf@@
Dialo@@
Ev@@
Tsche@@
Verona
kes@@
soft
36@@
Aero@@
Has@@
PR
Wilhelm
ador
х@@
UPS
cont@@
gau
institute
ismo
iter
rey
working
Administrator
Airways
Barnier
Broad@@
Everest
IF
Konfigu@@
Nag@@
Schwim@@
Show@@
akter@@
gres@@
ila
más
vesti@@
vri@@
Alle@@
GD
Watson
Zustell@@
clo@@
eigerung
habit@@
otels
stration
tu
Partners
TU
apar@@
fts@@
100.000
Dy@@
Stabilitäts@@
airo
bevölk@@
oth
20.@@
America
Flag@@
Hein@@
sko@@
stra
μ@@
Boh@@
Erdo@@
MC
better
data
dumping
vertie@@
want
DS9
Fire@@
Lou@@
Magic
Schwä@@
Stran@@
erschi@@
g.
hilfre@@
villa
Laman@@
Wid@@
bollah
edri@@
sprechend
1701
ATA
Country
H.
alpha@@
eim@@
hne
Monitoring
fu
xy
ás
Kit
Limited
Mé@@
adas
digital
eim
module
äuse
Altern@@
Dubai
Fig@@
Oracle
SK@@
Soft@@
Zen@@
genommene
mono@@
ovi@@
pers
vali@@
überwach@@
File
Host
Kath@@
Lay@@
Mozilla
Trin@@
anwen@@
brie@@
tivis@@
werben
Albert
Arts
SA@@
Terrain
verein
yc@@
Überra@@
Gad@@
eis@@
fit@@
schend
seher
zep@@
ż@@
Aparthotel
BAS@@
C4
Loy@@
Mechan@@
Reich@@
Twitter
Verfü@@
Virtu@@
age@@
entwick@@
pho@@
Gele@@
Jam@@
Persön@@
Piet@@
Training@@
including
nehmen@@
stron@@
verfüg@@
Dollars
Johannesburg
Texas
Touch
being
chno@@
notre
ook
run
teien
vie@@
не@@
City@@
Head@@
IMM@@
Rechnung@@
baro@@
lender
sson
sthe@@
stigen
Delta
PVC
atin
evol@@
hum@@
humanit@@
llon
lovely
rapi@@
Food
Messenger
Mik@@
asy@@
eich@@
jan@@
jer@@
nör@@
CF@@
Core
DNA
TU@@
aca
ingo
ów
Iran@@
Jugendher@@
Pres@@
Session
Soh@@
mischung
κ@@
Eig@@
beträcht@@
denti@@
eur@@
isl@@
ommission
ope
Lama
Lanka
Salzburger
TP
Vorred@@
ao@@
porno@@
Punta
desk
freiwil@@
orthodo@@
website
ĺ@@
Canaria
amin
añ@@
debat@@
geleit@@
stone
tana
Banglades@@
Division
Granada
League
a-
coffee
jpg
kürzt
simple
uten@@
π@@
Metal
cuisine
leis@@
yk@@
ю@@
Mid@@
atmosp@@
profit@@
08.@@
196@@
IER
Modern@@
lags
short
sst
Ã@@
С
NOR@@
hn@@
lets
lini@@
servative
ship
Apo@@
COM@@
Cotonou
Grill
Gross@@
Muni@@
mon
sprüchen
abot
jet
kler
lor@@
words
¿
142
DEM
Drit@@
FOR@@
but@@
cle
thalten
tory
verstärk@@
Blog@@
RT@@
arri@@
inc@@
republi@@
stab
unch
Bologna
Focus
Mario
Out
onal
tras
usa
Earth
Look
Mugabe
Zap@@
dres@@
ink@@
uropäischen
Fore@@
Gat@@
Marx
P.
alls
ec
local
uno
Frem@@
dic@@
erleich@@
gion
levard
läss@@
tär
yers
zza
Blizzard
Cany@@
Gy@@
Henry
Komplett@@
Region@@
Vali@@
Wie@@
begrü@@
dafrika
distance
lings@@
tale
ν@@
1950
22@@
Ethernet
FF@@
Frontex
Jack
Vizeprä@@
ites
pflich@@
profi@@
program@@
Alarm
SPA
due
enstadt
entstand@@
kno@@
prof@@
veget@@
wid@@
α
ри@@
1960
IG
beds
fänger
hab
PER@@
PP
Til@@
Travel
Zun@@
problems
sation
screen
tut@@
CPU
Hoff@@
ING@@
geneh@@
php
DER@@
Petersburg
Reicht@@
SN@@
Wolf
bio@@
enne
mass@@
clubs
hot
refle@@
symp@@
zwin@@
Art@@
Bulg@@
För@@
Innsbruck
Intelli@@
both
look
ssi
well@@
1972
Commander
Maj@@
Ot@@
U.S.
bou@@
nai@@
rami@@
Borg
Guinea
Ped@@
Rie@@
prob@@
user@@
Play
Swoboda
ardo
chischen
course
esc@@
fasz@@
gipf@@
lik
Ash@@
Cross
RAT@@
Sofia
agement
beten
cast
organisi@@
Automo@@
Fass@@
Solar
Visual
cus
details
few
leur
motor@@
nament@@
promis@@
ring@@
öffnete
Eigentü@@
Hat
Hill
Intern@@
NH
To
ernen
Beauty
Gesell@@
Harbour
Lud@@
Medina
Panel
YORK
krimini@@
ost
đ@@
EK@@
Entschei@@
Ih@@
MIT
asser
behinderten@@
cette
quer@@
sung
thotel
tise
utili@@
ASA
B.@@
ICE
MIDI
Natura
Zoo
blog
circa
klärt
Budd@@
Dres@@
Guantánamo
Light
Sla@@
Volkswagen
beteili@@
dialog
ful
fund@@
jap@@
olf
verring@@
Andre@@
Eink@@
Evolution
Project
WiFi
sted
ück
CR
Freund@@
Marie
Vegas
gate
gro
peline
poly@@
reiber
AH@@
Aids
Society
UEN
Unix
dest
found
inings
ohn
urt
wind
DE@@
Ramblas
cky
iga
Framework
ISA
Pes@@
gresses
rig
sons
spannung
Konsult@@
Lyon
Mercosur
convenient
profile
tres
Donald
Lufthansa
Nikol@@
PayPal
Report
Wen@@
mot@@
uß
Awards
artiger
deh@@
ält
ет@@
Copy@@
Notwendi@@
Photoshop
Schnit@@
Vec@@
ampagne
greich
sup@@
yl
ā@@
ŕ@@
щ@@
Investment
exe
oll
ras@@
tea
train
ECH@@
Neb@@
Track
Willi@@
date
passen@@
sim@@
thof
ART
Clau@@
Gipfel@@
eno
gehens@@
oi
promin@@
Base
Budgets
CNS
No
Pots@@
Roth@@
eicherung
lock
merk
totalit@@
unterbreit@@
Adel@@
Dyn@@
Sky
parall@@
ples
sekre@@
Bridge
Florida
Glau@@
asi
labor@@
Georgi@@
Giovanni
Old
Phi@@
Tob@@
drucks@@
inger@@
künf@@
mari@@
wat@@
BIL@@
BSD
Cruz
Nachhal@@
Palais
aki
gression
kör@@
plötz@@
unsch@@
ways
750
Hong
Mic@@
Ratsvor@@
Verbesser@@
bilater@@
gä@@
interess@@
jan
meer
02.@@
Bem@@
Buil@@
cine
esen@@
großzügi@@
ühne
.NET
Alex@@
CP@@
Einla@@
Sep@@
eption
gescheit@@
gue
wy@@
zb@@
Seattle
fet@@
group
riere
urlau@@
Eurocopter
azione
ebook
gross
kraten
oper
volum@@
Aber@@
Cancún
Universal
bian
dun@@
genü@@
ignano
iz
pher@@
pren@@
Bugtraq
Flex@@
Guatemala
INI
Ign@@
bag@@
hot@@
inson
staats
umb@@
Č@@
Director
Vermö@@
YouTube
absur@@
aro
esto
lossen@@
ourcing
sprün@@
Ökonom@@
Conference
Premier@@
integra@@
ultra@@
usern
ACE
Bangkok
Befür@@
CMS
Konkurren@@
PCI
Roth
Telek@@
files
linder
мо@@
Check@@
Holding
Stabilitätsp@@
undern
15.00
Gibraltar
Pun@@
arin
istan
jun@@
music
sions
tura
vorhand@@
zukünf@@
14.@@
Advanced
Afghan@@
Georg
It
LD@@
RF@@
begeist@@
rest
xer
Book
Chor@@
Ec@@
Ludwig
Manuel
SEO
SOL@@
TV@@
Verantwor@@
ategorie
bak@@
mack@@
mware
sau
sprechen@@
Kru@@
Ny@@
exper@@
ula
ö
06.@@
Burg@@
Carl
ELDR
FI
Gate
Hollywood
Porsche
israeli@@
kts
lian
region@@
teams
warf
Fou@@
Scott
aka
bab@@
bedded
camp@@
dire@@
market
ming
Gep@@
XX@@
ading
ality
amento
aw@@
lay
magaz@@
shore
Road@@
Rose
ian
Übernach@@
Academy
Ala@@
Heinrich
I.@@
voor
Det@@
GL@@
OP
Watch
aim@@
destabili@@
entdeck@@
geseh@@
numer@@
ßen@@
AF
Bedeut@@
Cash
Sty@@
bad@@
browser
grande
lad@@
lus
onnen
sofa
uta
én
Bow@@
Let@@
Schließ@@
block@@
stop
Direc@@
Italien@@
MPEG
Oliver
Residen@@
af
dena
wh@@
DEN@@
LabVIEW
lau
lemma
lins
CAN@@
aja
lica
läne
marks
stark@@
utive
wirtschaftung
Agent
Assoziierungs@@
Bewus@@
Bres@@
FS@@
Imple@@
MEDA
Stör@@
Water@@
Zar@@
betreuung
fig
kk@@
Kong
drau@@
gebäu@@
lans
HOTEL
Leonardo
athon
gallery
lv@@
refer@@
verank@@
Deutsch@@
Fit@@
GMO
Hak@@
aan
arom@@
eto@@
gra
otte
wärmung
fine
itation
oro
pend@@
Abhängi@@
Baro@@
Cash@@
Desig@@
Mut@@
Sak@@
WordPress
gerade@@
reli@@
£
1971
Argent@@
atic
ichtet
lack@@
lec@@
sit
C6
anta
cam
hardt
kein@@
know
posit@@
Chris
Journal
Of
Search
hut@@
mmet@@
operation
pulation
games
klärung
mans
ème
Crist@@
Pisa
Prix
Transpar@@
fat@@
gangsp@@
omp@@
road
using
voc@@
Claude
Gebur@@
Lac@@
Rosa
TW@@
sicherungs@@
tzent@@
yes
Kes@@
Rica
Turin
befre@@
leister
reagi@@
stum@@
sympath@@
wai@@
without
2050
Bah@@
Channel
MAN@@
Manu@@
Monaco
PHARE
Solidar@@
Valley
etto
tzei@@
wis
Hilton
Low
jung@@
lou
zwungen
101
HTTP
Ps
gik
Mountain
Pent@@
adar
ing-
instrument
kinder@@
neutral
offenkun@@
opou@@
three
unds
zeige
~
ا@@
04.@@
Affiliate
Da
ECOFIN
chambre
fam@@
horn
Buff@@
Chianti
bars
gens@@
vin
Ali
An
GE@@
Gericht@@
Iron@@
LAN@@
Somalia
dam
emo@@
outs
spezif@@
ärkten
Markus
former
jar@@
oner
ont@@
Gewin@@
Non
Religions@@
abo@@
beher@@
mund
sti
verwei@@
ünen
1900
CSS
Do
SilverFast
ThyssenKrupp
control
pre
wettbewer@@
ardin
eiro
ral@@
tile
Gom@@
Promotion
ept@@
gnation
hes@@
mini
rigor@@
Friedrich@@
Photo
Seri@@
Zak@@
aman@@
105
Bör@@
Magazine
Shell
Spock
asso
mid
premi@@
progressi@@
ups
Asset
List@@
onia
07.@@
CV@@
Castro
GIMP
Jas@@
Lom@@
fy
must
vote
été
Anth@@
Dal@@
Megapixel
Nice
Reguli@@
Sales
aires
ket@@
pret@@
tif
zipi@@
ф@@
Aven@@
Stream
achen
ain@@
amendo
computer@@
edt
plex
ärm
A1
Motors
Vall@@
abetes
ash
emis@@
fred
ourcen
reiter@@
she
spir@@
tai@@
zona
Gon@@
Pay
jana
tà
31.@@
Brut@@
Cardiff
Polo
Posselt
Seine
eler@@
kommens@@
rant
speed
05.@@
EOS
Luxem@@
Princ@@
ladimir
nica
tickets
years
4000
Series
Simp@@
Tin@@
bat@@
dank@@
dio@@
orium
λ@@
Anrei@@
Kohäsions@@
Log
NA
damp@@
umfan@@
ка@@
DB
Josef
besor@@
losses
please
Überwach@@
österreich@@
EURO
Evalu@@
Sop@@
TB
ademie
always
blen
duc@@
extre@@
route
stayed
RES@@
Torre
eder
hydrau@@
lum@@
pts
stap@@
ени@@
Benz
Dele@@
Hek@@
Leon@@
etz
face
harm@@
lätz@@
quo
ror
schrank
wich
ą@@
ARD
Add
Astrium
Besor@@
You
dom
eri
mg
prima
sees
thur
tima
1200
Aufre@@
BI
Barro@@
IST@@
Publishing
diver@@
dot@@
ity@@
ius
lots
reserv@@
thing
uk
Damp@@
Joint
Sahara
Sisko
Som@@
Wet@@
dler
eme
endums
entde@@
fairer
mom@@
row
07@@
Burma
ICA
Progno@@
Slowak@@
plurali@@
que@@
shot
transatlan@@
Heidelberg
IMO
Kompro@@
Manchester
Mare
Rights
Thessaloniki
ilit@@
pet@@
send
tax
ção
1.1
GI
Kontrol@@
Teneri@@
WE
diagno@@
mee
supran@@
Lig@@
Mahl@@
PT@@
Sci@@
Sydney
clu@@
ession
fab@@
ici@@
AA
Freit@@
cons
eer
enzo
experience
game
ood@@
physi@@
thumb
undi
verlei@@
wind@@
CI
Hem@@
Köl@@
base
regional
08@@
Lago
Mai@@
Respe@@
Stop
dams
kin
ption
sono
terra@@
1956
São
soci@@
sprin@@
trolle
trou@@
Car
Equipment
Malm@@
Officer
amos
sparungen
sön@@
Congress
Creative
Prior@@
agua
case
erigen
lla
simp@@
unterbro@@
vre
zufried@@
001
45@@
9.00
Alpes
CC@@
Davi@@
QuarkXPress
Simon
formul@@
jer
kit@@
partment
plas@@
Bos@@
Cards
Euros
Falls
Feh@@
IB
Sea
chio
inta@@
konstitu@@
DO
Holo@@
agra@@
alb@@
fr
kar
one@@
probi@@
xt
10.00
AVI
Begrün@@
Hop@@
Pakist@@
Vati@@
arta
bird
git@@
mais
major
mont
ström
от@@
1965
Balkans
Effizi@@
Gall@@
Nic@@
izer
spot
³
1939
Brown
Dolom@@
Mira@@
ais@@
cot@@
glo@@
karten@@
mis
solo
staf@@
Präsid@@
bas
erns@@
fax
näch@@
play
Basic
Prov@@
Wallström
Zau@@
aba
auses
elec@@
lied
mine
Directors
GAT@@
Mercure
ames
bian@@
cache
kW
lit
troll@@
Angola
DNS
KB
Liikanen
Musli@@
Secure
ae
chmal
etts
stige
....@@
Alm@@
As
BAE
Ferr@@
Nau@@
anto
diversi@@
fassend
ggen@@
plate
struktur@@
ths
Angela
Ankara
Guest
Isch@@
Lee
Lite
chester
dow@@
inklu@@
nachhal@@
relative
sed
135
Alexand@@
Chirac
Is
OF
bler
did@@
geomet@@
ool
uro
Málaga
erinn@@
kop
splans
sul@@
vs
BB
Champs
Down@@
Hinder@@
ORE
Präsidi@@
beck
fans
him
kit
seen
spec@@
115
1957
Buddh@@
Crus@@
uth
Capital
Lak@@
installation
kontak@@
nommen
ssiers
verletzungen
ALL@@
Bauer
Bestä@@
CNC
Catalunya
PXI
belt
chungs@@
gessen
making
prochenen
sserie
staats@@
wech@@
1948
ARC
Alicante
Graphi@@
Kör@@
Review
SR@@
Small
Tester
gets
simul@@
sli@@
unic@@
ussion
103
Brenner
Dire@@
License
Lyn@@
agenda
patri@@
tritts@@
try
ки@@
2.1
Arz@@
Dokum@@
We
Wies@@
those
wonderful
1964
Basi@@
DF
Lieutenant
Salvador
Sw@@
stun@@
veaus
1962
Castle
Stephen
diagnosti@@
ely
fürst@@
grades
nien
regime
1961
BG
CF
Reding
Tower
alisation
ories
Á@@
про@@
Dalai
Di
Elisa@@
ITE
Lord
PA@@
Tunes
enem@@
estro
kommunik@@
usam@@
vot@@
30.@@
Bam@@
Centro
Clo@@
Poettering
Schokol@@
Turk@@
formal
kategorien
schalter
sels
tiz
AST@@
Ast@@
Empire
Ferrari
GNOME
STE@@
Ulrich
etti
todo
village
vio
änderungs@@
Aar@@
Credit
Kenne@@
Zur@@
brand
jen@@
moment
nez
wärtige
CRM
Jahrzeh@@
Lady
bean@@
regelmäß@@
Ds
Eri@@
TACIS
besetz@@
dings
enzeit
exc@@
gence
teili@@
Meeting
Meli@@
Oc@@
Press
Sv@@
THE
Thin@@
ada@@
ells
lasst
lebi@@
pler
wall
Acrobat
Convention
Corbett
Coun@@
Dell
ERP
Mr@@
Otto
Statisti@@
dele@@
endt
inas
lug
э@@
.com.
1966
Asia
Carmen
Cru@@
LT@@
dop@@
evalu@@
ı
Ambi@@
Bereit@@
Linz
Zuschau@@
ambots
film@@
haupt@@
lium
orient@@
й@@
Brutto@@
History
Nepal
Schlü@@
TRA@@
Titan
pero
rank
streaming
½
Arn@@
Comfort
German@@
Iz@@
Relais
Sicherh@@
Steinberg
adt
cion@@
ening
essimis@@
gent
late
miet@@
mun@@
pleasant
while
Apar@@
Freiburg
Kis@@
Las@@
arib@@
distri@@
entscheiden@@
liance
metho@@
riebe
round
training
veröffent@@
welcome
Bai@@
Geschäf@@
Jarzembowski
My
Parag@@
Program
onym@@
uit@@
œ@@
Kolum@@
Mittelme@@
Slo@@
Wä@@
iling
lobby
php@@
Conil
PG
Swi@@
Wik@@
geschoss
nau@@
onto
toll
Javascript
Mars
Mr.
PO
Stal@@
eh
flation
lift
Italia
Weber
boar@@
ential
Christoph
Docum@@
Farm
Fax@@
GS
Mam@@
Model
Radisson
Sell@@
So
allmäh@@
cing
cir@@
different
forman@@
gement
shall
sius
tox@@
û@@
за@@
ме@@
Andrea
Atmosp@@
Dav@@
Gün@@
MS@@
Zerst@@
natu@@
ough
pdf
quantitative
usammen@@
Carl@@
Hus@@
Mist@@
Virtual
Zivili@@
head
.N@@
1.0
Collection
MHz
Molda@@
XI
extremely
fai@@
issi@@
lator
ng
ud
vision@@
Annan
Gallery
K.
Oscar
Supp@@
These
Zagreb
blan@@
elimin@@
eling
grupp@@
jus@@
put@@
toi@@
trip
Economy
FP@@
Rotterdam
World@@
accommodation
album
anspru@@
ise@@
mails
Council
Lab
MIN@@
Prac@@
Ray
Timor
abu@@
acci@@
ching
eriode
gg
gger
porteur
rauch
timent
unique
120@@
Banking
Cour@@
Fund
Lomé
anschluss
enda
equ@@
fication
fici@@
pay
rake@@
Area
BF
Daim@@
Lamy
Martini
Mont
boot@@
domin@@
rement
tical
190
1944
2.2
Archive
Baroness
Carlo
Underground
Verhalten@@
acion
dec
gements
lac@@
otherap@@
And@@
ELL@@
Eden
Laus@@
Monit@@
Sey@@
Tiger
Wär@@
although
demon@@
fts
four
fried
geliefer@@
guests
mak@@
sko
tzeit
zutage
до@@
ل@@
Administr@@
Cafe
Isa@@
MP
Sir@@
absor@@
ains
enjoy
festyle
parlament@@
ution
wachst@@
wandel
Expo
Leinen
chez
counts
lip
tiegen
tons
zei
1930@@
Beat@@
Erasmus
Gaming
Zend
eli
marketing
і
1.5
Fort
Graz
Leone
Patrick
Rober@@
Teh@@
eBay
effizienz
AU
Motion
Unit
WB
XL@@
dence
early
gewach@@
law
Euratom
Fok@@
PAR@@
Valle
bels
gun@@
hist@@
itar@@
least
ritz
wi
Än@@
240
Gh@@
SIM@@
Swiss@@
Ultra
bots
outside
pic@@
veri@@
Arafat
Campo
Cardassi@@
Foot@@
Kommiss@@
Montreal
Verpfli@@
befürwor@@
junk@@
real@@
rio
ór@@
000@@
Jones
TCP
Treibhaus@@
Vitorino
ared
essenti@@
grand
shops
Ferrero
MR@@
arest
dev
enough
omo
pin@@
spark
zugr@@
230
32@@
Live@@
MI
Miguel
Thai
arbeitung
confi@@
ima
1933
A320
LIFE
Love
bara
dist@@
fia
id@@
liked
milli@@
morning
rieb
ttember@@
ño
Book@@
GM
Landwir@@
STAT
Schmidt
Seit@@
aching
alia
brief
bury
dades
euro@@
gum@@
lion
nels
oot
pause
ticket
tv
unabding@@
38@@
AE
Beau@@
Gewähr@@
Senior
WA
geord@@
CAN
Cohn
Eurojust
ember@@
gezi@@
ky@@
lov@@
sine
800@@
Infineon
Schum@@
Speci@@
Veri@@
Ves@@
Werner
act@@
atico
avier
cias
enna
erhof
ied@@
vern
1949
Bendit
Jesolo
Uganda
asing
card@@
gressi@@
ć@@
Files
JP@@
MAS@@
Millennium
Quin@@
active
apartments
aris
beantra@@
looking
spo@@
uel
ères
Engin@@
Malaga
Schri@@
back@@
class
domini@@
einstimmi@@
ense
hop
lingu@@
lov
mathemati@@
rigi@@
segment
ves@@
A6
Alzheimer
Flor@@
Great
Jugosla@@
Pad
bile
biomet@@
cannot
fusion
hierarch@@
ple
stöße
thropo@@
Jus@@
Ou@@
VA
addi@@
budget
cina
iles
ket
kön@@
problem@@
rag@@
senal
ury
wap
1958
Romagna
Young
ake
bedroom
ced
didn
endo
wle@@
zufrieden@@
ς
но
с
Double
IFT
Liechtenstein
Marc
Salzkammer@@
Yam@@
einger@@
entino
js
mur@@
vel
videos
übung
üssen
Milano
ckey
garde
hygi@@
inser@@
schwung
tages
650
AX
Automation
Erfahr@@
IVE
Matthias
alis
auto
dali@@
pse
Bashir
Kh@@
OC@@
Termini
ciano
schlim@@
signal
visit
Challenge
FIN@@
ICEcat
bedauer@@
eini@@
rage
Palm
Schen@@
Zwisch@@
ample
oo
ood
tia
tti
wick
Greg@@
Holocaust
IPS
Nordic
Second
Ukra@@
conf
oter
ños
Canal
Jürgen
Mozart
Resi@@
Traff@@
direc@@
dow
euro
gegn@@
grade
jas
oos
proc@@
sexy
teau
zzi
ă@@
ADI
Dubrovnik
Flori@@
Louvre
dation
onom@@
.de@@
Apartamentos
PN
Sah@@
Verfol@@
adox
bath
ographi@@
Cox
IDE
Pep@@
Squ@@
Stol@@
Waldner
alto
fantastic
gebilli@@
raf
zn@@
1800
1963
Bibi@@
Evans
She@@
gic
hours
kni@@
mins
sites
Horn
IX@@
Joh@@
Max@@
Renault
Subsidiaritätsp@@
Twin
amerika
inia
load
onna
shofs
überflü@@
Archer
EFA
Map
bieter
enny
gewäh@@
personen@@
solu@@
think
175
280
E.ON
Mike
TT@@
Translation
bekistan
change
ining@@
liqui@@
mmer
pi
range
stimmung
uma
würdigkeit
DF@@
ESA
MM@@
Nahr@@
taire
ush
Bach
Schätz@@
Tragö@@
Univers@@
folios
gna
note
points
être
ő@@
C.@@
EZ@@
FORM@@
Myanmar
Veranstalt@@
adi
akis
asis
gestri@@
getren@@
l.
lib@@
medium
schlechter@@
tionary
102
Activ@@
Befrei@@
LL@@
Mauri@@
Schröder
Sebastian
ZF
awa
comple@@
haupt
ourmet
week
DM
Kore@@
Sehens@@
St.@@
allgem@@
number
opath@@
rüstung
since
x.@@
−
111
Abra@@
Fallout
Gabri@@
Lehne
Nami@@
Records
Shin@@
Voice
asa
love
pps
transform@@
volta@@
Audit
Bristol
Style
fem@@
key@@
stas@@
wache
woo@@
к
Days
Elba
Map@@
NE@@
arer
download
embr@@
verschär@@
1929
1947
Anne
Châ@@
Nicolas
Oomen
Parc
wild
wunsch
1.2
1930
Care
GOL@@
Immun@@
Infra@@
Karlsruhe
Ox@@
RC
Sowjet@@
date@@
erkennung
feel
fron@@
paradox@@
ress@@
schlä@@
1940
Abbas
Hamp@@
Orange
SER@@
TEN@@
VE
finan@@
gemon@@
pes
presti@@
sey
vic@@
ülle
ол@@
ци@@
Footprint
Xi@@
acional
anton
aul@@
emin@@
endo@@
ghts
noise
ymn@@
Å@@
ани@@
Barón
Gaulle
Mannheim
Pé@@
SF
UP
Wild
dn@@
ever
fully
isse@@
kaufs@@
Committee
Hot
Koloni@@
Suu
ium
ар@@
1959
AI
E.@@
ETA
LIN
Mary
Materi@@
Paulo
Thy@@
beein@@
favor@@
mina
repres@@
rupp@@
wett@@
ysées
108
Alan
Gastfreund@@
Lloyd
Spie@@
blind
genschaften
lash@@
though
thy
wers
ą
Erhol@@
Goe@@
Gord@@
atie
hosp@@
included
margin@@
oph@@
shots
sol
spa
thers
visit@@
Admi@@
Assad
BB@@
Cla@@
Fontaine
Kreativ@@
Queen
SO
Terme
agn@@
worth
Automotive
Chur@@
Imaging
Luz
Medical
Solidaritäts@@
adap@@
aments
deta@@
flag@@
giore
gress
pir@@
possible
power
symbo@@
vard
BBC
Böge
Day@@
Fotogra@@
LU@@
Policy
Tourist
UB
doba
eingerei@@
esso
hou
izza
poth@@
standard@@
tivirus
137
Application
Jor@@
Pedro
Ubuntu
Vinc@@
atar
gui@@
iron@@
kommuni@@
otto
ürf@@
Eff@@
contr@@
deck
enburg
wien
zlich
ücke
Beis@@
COS
Ericsson
FIFA
MSN
Nevada
Pen
choice
contact
eingerich@@
kohol@@
left
pertoire
portfolio
signi@@
sphäre
strationen
34@@
Applik@@
Disney
energe@@
extremis@@
leyball
main@@
special
sus@@
CI@@
Gates
Layer
aine
care
ered
stem@@
112
Beweg@@
Boeing
Easy
Frontera
Oost@@
boa
cool
gation
hol
hou@@
igi
sanit@@
taste
variable
vá@@
wait
1920
Anla@@
Cameron
Cum@@
Entsch@@
Iber@@
Kapaz@@
Karls@@
Kyi
Mandriva
Novotel
PD
Schro@@
blocks
geschütz@@
micro@@
oul
1955
320
Bangemann
Ces@@
HT
Ruijten
arian
asymmet@@
ateau
hal
privati@@
produc@@
quis
systemati@@
type
Alba
Christopher
Istri@@
Jim@@
Rome
Verstän@@
Yahoo
mode
tha
Belgi@@
FF
Kev@@
McCar@@
Wäsch@@
lander
prinzipi@@
stav@@
õ@@
Frank@@
PE@@
VII
bec
gesundheit
mac@@
oods
ungalo@@
2030
Byrne
Emili@@
Ereig@@
Familienz@@
KUKA
Monter@@
Order
Town
Word@@
boards
cci
ciones
ergän@@
ological
param@@
relax@@
AW@@
Boston
Perl
pm
ries
Ž@@
Conc@@
Herman
Mum@@
Rett@@
Rudol@@
Stru@@
chise
entschul@@
evy
ide
lou@@
mming
nomin@@
Überein@@
äck
ли@@
Andor@@
Crespo
Game@@
JPEG
analog
barri@@
eper
erhö@@
gare@@
use@@
California
Swe@@
agan
ext@@
may@@
ny@@
porting
sburg
sem@@
600@@
Augu@@
Blu
Direct
García
LEX
Philippe
Pol
Steve
benö@@
hofer
however
oppel@@
Behr@@
Chávez
Fair
Morgan
Toulouse
auern
equi@@
etra
navi@@
tregi@@
ю
365
Delors
eicher@@
hion
ill
metro
som
tano
Active
Davos
Interpre@@
M.@@
Mexico
Wiz@@
action
atmosphere
chal@@
paper
plau@@
stadium
tagon@@
џ@@
Autover@@
Fam@@
MV
Pocket
Wissenschaft@@
porter
useum
August@@
Jar@@
Juncker
MAN
bor
lem@@
persön@@
ská
ui
unt
wegs
District
Heathrow
Inc.
Nephi
Type
elin
grenzung
materials
otechnolo@@
swimming
ì
226@@
Cap
NAT@@
Vinci
gano
kandidaten
model@@
relev@@
rhyth@@
rupt
109
Cul@@
GIS
Respon@@
Slowen@@
elo@@
ems
isa
track
unruhi@@
ASPs
ICS
Präsident@@
differ@@
going
lehnung
oure
viol@@
Bosch
Consul@@
Fox
HE@@
Hyde
Joom@@
Me
Privati@@
Rehn
Roy@@
Var
Welthand@@
Zeh@@
Zwan@@
ergonom@@
evi@@
of@@
opho@@
ott@@
ppi
ě
Continental
DivX
FOR
Garda
Gare
Gül@@
Lju@@
hetero@@
minimal
nar
otti
poll@@
tar
tice
utter
256
Dani@@
Family
ISS
Mitchell
NG
P.@@
allas
another
bourne
dak
defini@@
dont
edge
indu@@
poor
rand@@
revolution
sortium
thil@@
1946
Biblioth@@
Com
DOS
Qui@@
Romul@@
aco
aries
gebro@@
party
tius
zip
ес@@
29@@
Hay@@
Hub@@
Long
NA@@
Quick@@
a.com
anni
arios
illon
lam
pions
red@@
yen
Brexit
Magaz@@
Provi@@
Savo@@
U.@@
bekräf@@
provided
state
ussy
Brava
Kaz@@
Schwimmb@@
anza
ces@@
phan@@
sher
ues
Jersey
Stockhol@@
ahme
cc
mens
oral
verhin@@
wp
äfen
Future
List
Prime
Universit@@
ego
eman@@
gee
mir@@
organ
stattfin@@
umfas@@
ï
2D
Af@@
Eric
Jahrhunder@@
Latin
NX
Nicar@@
cool@@
designed
ername
hes
menu
print
taxi
tori@@
ί@@
B6
Nichtrau@@
Spirit
aer@@
import@@
mentation
nell
oline
Kha@@
PI
This
bla@@
drive
e.
läufi@@
phen
tosh
wra@@
48@@
Ever@@
Geltungs@@
INE
Nes@@
Pacific
Share@@
atisti@@
chill
i.@@
ili
wide
123
Hat@@
Soci@@
haupts@@
satelli@@
ww@@
ähri@@
1941
DSLR
François
cel
especially
geänder@@
kilome@@
Finance
Night
beau@@
bing
children
denzen
eries
hill
isi
nachdrück@@
products
robots
sauna
Chil@@
Frie@@
Tokyo
ove
sensor
utzt
Glei@@
Lem@@
ZO@@
book@@
garden
ladi@@
play@@
prom@@
proxim@@
strong
tio
Wogau
asy
athan
atro
ign
lana
omas
stin@@
→
Austrian
Birmingham
Cris@@
Fast
Glasgo@@
González
Islands
Palermo
Stalin
Vancouver
WF
Zuverlässi@@
aggressive
guli@@
jak
pru@@
tizen
true
CON
Fuerteventura
Inclu@@
anhalten@@
ketball
krist@@
RAW
anas
gir
neutrali@@
present@@
Cher@@
Son
Vermark@@
ace@@
booking
esp@@
fait
guide
spei@@
tures
vac@@
ű@@
Harris
Peru@@
Points
Roger
comfort
furt
includes
ograph@@
schefs
sever@@
stations
French
MB@@
Neph@@
Nuendo
REM@@
learn
recommend
3.1
Fujifilm
Imm@@
POS@@
Wikipedia
ru
Building
cop@@
dson
mad
nou@@
tools
warm@@
1954
Dominion
Konfli@@
Uruguay
bah@@
emit@@
rue
ACK@@
Benedi@@
Cau@@
Nova
States
Zim@@
brutal
krä@@
liner
mix
HC
Nichol@@
Sow@@
cione
features
host@@
nerst@@
wag@@
öster@@
CM
Edward
Marsei@@
Verknü@@
berechtigung
besteh@@
company
ef
once
Castel@@
Church
Errun@@
Ivoire
O.@@
Spazier@@
bal
beeinf@@
intelligent
ATION
Ankün@@
Azer@@
Immobili@@
Konsul@@
Location
Reli@@
Trading
general
hat@@
ieden
integration
tool
CT@@
Inf@@
SOFT@@
Vienna
alta
born
lberg
Columbia
Commons
bac@@
erige
fly
verpflich@@
Česk@@
miner@@
pag@@
F1
LAF
expensive
femin@@
ful@@
paid
tration
utung
Auffor@@
Bordeaux
GB@@
Mount
Racing
low@@
walls
Are@@
Syri@@
besei@@
enjoyed
glia
neuro@@
noisy
plays
tranqu@@
со@@
Arc@@
Betro@@
Work
absichti@@
bum@@
encia
never
until
н
ATE
Age
Electri@@
Kolle@@
PNR
Rele@@
exqu@@
jack
vey
zar
Cadiz
Clin@@
Grupp@@
LES
Ltd
aker
cover
einschlä@@
eser@@
expliz@@
follow
gil@@
ley@@
ref@@
teria
FM
TOS
added
coun@@
designer
erläu@@
geschrit@@
riterien
ved
vig@@
Econom@@
Guil@@
Höhep@@
Race
haltet
palette
ront
stic
zuräumen
Andrew
condi@@
gold
Certi@@
Gere@@
OEM
aga@@
boy
clear
eph@@
nights
ock
ń
AVE
Package
Phoen@@
Wis@@
atin@@
dd
dial
ding@@
lic
nesty
oma
places
sica
terms
ACH
County
Major
Mall@@
Tos@@
USE
anche
chest@@
quanti@@
thon
thor@@
Ecuador
Leon
May
Nig@@
cts
istic@@
job
kking
Bahrain
Chic@@
Coff@@
Economic
FO@@
Ligh@@
Proc@@
Studies
ged
inwie@@
jac@@
monum@@
prov@@
resort
rice
second
tradition
2.5
Inkraft@@
KM@@
Konver@@
admi@@
eton
greich@@
kov@@
students
BE
Head
ILO
Integr@@
Miles
books
bridge
fere
genz
läß@@
quad@@
tail@@
5.1
Entscheidungst@@
Legisl@@
VIS
cali@@
disc@@
elling
milit@@
ühm@@
ALL
Belast@@
Grou@@
gal
hall
lines
loo@@
mers
proportional
shuttle
υ@@
ECO@@
ERS
Johnson
Puer@@
chiat@@
palästinens@@
program
reibt
stronom@@
tob@@
Relations
mare
Auth@@
Erneu@@
Law
acy
hydro@@
isition
movi@@
poli
valent
wart
Bürokrati@@
Page
cab@@
does
immense
strichen
tribute
Gender
Smo@@
dates
erör@@
hängi@@
kömm@@
luxury
nehmenden
news
pages
berühr@@
cross
having
kitchen
metro@@
mou@@
open@@
xi
alts@@
beur@@
essive
folgerung
ieder@@
sent
tant
tops
verli@@
Erwä@@
Jacuzzi
Works
goo@@
isk
museums
rasse
Communications
Piaz@@
Sad@@
Tours
Umbri@@
contra@@
gewo@@
important
sound
würdig@@
š
η@@
Gedächt@@
bag
gau@@
infl@@
loy@@
mittl@@
reten
xel
ę
4.1
Commission
Industrial
Ruß@@
SERV@@
acqu@@
nature
rema@@
tex
Func@@
areas
cep@@
mp
venture
Customer
Department
Next
Process
berry
click
dete@@
esis
give
herd
oring
past@@
relaxing
terran@@
zügigkeit
hine
jel@@
kandi@@
mile
muni@@
search
stak@@
things
vation
yan
zusammenarbeit
ached
create
damer
impro@@
mosp@@
passive
ruppi@@
vas
Color
Offic@@
Peters@@
Vice
eot@@
install@@
nehmung
neum@@
plates
rit
exi@@
geehr@@
rors
rout@@
supp@@
zeln
ärk@@
ī@@
Munich
Pay@@
charge
conf@@
dog@@
ision
ouse
Kommunik@@
Sharon
anno@@
atory
epide@@
include
onder@@
orca
schem@@
Associ@@
Gefä@@
biete
equipped
lounge
rob@@
strukturel@@
sug@@
uty
äußerung
Adres@@
Produc@@
Silver
geis@@
needs
nick@@
stehung
trol@@

δ@@
Irish
Water
appelli@@
auber@@
events
kland
ligh@@
plac@@
veau
Champion
Modern
Nichtraucher@@
Oh
dine
ermor@@
ines@@
intuitive
mili@@
sans
satlan@@
Govern@@
beit
py@@
side@@
west
Kür@@
administrati@@
cat
unfair
Canada
Develop@@
Part
Us
batter@@
efs
kanen
poker
Four@@
Pear@@
aw
bour@@
tain
Freil@@
bare@@
katoren
radio
Besit@@
GUI
Koso@@
Linu@@
VIII
host
nehmer@@
parameter
sure
tering
з
ASE
Deli@@
Jose@@
NGOs
Napoleon
Zig@@
cost
moral
office
performance
scape
stry
utation
Р@@
HER@@
Präsent@@
direction
empfeh@@
hir@@
logan
quick
sail@@
tini
trin@@
Energiequ@@
Rath@@
Vac@@
astronom@@
avo@@
inea
mium
read@@
swe@@
ι
ECT
Electronic
living
professional
river
sembles
smu@@
wards
Natural
Regul@@
cultural
fact
nec@@
sement
studios
yet
150@@
Grü@@
berücksichti@@
bey
coni
neo
oul@@
ßig
EW
Meg@@
Pier@@
Proto@@
Rubri@@
wledge
zwangs@@
Estate
Wäh@@
ave
definition
erial
heres
was@@
Italy
arrival
ateway
ois
older
verschied@@
º
Erinn@@
Gipf@@
Good
dinner
durchschnit@@
med@@
omer@@
popular
provide
schritten
µ@@
öch@@
Struk@@
Unterdrück@@
call
country
ency
enze
ernsthaf@@
gans
isons
itas
lite
stattet
stock@@
Classi@@
TA@@
Trans
break
chtigt
current
freih@@
lieb
marking
phot@@
said
testi@@
touch
window
Montre@@
Ocean
anden
evening
formali@@
hypo@@
kow
mental
shows
trade
ì@@
Conci@@
ICE@@
Möglich@@
intern@@
legisl@@
lossenheit
pots
sco
tax@@
wellen@@
Ear@@
Electronics
Maastri@@
Rail
Sax@@
Vietnam@@
alit@@
cket@@
decorated
list@@
term
travel
Chap@@
Fire
Karl@@
NG@@
denschaft
ric
rock
undo
For
ONE
balan@@
niture
pati@@
ragen
ules
CET
Fußgän@@
Norwe@@
Swit@@
ahrt
cue
lust
wr@@
Africa
Archit@@
Cali@@
Ernähr@@
Nev@@
ameter
bonds
dian
ventive
Mäd@@
Welthandels@@
alpine
belief
benachbar@@
dose
foli@@
school
select
social
tera
urity
went
Four
SLR
Spanish
WW@@
chnen
coming
dimension
exempl@@
genomm@@
geschnei@@
gespi@@
hop@@
stopp@@
vil
erg@@
force
lichte
nothing
provides
î
ú
3.5
Circle
UT
attractions
ckers
event
mouth
partic@@
istics
mind
share
uung
Can
activ@@
fun
kontin@@
pose
richt
symb@@
Desk
SR
diszipl@@
recep@@
transfer
writing
älfte
Ecofin
Edit
John@@
Nazi
Nep@@
SQ@@
exclu@@
speci@@
vereinf@@
zeption
Emer@@
Reinig@@
Under@@
edy
faces
losop@@
wiegend
Eco@@
Nicol@@
guest
immern
ledi@@
letters
philosop@@
riterium
urn

3.2
Beijing
Machine
behör
erge
image
pack
ů@@
Francis
Sis@@
Steel
War
arre@@
autonom@@
given
kurzfris@@
lages
lez
offline
psycho@@
Janu@@
Wech@@
eel
famous
fresh
mia
ohn@@
pictu@@
progressive
sidi@@
store
turbul@@
ď@@
Education
Ms
NO
People
cold
ences
ism
passung
Adap@@
katastrophen
phen@@
several
transe@@
ê
İ@@
Integra@@
ech
emer@@
holiday
mid@@
migration
new@@
oning
propose
uting
verblei@@
amor@@
below
booked
door@@
fan
festivals
pay@@
pit
plen@@
rd
rub@@
terminal
tique
verbun@@
Cont@@
Fassa@@
Pfle@@
bunal
complete
culture
done
ead
imagin@@
quet
sex
something
thouse
2.3
2.4
Rah@@
ammlung
fair@@
jenigen
loud
nav@@
ubi@@
work@@
Berichterstat@@
Environment
acon
conditioning
deriv@@
ffern
fore@@
navig@@
pieces
sco@@
today
uls@@
zed
ن@@
adal@@
aser
castle
ground
hervorge@@
militar@@
offer@@
orange
tum@@
yment
1.3
Servi@@
ael
product
rele@@
spots
ör
›
adem@@
ausgewäh@@
bets
jec@@
Ÿ@@
Privacy
etschen@@
green
sett@@
usin@@
Stärk@@
atei
bay
uan
windows
Franco
You@@
across
ades
continu@@
erfül@@
following
lay@@
needed
power@@
satellite
schnellst@@
submitted
та@@
Army
Veranst@@
arch
bedrooms
ctions
source
sun
vic
Defence
Gardens
Russian
along
arts
bij@@
called
fish
forts
gemeinsam@@
ppy
sale
Forest
ances
buff@@
determin@@
mäh@@
senses
thro@@
volu@@
Ö
Brandenburg
adise
laubnis
sieh@@
äte
Imperial
Unterbre@@
actu@@
mega
r.
serven
Communication
Orchestra
Women
aders
aid
biotechnolo@@
ects
eingebet@@
myth@@
stres@@
vide@@
zahler
Eiffel
clean@@
friends
help@@
hervorzu@@
rac@@
twin
Atlantic
Enter@@
apart@@
geschn@@
rug
swi@@
xim@@
.m.
Dalmati@@
Little
Recovery
angel
borg
cham@@
cies
sprechung
unas
yed
Dez@@
Verab@@
atter@@
eils
empfehl@@
ghtseeing
happy
hing
inclusive
pop@@
sleep
tis@@
В@@
Consu@@
HOT@@
bio
expres@@
hour
motion
provin@@
rants
thank
w.
Mex@@
Os
acces@@
alone
frieden
gle
ject
schlie@@
self
tube
Â
Christi@@
aged
belebung
bility
cau@@
golf
history
pod@@
sq@@
Change
Lic@@
More
Swimming@@
bn
htt@@
mysteri@@
oriz@@
reci@@
theat@@
titude
took
zing
cum@@
staatlichkeit
ursprün@@
IFA
century
ith
sci@@
sibility
Aga@@
arrived
basic
dump@@
gewandelt
itate
ree
scheidung
vend@@
Ü
ž
1.4
Langu@@
Verletz@@
acier
logs
pace
says
symbol
wine
Reihen@@
adres@@
esk@@
essions
groups
hold
lake
phones
watch
Bath
Bemüh@@
Yan@@
bres
built
conver@@
winter
ún
NGO
Rac@@
held
pository
presso
sor
study
ο
Aug@@
DN@@
Fen@@
Hospital
Instru@@
Plen@@
Telekommunik@@
aggre@@
bition
elev@@
hostel
hydr@@
images
pure
zed@@
Motiv@@
Resul@@
cap
credit
inhab@@
logo
onic
otage
rhet@@
stom@@
unmittel@@
2.6
bias
horizontal
Luxembourg
Silver@@
gency
gerecht@@
ingungen
interface
return
Platform
Schlus@@
Spo@@
Spring
Verschi@@
aring
asked
aud
cup
dice
erlan@@
outh
ouverne@@
rela@@
story
ull@@
Cultural
Industry
March
asts
beträ@@
ords
sw@@
±
Betru@@
Colum@@
Dig@@
Vereinfach@@
auth@@
court
intim@@
manag@@
pping
steri@@
therap@@
vement
Befürwor@@
Quart@@
ateur
fil
gradu@@
lap@@
sat
strengungen
terstat@@
Busin@@
Colom@@
PV@@
audio
normali@@
preci@@
solution
199@@
Product
Rooms
account
balcony
budgets
dahin@@
final
ingent
offering
semin@@
sible
Pek@@
Wiki@@
amazing
arrogan@@
attack@@
development
gete@@
nearby
parts
pressor
property
tac@@
ßnahmen
--------@@
aboli@@
ady
convert
dev@@
layer
multi
ã@@
не
Administ@@
Quark@@
Untersu@@
almost
bron@@
cion
moun@@
normal@@
occ@@
pes@@
security
wage
wanted
124@@
Elec@@
Gastronom@@
Summer
Tube
bic
emotional
lend
liers
limited
nun@@
orig@@
profes@@
structure
thought
Colle@@
bitter
glau@@
graphi@@
ismus@@
plu@@
script
tien@@
casino
coa
connection
nation
ufen
Catal@@
allet
hagen
ising
neces@@
transplan@@
unstable
write
ziem@@
After
body
break@@
forums
rational
rose
sidenti@@
stering
ultra
unilater@@
wireless
October
Opport@@
inclu@@
lar
ource
required
robust
tial
zwöl@@
zzle
überwäl@@
Diskus@@
ails
beweg@@
camera
clips
considered
divi@@
ial
keep
reserve
shor@@
tian
Books
Theatre
Way
boom
cent
eat
suites
Production
Sm@@
Stutt@@
adop@@
fee
gher
inum
poin@@
And
Ansprech@@
Krem@@
Nap@@
Your
ook@@
terrace
ulf
×
έ@@
γ@@
ECT@@
Late@@
Venedi@@
balls
covery
historic
ismen
lls
obil@@
panoram@@
personnel
square
told
Ç@@
Napole@@
Phy@@
anders@@
arly
café
esthouse
gging
hope
labor
lost
lässlich
muse@@
scop@@
vely
wave
Common
Erleich@@
Government
beeinflus@@
depen@@
peace
portugi@@
rights
staff@@
wns
¡
Mayor
Paper
bewertungen
cil
potential
propos@@
ready
thri@@
trium@@
Apri@@
Jordan
Protection
aces
fluß
fortable
kernel
learning
legen@@
project
spartn@@
tell
ş
Entschul@@
Era@@
India
Peace
Whir@@
^
ckets
client
cos@@
diagra@@
drinks
either
laration
reb@@
research
ulp@@
winning
да@@
р
..@@
Indon@@
anner
bug
cards
commun@@
geno@@
historical
human
ishing
ships
Agency
Phone
appl@@
build
buy
function
gelegent@@
heimer
liness
okol@@
Doctor
Temple
exquisite
films
fotogra@@
furnished
getting
senz
stress
string
timate
you@@
Agreement
Nordi@@
Products
Wolf@@
ameters
dial@@
guy
loved
Ökon@@
ν
Charter
fare
hyp@@
kem@@
oa
obo@@
tension
transfers
whole
Europe@@
Gift
aran
bizar@@
even@@
hormon@@
mbH
Arbeitsplat@@
Property
Vertra@@
ehemali@@
network
nüt@@
tee
Year
charming
dero@@
letzten@@
obs@@
prices
traditional
Toler@@
alty
easily
fahrens@@
thou@@
Lib@@
Sett@@
jobs
ources
ouver@@
scri@@
‑
Agri@@
apping
bai
delegation
difficult
rations
semb@@
setting
valuation
why
ό@@
م@@
Königreich@@
Nachbarschafts@@
Satur@@
Schott@@
Technical
above
acio
baby
inside
mbo@@
riteri@@
terrain
thus
view@@
П@@
д
Hongkon@@
Inner@@
decor
nehmlichkeiten
reading
reads
thanol
Czech
Sicher@@
closed
euros
pole@@
relax
san
sp
wild@@
xing
ň
clients
istik@@
lun@@
patron@@
policy
princip@@
till
viewer
ū@@
Chinese
Emb@@
Notes
erweit@@
instal@@
multip@@
native
pedi@@
plateau
politan
stitute
tone
upon
weitet
ächlich
Consumer
Heidel@@
Nature
Sciences
amount
bourg
designs
histori@@
ked
rather
Dutch
Sunday
dance
eurs
inter
prime
yi@@
zers
cheap
eks
expected
hybri@@
song
Member
agers
fting
gues
korrigi@@
liberal
rays
wealth
ō
Commer@@
bags
color
doz@@
latz
obs
serve
ush@@
Äußer@@
де@@
.The
Räum@@
came
complex
drop@@
english
itan@@
prostitution
Brus@@
Coast
Federation
Round
aling
already
chance
chips
condition
fec@@
five
generator
kne@@
ordini@@
quest
sec@@
variety
Austau@@
Jap@@
Liby@@
chat
gun
ned
offered
placement
present
rs
sy
weile
welcoming
Break@@
Cs
continental
fier
isco
maker
orandum
pion@@
thanks
übli@@
Alko@@
Antoni@@
Johann@@
Marok@@
aph@@
bration
controller
cot
fire
limit@@
Read
capital
ched
conditions
dameri@@
fül@@
kreich
later
natural
oran@@
organiz@@
oting
pipeline
verage
Clas@@
bies
degra@@
down@@
flight
owner
panorama
update
0.00
Behand@@
June
Platt@@
appro@@
humane
perf@@
polite
uli
chnet
parl@@
photos
protection
sky@@
zation
Chairman
amed
atem@@
beglück@@
definitely
iev@@
itar
metres
oun@@
record
rid
Budap@@
Erweit@@
Safety
Save
Zin@@
brow@@
dges
drum
eron
gegenwär@@
iners
risten@@
staying
tention
tourist
colle@@
display
drink
forge
known
raft@@
raph
texts
vens
öder@@
acquis
amps
atti@@
defen@@
ethanol
idea
install
lest
pg
report
rieb@@
series
ulative
Climate
Grafi@@
Upper
against
chat@@
comes
constru@@
environment
etch
jects
tly
vest@@
ε
1.6
Culture
convi@@
ently
limit
ming@@
pop
powered
sins
¬
ر@@
Veröffentlich@@
Wash@@
amenities
atus
biblioth@@
italismus
leave
request
singer
speak
tero@@
thodo@@
together
unentgel@@
Applic@@
add
ande
created
dating
extern@@
girl
goti@@
group@@
ined
lack
tains
yos
Contact
Maßstä@@
acking
ased
camp
genös@@
invest@@
path@@
process
stylish
ά@@
Florence
Verstärk@@
Verän@@
bikes
consi@@
distribution
meet
pac@@
sense
shop@@
tatsäch@@
wall@@
Venice
application
conc@@
contri@@
dining
hire
middle
noch@@
rics
scanner
suff@@
toilet
users
β
Ihr@@
Italian
Milan
aman
figh@@
flows
ichtsp@@
others
particip@@
К@@
Aviation
Children
Düssel@@
From
Leip@@
algorith@@
dependent
error
fession@@
production
sich@@
span
won@@
Virgin
Weihnach@@
YO@@
alition
foot
isol@@
machine
ording
package
recently
sac@@
stance
young
˙
Championship
Má@@
Prince
destination
diam@@
isions
kehrs@@
ously
ped@@
proportion@@
regimes
section
served
zipien
ë
θ@@
Emo@@
Mehrwert@@
egu@@
endgül@@
eway
ing.com
jour@@
luxurious
minimum
pad@@
spac@@
various
wasn
л
efficient
stimmi@@
technology
äts@@
Cape
Deleg@@
Vladimir
dle
eye
hall@@
might
written
Empfeh@@
Milliar@@
anding
cked
commercial
dly
exten@@
gewid@@
prechen
sight
surf
tium
ächst
ĺ
disk
hy
ited
languages
names
roll
taking
w.@@
ō@@
Christ
Course
Lös@@
Mexi@@
Olymp@@
Sebas@@
enthusias@@
extrem@@
iting
ommission@@
photo@@
sales
sic
weekend
By
buil@@
duplic@@
nic@@
prompt
reservation
smart
smoking
säm@@
trends
wesent@@
ي@@
Athens
Exhibition
FRE@@
Guant@@
PN@@
candi@@
formances
handle
mud
pretty
relation
repressive
turing
vec@@
Besteu@@
Bezieh@@
Expl@@
Navi@@
adox@@
future
illion
maritime
monopoli@@
sort
step
Beschleun@@
Northern
arena
charged
couple
district
hair
intro@@
ischen@@
makes
meeting
reasonable
servers
Authority
Bavaria
Montene@@
Switzerland
Voy@@
adul@@
arrest
contemporary
cru@@
deri@@
gave
norm
thin@@
tivity
Alger@@
Cust@@
Impul@@
burgh
fruit
outer
quot@@
rön@@
steps
Smar@@
actually
bathrooms
cape
docum@@
energy
eps
flat
ques@@
transp@@
vet
Biok@@
Singapore
Youth
design@@
gesamt
gleichheit
konfron@@
means
ross
sidentin
women
º@@
ā
African
Contra@@
ane@@
bezieh@@
duzi@@
magazine
nuklear@@
peaceful
queries
traffic
Ausnah@@
ITY
Secre@@
Tep@@
Trav@@
address
check@@
construction
eting@@
gment
mild
mith
plants
renovated
sl@@
towels
willing@@
wortern
alum@@
bizarre
directly
enh@@
leading
modular
nan@@
oman
options
reach
soon
speaking
superior
ē@@
Americ@@
Ener@@
Megapi@@
Opf@@
adv@@
ambiance
compar@@
gaben@@
shel@@
subsidi@@
uniqu@@
Grap@@
July
Malay@@
Prague
Regional
cosy
cut
dirty
exclusive
layout
nal
Däne@@
IDS
gest
hyper@@
lehen
pan
resu@@
stages
superb
tele@@
turn
verschlechter@@
worten
Flexi@@
Voraussch@@
anger
boys
farm
laun@@
stairs
tennis
Einstimm@@
Funds
Lett@@
Strategy
beeinträ@@
blue
child
eco
ellers
eting
gressive
libr@@
längerung
Н@@
‹
Australia
Wäl@@
allows
big@@
bring
celeb@@
commer@@
export
german
gha@@
interior
kits
review
rig@@
standing
white

Ђ
aufhin
busy
dering
echo
glu@@
ista
ition
often
session
day@@
dungst@@
equipment
ggle
gration
huge
label
model
she@@
songs
uation
ő
و@@
Infl@@
Now
Police
Salv@@
assist
common
ehlt
him@@
höhung
inary
istic
posted
stick
sé
tunnel
verlässi@@
ł
Biotechnolo@@
Ministers
Sustain@@
anni@@
balance
community
downtown
engine
eservice
false
friend@@
highly
playing
questions
succ@@
taken
ude
2nd
Div@@
Scot@@
Souverän@@
agna
anything
codi@@
construc@@
count
else
everyone
wak@@
xed
ω@@
ASP
Ausgangsp@@
Bureau
ategorien
law@@
opt
orchest@@
talk
transfer@@
Affili@@
cone
descri@@
eon
essing
fühl
gine
haven
hero@@
period
präsent@@
spark@@
voy@@
Cold
Date
Franzo@@
Shan@@
Southern
Two
argument
example
excep@@
itself
minal
plane
seller
stuft
title
trotz@@
writer
Heritage
cock
editor
informative
multiple
parties
practice
staurant
struc@@
Baron@@
Proble@@
app
cted
estic
event@@
expect
hear
moon
pet
Auseinander@@
Schicks@@
conference
dden
illeg@@
imple@@
ween
wunden
Í@@
198@@
Sept@@
Subsidiar@@
ZE
assung
correc@@
gical
sical
Ó@@
η
Doc@@
Reduzi@@
casts
coff@@
definitive
forms
overlooking
remo@@
segments
wear
Eigent@@
Nür@@
activities
collection
cryp@@
dock
furniture
gn
issue
plug
professor
χ@@
Klär@@
Zurich
anyone
ately
atri@@
bettz@@
certain
connect
dden@@
enon
itable
lst
modernis@@
sign
virus
Ł@@
Milose@@
VO
abgeleh@@
cope
eve
gins
inet
ior
manipul@@
nor
rating
sights
surance
testing
excellence
individual
latest
pling
season
sof@@
stitutes
translation
würdigkeiten
Card@@
britan@@
countries
cover@@
craft
dress
fat
hegemon@@
höch@@
ices
lash
other@@
ped
pread
seek@@
selection
sound@@
streicht
tinu@@
ї
Erweiter@@
Infin@@
Middle
Nob@@
finger
genu@@
indic@@
piece
received
tours
vian
Ś@@
1st
Nations
additional
anne@@
classic
cles
dustri@@
shirt
spati@@
tree
Copenhagen
Foreign
comment
dership
eth
excell@@
free@@
hosts
ilater@@
outdoor
pick
plenty
result
Nürn@@
Symbo@@
Tus@@
certi@@
clar@@
compla@@
deci@@
ermu@@
island
offensive
pictures
query
servation
tionist
won
3rd
Ausflu@@
Moz@@
array
belan@@
boat
changes
church
definiti@@
health
hony
itätsp@@
ography
pec@@
prior
proximity
results
teen
television
veter@@
ъ@@
Conver@@
ansa
choose
complimentary
corpor@@
ended
folio
fying
past
relation@@
release
solutions
telephone
thr@@
vermut@@
worked
Agen@@
Elektri@@
January
annen
cian
combin@@
container
default
gestän@@
looked
manipulation
move
panel
positions
wün@@
÷
Holi@@
a.m.
administrator
attri@@
aven@@
aver@@
bodsch@@
consider@@
database
gies
iny
jum@@
meters
third
А@@
Coh@@
cally
econom@@
eht
eline
fast@@
gaz@@
girls
mere
motions
particular
prec@@
raising
wish
yar@@
Aufmerk@@
Custom@@
conveniently
estim@@
hem
institution
partners
reck@@
step@@
vei@@
Ø@@
ŕ
М@@
Brussels
call@@
guard
guise
industry
kontrol@@
pment
running
water@@
Contro@@
Mountains
Plätz@@
Sorg@@
contains
doing
emerge
friend
gegeben@@
looks
meal
monitor
programmes
stande
0s
Ether@@
Indian
Storage
accessible
contem@@
further
ignori@@
ize
lows
pension@@
represent@@
summer
5.00
DG
Enttäu@@
bone
bound
cement
comb@@
elds
insi@@
issues
matter
pig@@
prise
time@@
tude
unterladen
yester@@
Child
Protocol
attention
classi@@
div@@
harmoni@@
hygiene
lower
oes
overall
science
tnisse
venue
Environmental
Galile@@
behind
consul@@
critical
customer
hir
hows
linien@@
oblig@@
retro@@
scope
someone
sorry
Communities
December
Nachricht@@
beat
bell
cem@@
commerce
companies
derzei@@
doors
drop
frame
pin
recommended
satis@@
stat
unto
FREE
alism
anch@@
become
bute
esien
impres@@
impul@@
probably
reader
tual
unterschei@@
weather
Passa@@
Seb@@
according
athle@@
boo@@
camping
coura@@
dog
electronic
ented
laub@@
levels
maps
residence
rev@@
ried
ruption
sav@@
takes
versity
Managing
Minderheit@@
Organization
atis@@
button
centrally
copy
counting
maximum
related
sm
solar
tainer
tnis
Franç@@
Holl@@
Staff
appe@@
ctive
entertainment
fixes
ilation
ingly
nam
necessary
skills
stuff
syner@@
vy
Apa@@
Railway
Tamp@@
alth
dimen@@
foreign
graph
interest
magn@@
maybe
mic
ride
sand
unzäh@@
inst
keys
kompli@@
newly
placed
selec@@
speciali@@
useful
Überschw@@
ت@@
Blizz@@
Situ@@
What
cars
category
gardens
gehol@@
haz@@
instead
loading
mass
particularly
players
sounds
sugges@@
vina
Ú@@
ب@@
Allgem@@
Aspek@@
Dr
ICT
andelt
boutique
cafés
emig@@
endar
interesting
mend
month
political
privi@@
yang
ή@@
Ambassador
Barcel@@
February
Transl@@
award
bass@@
corner
diesel
fund
save
throughout
thu@@
tiques
witter

Gonz@@
Liban@@
cafe
coup
domain
leisure
seminar
verwirk@@
ù@@
ľ@@
О@@
Exec@@
Use
animation
aware
cash
changed
conten@@
dental
edition
enheiten
este@@
extensive
gift
leader
moderate
onial
simulation
visa
world@@
ė
Strasbourg
Tourism
bright
dise@@
eign
focus
luggage
members
seemed
stit@@
try@@
Frankfur@@
Freedom
Komplex@@
Sarko@@
Thir@@
advis@@
andal
bow
clas@@
description
etal
hund@@
movie
nic
path
perfec@@
Friday
awa@@
casinos
couldn
ction@@
imper@@
incre@@
mana
months
requ@@
requi@@
Our
antly
cara
coin
elements
feeling
gewünsch@@
glass
passion@@
rements
secure
surrounded
Bav@@
Konsolidi@@
Ratspräsid@@
backs
black
dark
feed
ised
kids
loyal
opened
pris@@
rative
sian
Ä
Amster@@
At
Ausbe@@
Baltic
Mittw@@
Wohler@@
architecture
c.
configu@@
ieve
join
lane
literature
meworks
orian
promp@@
sharing
stär@@
villas
Cathedral
Eastern
Fotok@@
abor@@
beer
cable
conduc@@
dependence
fitness
giving
providing
sensus
ungsperiode
upgra@@
usual
0.5
5th
No.
Pho@@
Saturday
agre@@
bands
burn
care@@
entives
ghäfen
ingung
neys
opport@@
pus@@
reason
simply
slow
tables
tiers
Gewäs@@
Hig@@
If
Ital@@
Mazed@@
Mül@@
administr@@
allow
ambling
appointed
ccer
coding
courses
duction
environ@@
hardware
jury
remote
specific
visiting
ά
Haushal@@
acity
article
beaches
beta
borne
casting
flash
handen
hosting
igno@@
periodi@@
petition
privacy
rings
secon@@
tiqu@@
ventura
vou@@
wanne
Servicel@@
Six@@
acts
angesied@@
chip
flora
intervention
laser
linear
pron@@
recomm@@
rehab@@
ress
späte@@
tanks
temporary
understand
upgraded
ع@@
Christmas
Dring@@
Kontinu@@
Mitta@@
Wahrschein@@
atta@@
bass
bow@@
cases
ctors
daily
ebru@@
entry
fahrens
getö@@
interpretation
respec@@
stuck
unik@@
ø
Spain
alarm
catch
channel
com.
counter
elop@@
emplo@@
financial
gir@@
head@@
kammer@@
liederung
nut@@
population
portra@@
priced
shar@@
xen@@
ç
Belar@@
dated
f.
unger
Georgia
Rule
Scientific
alogue
alqu@@
arding
automation
cast@@
caus@@
conci@@
esh
freiheiten
ikalien
lea@@
marine
member
opportunity
refurbished
registered
sist
sources
tle
upgrade
whether
Demok@@
Tenerife
Tschech@@
character
contro@@
earn
latter
patio
pete
similar
transl@@
types
Republic
arrangements
bath@@
cav@@
constitu@@
dney
eing
forming
handy
isine
kept
lady
lights
message
metal
million
navigation
nose
oric
pose@@
programs
sitting
splen@@
spoke
ulate
wed
Ђ@@
Nichtregierungs@@
Rail@@
activi@@
attractive
compu@@
formats
fundamental
gym
lead
lood
stle
suitable
tries
Behör@@
anium
categ@@
cious
communication
dimensional
invent@@
semi
shared
surfing
tracks
yard
Ћ@@
Erklär@@
HO
Sark@@
anc@@
atum
aty
biom@@
buds@@
camps
chose
doc@@
educ@@
election
ference
geplan@@
hard@@
kest@@
movies
piano
pid
scale
spend
starts
surroundings
tips
ünf@@
Equi@@
Giov@@
Ireland
chain
colo@@
items
provider
tate
tiles
turn@@
visory
yourself
¹
υ
Aben@@
Amer@@
Astri@@
Summit
acco
azzo
col
dement@@
facility
fire@@
forward
gefei@@
hip
lends
powerful
prises
reichs
rough
scen@@
sometimes
vents
wled@@
Alpine
Geschä@@
aufrechter@@
completely
delete
elect
entrance
grammati@@
logos
match
mountain
obsol@@
poss@@
public@@
question
regular
started
tram
vices
wire
adults
alternatives
cut@@
eval
grid
investig@@
iron
objec@@
occu@@
prepar@@
restri@@
taxis
Т@@
Maritime
Olympic
Tschetschen@@
Venezu@@
alization
costs
evision
guil@@
ij@@
partments
promo@@
suit
sym@@
Lisbon
Russia
bedür@@
believe
capit@@
despite
expl@@
informations
keeping
meetings
nicely
password
photograph@@
recent
student
versions
Б@@
Л@@
Java@@
Partnership
With
ably
addition
applications
associ@@
atics
broken
centers
cleaning
goes
hun@@
ideally
miles
persons
reference
roph@@
stunning
terns
Compu@@
Genau@@
ather
chtens
compos@@
credi@@
enable
grounds
intermedi@@
profit
railway
struction
unci@@
underground
voice
В
Besat@@
Canadian
Fif@@
beautifully
began@@
decor@@
explore
gives
immediately
lays
lush
mic@@
offic@@
official
payment
perfectly
studies
tank
trying
Jav@@
Liecht@@
Muslim
OME
armi@@
articles
astrop@@
ferung
gone
iness
lens
licop@@
lists
meals
rian
syst@@
trum
unk
Argentina
Century
Hour
Stabilitä@@
ardian
gian
hed
onne@@
pped
quickly
search@@
six
split
theme
wake
Â@@
ADS
God
Monday
Moscow
Treas@@
absolutely
accommod@@
akes
cell
chart
convenience
demokraten
estate
instruments
ones@@
ority
ricul@@
saw
subject
trips
Ø
Cuba
Verzö@@
administration
advance
alized
among
ancient
attentive
custom@@
doesn
driver
feature
inflation
minibar
seems
sorge@@
trust
ţ@@
Advan@@
Enga@@
chy
concept
diesbezü@@
dir@@
drama
fugen
hur@@
owners
presented
setup
starting
week@@
wrote
zuver@@

ż
Ѓ@@
Electron@@
Friend@@
Pod
Sier@@
Umwand@@
class@@
customers
except
haup@@
hole
knowledge
phra@@
sad@@
seeing
sponsor
archive
asking
beauty
bure@@
flat@@
folk
fridge
gyp@@
longer
nachten
peer
pha
relaxed
scann@@
tyard
vell@@
Rim@@
Zealand
betri@@
chas@@
cleaned
fields
hit
ographic
opposite
pion
projects
roof
tip
usalem
usually
willing
أ@@
‟
Australian
asks
climate
kei
less@@
mix@@
previous
requested
smell
taine
Ñ@@
Battle
Bedro@@
Cologne
He
LR
correspon@@
ctu@@
delicious
dents
desc@@
ease
ece
ending
font
helps
ists
pain
passage
perc@@
therefore
thes
tness
trendy
Syst@@
Wed@@
coach
cription
dispos@@
facing
higher
metal@@
motiv@@
oxy@@
rare
scan
statement
surface
updated
visitors
wins
Gothic
Isra@@
Schwi@@
Vergan@@
Working
analysis
coast
curi@@
dominant
families
fic
four@@
ids
ization
medic@@
ollar
organs
planning
portable
render
schol@@
stockung
tene@@
tling
topics
windi@@
د@@
Verhaltensko@@
affili@@
agri@@
concent@@
conne@@
dap@@
emission
gleicher@@
governance
inci@@
item
ized
jeder@@
leng@@
secured
spent
tiny
ό
Kingdom
absolu@@
bella
competi@@
demand
enorm@@
gno@@
holder
ints
letzt
pd@@
plic@@
record@@
released
spectac@@
tress
valu@@
xels
û
ة
Commun@@
Krupp
alco@@
allowed
apel
arro@@
communic@@
entire
government
inations
papers
projec@@
Civil
Exhi@@
Nobel
aper
bilateral
currently
directions
ears
fortz@@
memory
receive
safety
scar@@
streets
Andalu@@
Annual
There
concer@@
correct
diving
embedded
eric
fixed
forest
hairdryer
highest
rail
schrit@@
terminals
updates
waiting
φ@@
Third
aded
amaz@@
author@@
checked
computers
galax@@
jewei@@
joy
largest
locations
otherwise
pair
transportation
tudes
watching
wonder@@
À
ô
َ@@
Challen@@
Facili@@
Scotland
bly
cane
conven@@
desktop
developed
ehrte
fiz@@
more@@
ould
south
task
wife
yacht
ycle
Assembly
Gesund@@
Kathed@@
access@@
administ@@
bits
cafes
cture
document
e.g.
ensure
grav@@
outstanding
prefer@@
rene@@
skil@@
spectacular
tigh@@
tist
tried
vine
virtual
weeks
woman
ů
Slides@@
Terrori@@
cookies
express
fell
innovation
jack@@
kana
owned
passes
universal
websites
zero
є@@
Japanese
Legal
Schrö@@
Völ@@
Zimbabwe
beginning
compet@@
dressen
ear
effec@@
gram
sidy
struktion
teous
treat
Ecu@@
MID@@
alley
bund@@
colour
confer@@
cross@@
desi@@
enses
fif@@
ghter
icul@@
itement
quick@@
technical
urban
whi@@
Übri@@
ή
ن
ﬁ@@
Fotokop@@
Ibi@@
VAT
aero@@
biking
caf@@
channels
continue
delines
education
ember
engineering
formed
hands
impact
lear@@
minor
police
sensitive
tees
telep@@
territ@@
vels
Affairs
Berlus@@
centres
degre@@
eless
experi@@
guides
irregul@@
judi@@
models
orders
p.m.
profitable
published
requirements
temperature
tioning
õ
Acro@@
Cairo
Goth@@
Istan@@
Lear@@
Parliament
adequate
beyond
charts
claim@@
connec@@
corri@@
dubi@@
eding
exam@@
feeds
fits
floors
icial
inning
llas
loan
manifest@@
moved
origin
pilot
seper@@
ters@@
utting
њ@@
Slov@@
YOU
actual
angle
banner
builds
calm
detail
exchange
facili@@
hospitality
managed
rental
schecken
simil@@
understanding
Ż@@
Geneva
Scandin@@
Terrace
Verantwort@@
amentos
compli@@
dry
frank@@
functions
investment
oil
pays
proze@@
Christop@@
Democracy
Spazi@@
bezü@@
certain@@
corporate
economic
exactly
gaming
heard
luck
novel
sightseeing
Bang@@
Educ@@
agreement
atan
crow@@
gain
gori@@
ideas
interested
interoper@@
library
moments
monitoring
proto@@
scal@@
sized
society
tainers
textu@@
tschaf@@
unities
¨
ė@@
ك@@
4th
EAN
Vict@@
artist
besti@@
bid
boarding
charter
compared
crates
drivers
enjoyable
essors
fix@@
hops
house@@
hör
iled
lateral
login
magic
mountains
plastic
purpose
race
reports
revision
toni@@
Edin@@
TAC@@
configure
domains
eag@@
eces
eness
iden@@
impossible
intoler@@
lunch
masters
meaning
resol@@
surrounding
timmung

öri@@
ύ@@
س@@
Bestre@@
Cardi@@
Iris@@
Ques@@
Secon@@
Swedish
actions
adapt@@
ailing
color@@
conditioned
expe@@
fashion
feedback
gart
heating
hic
icals
jacuzzi
laptop
lief@@
melt
perhaps
prehen@@
reviews
score
selected
sheets
smile
storage
typical
wrong
ã
Anpass@@
Dimen@@
accounts
broch@@
checks
comfort@@
cris@@
ditions
fresh@@
ftware
functional
gall@@
guest@@
hun
immediate
insul@@
issu@@
listen@@
monit@@
planes
promotion
puts
require
respect
secur@@
vehi@@
﻿
Innsbru@@
Regulation
agent@@
ampli@@
arms
average
border
bution
chemi@@
combination
dary
expec@@
ficial
inch
intel@@
ness@@
pleased
shell
signific@@
tabel
talent
transi@@
visual
Danu@@
Nordir@@
Partn@@
Room@@
Sloven@@
activity
appreciated
approach
beherber@@
certainly
chap@@
cript
edral
elled
exec@@
finding
intelli@@
ligent
oling
properties
quarter
show@@
Proper@@
Rass@@
cluster
controlling
effects
eiler
encing
exceptional
i.e.
illustr@@
independent
limits
opening
propaganda
recycling
totally
treatment
unless
zept@@
Überschwemm@@
10,000
Klas@@
Liz@@
Turkish
advice
aking
aspects
background
buildings
deep
device
effective
evolution
helped
import
improve
moving
oxide
prepared
propor@@
redund@@
seconds
shir@@
some@@
spell
г
י@@
Asian
Benj@@
Defin@@
advantage
artic@@
fant@@
feindlichkeit
generally
guys
interview
kontinu@@
langu@@
master@@
medical
mount
news@@
notes
portu@@
resolution
rules
smoke
towards
ÿ
ű
Deposit
Hosp@@
Scottish
accessed
advanced
bread
buses
cause
chair
dedicated
deposit
downloads
eating
eight
feet
finish
gay
hatt@@
high@@
homes
inian
linen
oned
picturesque
plain
replace
strip
tap
ungalows
vals
ِ@@
Angol@@
Justice
Technolo@@
dding
demonstration
draw
entschaft
everywhere
executive
exit
eyes
fabulous
fees
fikan@@
firm
hood
jazz
principal
produce
rable
rain@@
states
teen@@
upper
volun@@
ă
Д@@
1,000
accomp@@
agent
aland
anded
bottom
brought
chosen
distin@@
dryer
fashi@@
junior
letter
markets
myself
mögli@@
ommis@@
rail@@
rechtzu@@
screen@@
slightly
subscribe
tible
trockner
turned
ñ
Ÿ
า@@
5,000
Lt@@
NOT
ahe
answer
arrive
astern
began
biggest
bitions
ceram@@
checking
cycle
dehnung
discre@@
eka
ellow
ety
finally
ignor@@
jing
method@@
nennung
odd
orer
packages
simpli@@
slau@@
stores
stories
tainment
target
tastefully
tery
thinking
tierender
tired
vacation
wandels
ÿ@@
Britain
alyst@@
cherweise
controll@@
discount
egg
empl@@
equivalent
fiehlt
industrial
joint
messages
north
nächst
prints
resources
ridi@@
sector
secu@@
serious
sleeping
stausch
subway
technique
trademarks
Fish@@
abilities
artists
blin
brilli@@
clock
connected
foot@@
furnishings
isn
läng@@
maintained
mean
noble
none
nut
outs@@
role
seem
shut
spaces
supports
tab
talking
tool@@
И@@
6th
Croatia
Greens
IMF
Mediterranean
Netherlands
Sauber@@
WIT@@
aim
assign@@
bann@@
brilliant
calls
covered
difference
etus
explosion
grams
practices
remember
risk
tural
uxe
wet
Î@@
ف@@
Bulgaria
Lanzar@@
Verwir@@
aled
aluminium
assu@@
chische
comments
consider
documents
erte@@
finance
fruits
genab@@
infin@@
ingre@@
intenance
literary
mittelt
occasion
offici@@
processing
tless
Ş@@
ر
←
9th
Dry
Section
Supreme
bottle
cancellation
catering
charm
clim@@
collabor@@
economy
endu@@
entries
football
lds
loaded
motors
palace
plann@@
pleasure
plugin
regarding
sub
trees
trig@@
tured
usage
wellness
ū
Constitution
Kolleg@@
Mosco@@
Prize
Uru@@
Vermei@@
Zufried@@
advertising
affordable
ague
cation
ciples
competition
[...]
