<pad>
<eos>
<unk>
the
,
.
of
and
to
in
a
is
that
for
on
@-@
this
with
we
it
are
be
as
I
you
by
have
not
&quot;
will
which
from
at
an
or
(
)
&apos;s
has
-
our
all
can
was
European
also
:
but
your
its
one
there
more
would
their
if
been
they
should
Mr
Commission
&apos;
do
must
these
very
new
other
only
so
like
time
President
about
/
us
what
?
up
no
who
when
any
Union
out
people
Europe
such
into
Parliament
well
my
some
were
now
his
first
re@@
States
use
countries
most
many
than
report
he
Member
;
need
!
make
because
Council
EU
work
them
important
between
take
s
hotel
just
two
way
after
those
made
over
information
...
able
years
even
support
un@@
world
where
had
de
here
however
am
being
policy
in@@
may
how
system
o
ing
year
right
therefore
good
order
part
i
then
see
area
through
y
market
ed
place
es
political
economic
both
possible
same
within
own
%
could
development
want
used
under
S@@
2
against
much
rights
country
e
today
does
find
without
public
high
1
me
since
point
free
c@@
international
during
long
still
services
number
great
last
before
social
fact
C@@
s@@
available
different
say
set
know
view
room
already
future
course
believe
p@@
get
&#91;
too
end
3
&#93;
al
d@@
products
quality
each
every
case
data
T@@
day
P@@
service
er
think
B@@
process
cannot
level
A@@
o@@
human
e@@
financial
D@@
offers
Commissioner
ation
while
question
M@@
ers
b@@
national
G@@
best
city
example
based
di@@
g@@
small
said
debate
issue
means
including
proposal
why
en@@
Hotel
rooms
help
situation
business
go
clear
three
access
t@@
next
m
de@@
particular
y@@
large
4
ate
energy
offer
dis@@
common
measures
given
give
k@@
further
areas
Committee
few
agreement
u@@
citizens
ated
provide
far
taken
come
5
put
her
located
H@@
F@@
again
ensure
problem
back
R@@
E@@
The
using
change
another
v@@
security
K@@
L@@
problems
t
N@@
company
W@@
position
necessary
life
a@@
shall
cooperation
whether
real
d
group
10
vote
en
ro@@
law
less
always
form
let
needs
please
an@@
action
down
full
hope
&apos;t
United
better
stay
together
power
state
around
n@@
open
working
li@@
special
current
&amp;
main
making
protection
trade
production
f@@
did
O@@
al@@
become
particularly
children
V@@
second
present
m@@
p
terms
con@@
thank
i@@
ch@@
once
legal
z@@
k
le
Community
result
systems
House
l
Mrs
women
per
Group
experience
conditions
issues
old
companies
j@@
ti@@
certain
especially
health
various
government
h@@
water
.@@
role
or@@
ri@@
centre
industry
site
control
ating
ar@@
sector
er@@
l@@
US
close
line
whole
I@@
look
basis
ra@@
following
called
several
third
local
yet
matter
create
welcome
c
done
research
account
global
specific
respect
co@@
se@@
u
budget
fully
really
ts
region
la
non
going
term
major
due
German
million
decision
subject
something
often
continue
page
ations
Germany
crisis
modern
hand
days
project
&apos;@@
start
single
itself
le@@
she
rapporteur
der
ted
resolution
growth
until
name
management
location
regard
A
general
programme
ask
least
list
gentlemen
ting
rules
ladies
away
having
wish
family
30
enjoy
private
ates
directive
rather
range
20
among
excellent
ly
price
environment
money
6
J@@
air
towards
institutions
off
on@@
el
things
transport
food
little
r@@
software
el@@
at@@
customers
st@@
product
individual
found
7
increase
ar
em@@
x
known
se
es@@
although
Madam
si@@
staff
als
home
field
him
personal
quite
opportunity
Treaty
aid
short
interest
2009
China
call
forward
members
ous
activities
economy
approach
allow
resources
taking
lo@@
im@@
building
above
po@@
red
pre@@
provided
technology
value
finally
according
might
amendments
be@@
b
period
w@@
agree
solution
it@@
8
include
proposals
safety
costs
side
pro@@
left
town
play
simply
others
key
thus
framework
progress
as@@
am@@
points
design
ings
times
easy
Members
light
reason
indeed
effective
adopted
State
h
ent
words
per@@
15
makes
content
policies
legislation
is@@
contact
age
ant
opinion
difficult
sp@@
projects
attention
application
man
responsibility
behalf
results
&#124;
tions
favour
U@@
provides
clearly
groups
ve
show
led
et
questions
n
website
version
along
concerned
minutes
3@@
tra@@
greater
addition
text
recent
society
th@@
importance
environmental
des
ac@@
beautiful
ab@@
strategy
complete
cultural
currently
art
house
vi@@
step
wide
la@@
land
standards
natural
training
sea
four
principle
12
ad@@
guests
via
meeting
visit
risk
technical
required
deal
century
Z@@
authorities
World
user
situated
kind
te
Internet
Russia
ist
2010
address
achieve
rate
ago
employment
qu@@
past
longer
serious
feel
C
though
pages
essential
heart
history
over@@
directly
low
developed
2008
markets
solutions
2@@
cost
bring
ine
sh@@
nature
re
upon
months
top
ic
responsible
50
central
democracy
needed
proposed
young
ans
enough
internal
interests
ap@@
pi@@
les
related
never
g
ter
ma@@
events
near
online
requirements
efforts
keep
parties
freedom
regions
sure
themselves
peace
competition
date
ver@@
regulation
inter@@
breakfast
changes
Y@@
S
involved
prices
implementation
ability
everything
Con@@
voted
car
person
mo@@
almost
Al@@
strong
ors
thing
either
consider
op@@
facilities
cases
democratic
que
foreign
war
developing
force
extremely
language
positive
education
restaurant
views
network
space
negotiations
later
held
additional
te@@
true
us@@
climate
ch
event
EUR
T
lot
looking
bo@@
4@@
run
regional
comes
9
share
book
pay
states
total
created
D
live
to@@
um
try
soon
thanks
funds
men
turn
success
fundamental
actually
ever
improve
standard
five
est
request
designed
di
care
music
meet
team
works
click
seen
parts
note
living
2007
bar
unique
effect
capital
check
built
type
investment
E
workers
Presidency
ment
x@@
certainly
station
French
comfortable
famous
lead
direct
perhaps
bi@@
road
throughout
Re@@
tax
file
os
users
receive
act
km
France
idea
included
understand
ity
appropriate
accept
add
ent@@
X@@
outside
night
ge@@
mentioned
ge
takes
early
hard
knowledge
International
car@@
majority
program
beach
res
doing
ding
ur@@
ds
big
procedure
ke
reach
ary
ce
2000
across
25
friendly
nothing
communication
ideal
100
24
traditional
customer
amount
significant
und
American
features
etc
existing
reform
week
guarantee
took
instead
plan
military
An@@
relations
bed
Turkey
r
concerning
regarding
11
5@@
context
Mar@@
final
*
ci@@
18@@
ta@@
leading
gu@@
hours
aware
active
concerns
under@@
ni@@
connection
ber@@
party
impact
performance
ul@@
member
population
ag@@
writing
established
decisions
In@@
ves
pool
read
America
rates
perfect
TV
professional
th
ex@@
media
apply
completely
programmes
hi@@
fi@@
ways
agreements
tive
community
reasons
committee
everyone
card
remain
ally
recently
ten
so@@
ou@@
below
culture
basic
com@@
demand
game
ha@@
co
original
send
includes
ons
practice
jobs
allows
tri@@
holiday
B
body
moment
ties
web
half
ded
model
governments
ling
sense
sed
equipped
et@@
Government
values
choose
stage
+
benefit
initiative
don
Office
partners
z
ol@@
develop
cu@@
objectives
move
walk
2006
ator
ze
euro
choice
received
follow
face
applications
om@@
agricultural
stop
da@@
entire
South
fight
amendment
equipment
despite
New
board
goods
ty
package
image
su@@
simple
quickly
Lisbon
focus
ne@@
successful
concern
objective
tion
front
reports
aim
material
ise
return
O
table
treatment
self
seems
ter@@
da
style
Court
no@@
test
integration
function
_
potential
coming
English
par@@
consumers
highly
higher
beginning
files
6@@
increased
achieved
Ar@@
ec@@
added
tic
prevent
contains
mail
nuclear
mean
lack
levels
mind
job
sub@@
double
series
No
guest
sustainable
answer
press
dialogue
East
hotels
center
balance
00
huge
ses
19@@
gi@@
Affairs
7@@
June
border
travel
agreed
$
presented
rest
computer
whose
unfortunately
internet
gh@@
keyword
ance
setting
enable
places
carried
closed
star
oil
gra@@
ence
ck@@
�
commitment
principles
18
ces
office
behind
shows
f
rec@@
exchange
asked
effects
increasing
reviews
possibility
P
complex
nor
é@@
former
matters
capacity
die
40
pressure
bu@@
direction
search
submitted
shown
considered
ship
joint
opportunities
lines
providing
Co@@
promote
size
reduce
Berlin
do@@
latest
me@@
previous
ones
popular
actions
response
forms
bus
creation
written
billion
14
Article
aspects
external
8@@
remains
came
easily
nice
industrial
9@@
2005
reached
16
Spain
floor
enlargement
prepared
materials
sound
supply
sc@@
speak
summer
civil
Africa
accommodation
Mo@@
®
commercial
funding
similar
produced
fair
leave
protect
w
Italy
efficient
details
priority
out@@
code
Ro@@
limited
Ma@@
consumer
charge
relevant
sites
du@@
bit
independent
for@@
supported
cause
creating
decided
ut@@
X
gives
construction
men@@
M
September
ins
ry
atmosphere
property
pe@@
Bank
December
six
video
rule
operation
ob@@
ir@@
movement
assistance
produce
ism
island
largest
2004
credit
moreover
v
wi@@
mis@@
ot@@
May
furthermore
regulations
stability
ms
purpose
ic@@
ed@@
brought
mer@@
cross
British
activity
ches
13
steps
enter
structure
Convention
L
categories
ourselves
fishing
conference
ten@@
he@@
speed
ground
safe
clean
January
class
discussion
G
message
st
apartment
sts
ing@@
Central
pleased
became
man@@
gas
source
download
sometimes
F
violence
March
link
variety
word
giving
started
.com
sing
section
relation
uses
ho@@
0@@
secondly
study
ative
payment
October
ra
benefits
tell
Mediterranean
interesting
2003
ep@@
regards
cor@@
allowed
stand
document
Republic
distribution
Minister
,000
ful
damage
statement
del
status
growing
compromise
procedures
item
effort
beyond
comm@@
mi@@
agenda
mon@@
numerous
documents
ali@@
concept
contribution
comp@@
up@@
Italian
ving
server
partner
000
go@@
rich
school
starting
ad
firstly
option
bar@@
provisions
UN
require
instruments
historical
mar@@
restaurants
ale
poverty
paid
forces
drive
official
transparency
au@@
criteria
medium
integrated
immediately
equal
task
post
challenges
labour
R
ments
July
wine
distance
round
North
avoid
Spanish
draft
ak@@
airport
express
tool
ders
&apos;ll
av@@
tu@@
highest
den@@
employees
ia
base
ators
2001
types
learn
conflict
reading
reality
€
elements
ters
offering
elections
sen@@
consequences
links
solidarity
happy
daily
sub
der@@
pl@@
goes
ure
village
late
har@@
ca
tools
analysis
review
death
applied
November
un
digital
legislative
apartments
colleagues
ski
den
ents
processes
lives
tomorrow
requires
talk
terrorism
son
efficiency
park
lies
Rights
sa@@
ps
Service
saying
friends
60
anti
zed
persons
ina
ma
Windows
mobile
ess
est@@
practical
leaders
historic
build
poor
draw
ideas
establish
quiet
sion
voting
fine
pa@@
minimum
sk@@
{
expect
ard
carry
implemented
17
otherwise
gen@@
crucial
players
published
ati@@
wing
operating
rise
parking
film
offered
probably
ying
banks
got
Party
cut
General
col@@
useful
secure
comprehensive
Bo@@
lower
sales
National
reference
2002
monitoring
reduction
April
ru@@
extra
ready
organisations
Western
sports
congratulate
K
news
sent
train
weeks
Israel
head
ne
0
ality
hold
il@@
maximum
wanted
farmers
clients
caused
annual
Gu@@
worldwide
transfer
child
anything
machine
fo@@
overall
visitors
challenge
mountain
thought
ler
cal
war@@
begin
fast
cities
Chinese
}
join
sur@@
waste
technologies
Y
changed
instrument
relating
interested
1@@
month
ck
ls
scale
é
á@@
ph@@
ver
scientific
options
zation
Th@@
IT
Development
innovative
businesses
ka
pass
alone
ble
ging
ev@@
II
accession
Paris
powers
extent
nevertheless
innovation
Russian
strategic
usually
sectors
mention
accordance
ren@@
fall
green
-@@
opening
ets
methods
Directive
=
cks
release
lost
influence
worked
advantage
V
shopping
Lu@@
justice
target
chance
method
languages
processing
80
Li@@
fields
pu@@
met
ously
Austria
wa@@
morning
ness
Car@@
raised
min@@
selection
19
lu@@
bathroom
player
trying
implement
ass@@
images
borders
cur@@
fish
reforms
absolutely
accepted
swimming
doubt
currency
demands
ably
Fund
getting
garden
games
trans@@
il
Ireland
ines
increasingly
affected
comfort
critical
dy
Cor@@
alternative
street
contract
cover
phone
London
intended
namely
Le@@
bank
500
representatives
H
email
calls
adopt
structural
scope
1999
placed
founded
initiatives
born
unemployment
running
relationship
walking
21
suitable
confidence
improved
committed
mainly
um@@
illegal
debt
heard
students
plans
maintain
ys
administration
select
box
Park
expressed
Di@@
West
ta
infrastructure
200
proper
Pro@@
menu
talking
minute
delivery
stress
vital
traffic
yourself
Japan
UK
families
goal
regime
cohesion
San
ak
planning
Conference
ies
approved
king
white
comments
hour
likely
N
love
reduced
University
sitting
ks
powerful
Bar@@
zing
says
ven@@
specifically
Iraq
competitive
India
speaking
&apos;re
decide
can@@
ensuring
Be@@
sti@@
22
tourist
emissions
correct
Ri@@
circumstances
ster
conclusion
automatically
Mon@@
financing
evening
began
City
terrace
20@@
income
sized
whom
Ad@@
www.@@
Nations
feature
protected
priorities
participation
serve
effectively
Amendment
GmbH
agriculture
Sch@@
extensive
contribute
risks
ese
De@@
electronic
detailed
Greece
understanding
supports
larger
crime
introduced
laws
defined
covered
va
Centre
gl@@
encourage
collection
separate
opened
sources
thousands
remember
victims
precisely
fer@@
17@@
Par@@
bad
installation
cra@@
eb@@
exist
mat@@
tabled
27
vo@@
ite
map
port
fin@@
played
plant
served
fellow
functions
helpful
regular
rural
fresh
session
sign
else
managed
inside
motion
aimed
loss
earlier
becoming
exactly
record
Ch@@
animals
stated
sted
positions
generally
we@@
ana
spend
wrong
appear
plants
partnership
discuss
entry
programs
Asia
ars
save
im
ari@@
south
manner
anyone
generation
developments
listed
ER
linked
Q@@
cally
medical
photo
discussions
police
ats
00@@
referred
10@@
AG
Iran
worth
purposes
measure
represents
assessment
selected
introduction
and@@
ant@@
id
cre@@
won
16@@
70
wants
super@@
1.@@
cs
dec@@
discussed
ages
prior
acc@@
ya
Middle
broad
bre@@
budgetary
buy
23
enterprises
kan
limit
institutional
improving
tics
facing
Com@@
pleasant
track
gen
immigration
res@@
pen@@
sufficient
Web
sting
ber
expected
obviously
February
end@@
operations
unless
15@@
supporting
exclusive
paper
La
closely
PC
followed
warm
considerable
yes
ges
0.@@
wonderful
ju@@
camera
administrative
Security
ology
Tra@@
strengthen
tourism
represent
era
houses
experts
tour
client
discrimination
signed
screen
guidelines
playing
mark
ie
connected
net
typical
EC
alism
winter
happen
ast@@
metres
buildings
networks
sport
went
degree
fixed
average
í@@
discover
path
bra@@
ger
En@@
purchase
speech
thinking
politics
oc@@
90
advanced
domestic
August
ai@@
ens
des@@
sive
monetary
kitchen
provision
marketing
the@@
components
organisation
her@@
St@@
Ver@@
Agreement
seem
Switzerland
pre
competitiveness
duty
coordination
flexible
entirely
lin@@
season
Lo@@
presence
ce@@
acts
trust
animal
Vi@@
stone
relax
spirit
bodies
telephone
refer
properly
presidency
ational
Brussels
ste@@
neither
ner
failure
gre@@
suggest
Poland
Or@@
dealing
War
authority
items
che
beds
hear
fun
fisheries
e.g.
spacious
fac@@
economies
summit
ban
parliamentary
Barcelona
flexibility
Czech
difference
actual
relate
normal
gave
à
In
difficulties
ton
consideration
modified
ics
IN@@
experienced
ged
Su@@
vehicles
appears
machines
Sea
informed
cards
ang
God
ther@@
ah
IS@@
Policy
establishment
meetings
ct
hot
becomes
ga
ano
CD
character
threat
election
reducing
sch@@
display
hands
..
shops
reasonable
applies
numbers
break
promoting
ade
continued
picture
combat
core
origin
ved
AR@@
condition
forget
district
ke@@
sets
Kingdom
peaceful
attempt
practices
fire
tradition
aims
Po@@
easier
structures
estate
Ukraine
told
fl@@
studies
gain
courses
evidence
membership
differences
mission
changing
aspect
stock
himself
cli@@
deep
seriously
implementing
humanitarian
opposition
bs
finance
translation
USA
leader
EN@@
reception
associated
black
models
cap@@
stable
consumption
ancient
spending
Per@@
fund
spent
defence
door
ba@@
ahead
brand
producers
Ex@@
berg
myself
Amsterdam
database
negative
с@@
fiscal
combination
middle
Swiss
yesterday
carefully
dangerous
shop
lic@@
shower
sha@@
eu@@
format
statements
au
concrete
criminal
votes
balanced
AT@@
union
attractive
immediate
impossible
fying
ships
W
stra@@
description
ori@@
compared
exhibition
tim@@
wood
imp@@
voice
detail
adoption
happened
shared
agencies
campaign
IT@@
coffee
300
ures
trading
recognition
north
zone
announced
cuisine
insurance
nearby
br@@
14@@
genuine
respond
wor@@
calling
resort
12@@
ore
learning
raise
availability
Public
Airport
combined
sions
sun
truly
released
Europeans
fear
grounds
religious
contrary
ched
Christian
inform
ran@@
York
sto@@
Debian
instance
advance
described
capable
23@@
guarantees
back@@
introduce
assi@@
improvement
pictures
ple@@
beaches
reservation
IC@@
cars
Social
allowing
architecture
fied
26
propose
naturally
registered
continues
pan@@
sides
elected
ical
nation
AN@@
28
elegant
territory
stic
figures
names
seek
closer
reliable
African
article
moving
passed
possibilities
television
claims
Linux
charged
corporate
ja
skills
Du@@
ur
ino
element
dan
wishes
hand@@
ro
unacceptable
yang
Tri@@
participate
work@@
greatest
win
bur@@
&gt;
cy
ini
obtain
Economic
cer@@
desire
enables
trip
sal@@
devices
Democrats
strongly
manage
ER@@
jo@@
а@@
export
color
Turkish
booking
sensitive
completed
tasks
arrival
science
packages
ingly
firm
individuals
tan@@
asylum
forced
establishing
ve@@
bear
ei@@
installed
ction
permanent
Bi@@
button
failed
ited
35
Prime
WTO
dra@@
enormous
meters
Justice
Ber@@
apart
edi@@
surrounding
Irish
paragraph
urgent
ws
surface
platform
ban@@
stands
kept
write
cul@@
surrounded
Greek
tru@@
contain
dedicated
flow
sort
river
entitled
Her@@
sale
Euro
stri@@
U
tes
na
standing
ig@@
mer
Ab@@
Mor@@
nearly
perspective
2.@@
marked
zi@@
beauty
court
pr@@
comment
fe@@
weapons
tre@@
payments
exercise
drawn
mm
advertising
Pre@@
factors
fil@@
13@@
convinced
ning
initial
coast
1998
totally
biggest
extended
relaxing
And
sli@@
storage
Board
RE@@
controls
disease
д@@
unable
seven
whatever
eight
holidays
Museum
outcome
transparent
rent
piece
tor
granted
recommend
achieving
tures
mu@@
St.
von
organization
weight
Eastern
AS@@
ach@@
organised
Inter@@
Pi@@
definition
print
Kosovo
Se@@
bl@@
foot
31
install
approximately
honourable
ture
continuing
luxury
ser@@
whilst
Man@@
He@@
ice
attack
unto
ising
memory
conclusions
booking.com
square
accessible
mass
form@@
device
ft
fu@@
perfectly
church
commitments
railway
candidate
rightly
ely
por@@
advice
Netherlands
institution
guide
tried
existence
sis
flight
Palestinian
van
laid
tur@@
DE
artists
star@@
af@@
decades
attractions
update
vision
claim
ambitious
maintenance
saw
j
window
tr@@
ours
For@@
independence
participants
ish
story
gs
chosen
examples
Human
our@@
valid
limits
ring
Ni@@
ES@@
vehicle
Vienna
equality
someone
targets
background
all@@
ants
remind
lets
pri@@
engine
Gra@@
4.@@
interface
Portugal
successfully
deliver
club
cking
constantly
cy@@
keeping
agency
host
mountains
bringing
expression
Constitution
putting
amp@@
obligations
promotion
ff
intervention
physical
race
Services
tical
atic
buffet
Green
inv@@
rapid
ы@@
asking
signal
prevention
45
books
lake
nations
previously
ral
goals
qualified
multi
los
AL@@
colleague
du
outstanding
approval
contents
das
orders
registration
seeking
unit
expenditure
substantial
bri@@
ann@@
merely
advantages
ff@@
photos
category
cat@@
operate
aircraft
obvious
manufacturing
cl@@
plus
smaller
communities
planned
All
contained
AC@@
Center
dynamic
ES
not@@
binding
title
ST@@
governance
&apos;ve
GDP
species
factor
bath
recovery
thereby
driving
situations
consistent
glass
recommendations
strengthening
route
Guest
oral
amongst
ir
expensive
med
monitor
app@@
fuel
patients
Austrian
furnished
tion@@
Bu@@
Ne@@
uni@@
onto
rep@@
sta@@
tation
bars
pointed
older
Federal
named
ised
attacks
mechanism
ement
texts
EC@@
Association
cal@@
leads
sters
guaranteed
extend
Regulation
multiple
ker
waiting
Latin
causes
resulting
medi@@
phase
primary
object
personally
arms
are@@
contemporary
ek@@
landscape
i.e.
spread
ah@@
depending
compliance
sation
Management
touch
consists
Health
determined
liability
lose
Trade
testing
29
dri@@
Si@@
looks
meaning
disposal
turned
ory
atory
identity
yer
gro@@
1997
fication
faced
Research
hor@@
responsibilities
Rooms
acceptable
Mi@@
notice
consensus
urban
ye
remove
satellite
vel@@
conclude
е@@
brings
industries
investments
ots
mp@@
air@@
golf
land@@
explain
ov@@
Summit
register
steel
addressed
primarily
Agency
serves
convenient
mor@@
mann
Sweden
forest
technological
wall
smoking
treated
store
except
alised
Foreign
schools
и@@
adequate
refugees
leadership
az@@
fre@@
fore@@
tests
ki@@
ths
talks
pleasure
ek
evaluation
yp@@
sanctions
Club
association
ian
versions
syn@@
copy
System
5.@@
To@@
dimension
fill
discussing
La@@
ently
ung
delay
т@@
radio
RO@@
spaces
southern
representative
con
UN@@
stations
za
politicians
prepare
Ba@@
Business
ko@@
rit@@
Ta@@
liber@@
cing
fra@@
nu@@
je@@
ined
om
tor@@
che@@
inc@@
kinds
sin@@
opposite
shi@@
competence
equally
ration
manufacturers
hu@@
rail
Romania
Rules
tic@@
Rome
People
skin
profit
sell
diversity
delivered
letter
significantly
controlled
ga@@
quick
utili@@
Euro@@
accounts
32
felt
dr@@
willing
cle@@
Qu@@
suite
ell@@
mutual
conduct
represented
ery
gone
High
Grand
requested
affect
spa
wealth
mid
So@@
author
Star
finding
flo@@
mechanisms
helping
improvements
launched
ca@@
Col@@
Environment
CO@@
presentation
dly
met@@
acting
speakers
OR@@
urge
dealt
ster@@
strength
ries
DVD
eri@@
gets
Gi@@
Microsoft
down@@
watch
shape
consultation
str@@
IP
aries
feeling
ens@@
wait
relatively
els
drugs
runs
Dutch
fighting
gar@@
multi@@
heavy
taxes
ctions
temporary
highlight
besides
л@@
ash@@
ó@@
clo@@
@
audio
fruit
millions
knows
default
em
moved
sold
3.@@
mode
Britain
expectations
alisation
El@@
cher
gr@@
post@@
Fi@@
log@@
No@@
experiences
recommended
Minutes
length
las
compensation
drawing
fit
ultimately
val@@
engineering
reply
expertise
bas@@
AD@@
30@@
je
taste
edge
ological
requests
truth
ends
Lake
Ko@@
cia
obligation
attitude
sen
ani@@
cted
IS
Am@@
char@@
soft
articles
emphasis
locations
constant
trees
ath
covers
Red
charming
healthy
appeal
ast
burden
president
solve
blo@@
privacy
fy
rejected
vol@@
holding
boat
bro@@
gri@@
discovered
Free
sel@@
units
ili@@
producing
Sa@@
Me@@
regret
hin@@
lan@@
suffering
temperature
recognise
resolve
mit
mobility
helps
proof
mental
websites
leaving
ites
destination
sol@@
blue
OS
eye
latter
reflect
renewable
figure
dishes
largely
officials
resi@@
streets
del@@
ess@@
cycle
ching
emphasise
cts
exists
disaster
extension
sa
automatic
cas@@
browser
si
operators
cheap
bedroom
Au@@
intention
danger
1996
diseases
Pa@@
Val@@
gn@@
reaching
spring
Enterprise
entered
noise
error
rel@@
fraud
FR
consequently
elled
pul@@
combating
substances
comply
lots
output
appreciate
passengers
protecting
affairs
ung@@
water@@
#
worse
helped
creative
ll@@
arrangements
ists
ts@@
dan@@
furniture
museum
Chamber
75
p.m.
objects
applicable
Villa
mel@@
handling
Sp@@
involving
valuable
м@@
centres
fail
happens
conditioning
delegation
ended
exclusively
Bur@@
att@@
kers
gers
confirmed
recognised
father
hom@@
tours
cri@@
dinner
exp@@
criticism
opposed
inn@@
Afghanistan
ley
parents
respective
Munich
increases
bedrooms
ada
command
wind
waters
massive
volume
cent@@
determine
ctor
reserve
bel@@
peoples
Japanese
flat
constructive
carbon
cold
charges
cru@@
ron@@
art@@
band
ang@@
hostels
°
dining
fies
organizations
ward
hundreds
micro@@
Sh@@
pat@@
Jo@@
ris@@
entertainment
™
bor@@
wed
We
gender
amounts
squ@@
Programme
involvement
6.@@
impressive
treaty
chain
You
collective
mem@@
fantastic
meat
tional
exceptional
investors
Google
Institute
friend
directives
bing
strategies
Software
outdoor
east
newly
conc@@
journey
offices
NATO
Swedish
sm@@
residence
wn
mandate
obtained
debates
hit
sexual
cutting
contributions
awareness
weather
applause
dependent
seeing
Ju@@
launch
leisure
und@@
Do@@
define
preparation
Company
removed
perform
poli@@
restrictions
fla@@
prove
remaining
una
communications
happening
repeat
Kar@@
Un@@
ered
25@@
--
issued
west
cho@@
gate
ki
Bar
block
precise
com
liberalisation
Ministers
Foundation
Market
divided
inflation
assist
died
discharge
depends
ok@@
organized
abroad
ced
colour
creates
acy
opinions
wh@@
walls
lin
emerging
radi@@
reserves
Go@@
gli@@
finished
wer
dates
regulatory
contracts
rapporteurs
vast
iz@@
resolved
eyes
Paper
maintained
Station
han@@
migration
ct@@
vis@@
defend
extreme
Strategy
This
conflicts
cable
password
requirement
John
Rule
identify
classic
continent
off@@
thirdly
tro@@
Arab
Charter
Frankfurt
connections
settlement
exc@@
frequently
ment@@
к@@
roads
ethnic
ein
ey
sun@@
о@@
Har@@
occasion
couple
focused
ghts
eh@@
cent
resolutions
blood
assure
regularly
sho@@
ire
mostly
doors
characteristics
doesn
tors
explore
returned
ty@@
Polish
counter
copyright
facts
renovated
sauna
Ho@@
Croatia
recommendation
spot
Art
operational
castle
tip
cont@@
faster
ger@@
messages
ought
EL@@
Korea
electricity
joined
owners
pping
visa
visible
Tor@@
customs
ust
Ru@@
realistic
Lord
involve
spec@@
Dis@@
loc@@
universal
understood
fol@@
une
Te@@
facilitate
pose
Cre@@
optim@@
Ste@@
Bulgaria
marks
lists
hardware
inf@@
pieces
corruption
Costa
zz@@
MEPs
ai
intend
seat
Mc@@
grant
emergency
hence
minority
Cal@@
fee
elling
Alliance
confirm
grow
conducted
welfare
gy
effectiveness
submit
ato
fle@@
ining
owner
tel@@
head@@
printing
ticket
Energy
MP@@
IM@@
demanding
eding
chemical
deals
performed
terrorist
topic
drink
glad
pe
sky
contra@@
maintaining
absolute
statistics
arian
pollution
transportation
ä@@
san@@
Control
decorated
proud
somewhat
surroundings
award
impression
subsidies
widely
ID
parliaments
northern
surely
ically
в@@
Gar@@
noted
lovely
Procedure
fa@@
row
THE
tickets
answers
Brazil
driver
pra@@
ping
Monetary
accompanied
load
career
firms
heating
properties
lay
400
2020
Great
Can@@
Canada
Soviet
ences
updated
displayed
1,@@
album
familiar
formed
ports
....
correctly
master
metal
stat@@
od@@
license
contrast
gold
none
analy@@
ba
pension
Cyprus
settings
compatible
counter@@
vers
і@@
01
judicial
AS
Er@@
rely
tourists
islands
Israeli
SMEs
drivers
follows
Roman
tal@@
intellectual
Safety
meant
declared
balcony
ay
imposed
starts
bul@@
Roma
pol@@
PL
ach
ben@@
proved
bottom
functioning
signs
Luxembourg
visited
eventually
pla@@
grateful
iting
careful
len@@
trafficking
reported
heat
listen
techniques
eastern
ony
western
mit@@
hair
indicated
visiting
contacts
exit
resistance
assets
7.@@
dge
prefer
tain
woman
flights
turning
expert
relaxation
actively
showing
Street
dar@@
profile
150
declaration
ned
ns
serving
strict
earth
sight
wines
ere
ongoing
delighted
hall
Cas@@
library
ual
ales
ads
cked
lie
appointed
MS
transition
enti@@
1995
pp@@
ha
involves
brief
valley
drug
fic@@
mother
hal@@
interior
invite
considering
ste
arrive
bound
eng@@
heritage
inhabitants
passenger
wo@@
possibly
quarter
person@@
wards
wireless
demonstrate
demonstrated
bilateral
Saint
ara
ist@@
competent
collaboration
saving
farm
ye@@
entrance
vacation
ll
rock
eller
partly
rapidly
lat@@
satisfied
presents
suites
percent
cash
UR@@
exciting
personnel
stored
reject
ware
alist
feed
ctors
fashion
ination
channels
afternoon
Square
configuration
occur
Copenhagen
Wi@@
hostel
hr@@
Pal@@
Dr.
у@@
fan@@
provider
aci@@
looked
raw
remote
equ@@
expansion
sm
anti@@
educational
Bel@@
Portuguese
concluded
speaker
Ser@@
LE@@
committees
immigrants
disc@@
chan@@
River
appearance
U.S.
justified
hon@@
ligh@@
disp@@
rising
oriented
regarded
tw@@
bes
explo@@
match
Bra@@
stronger
documentation
whereas
ables
tically
corner
planet
theme
functional
reservations
recorded
plenty
minorities
uting
burg
artist
awarded
ght
overcome
crimes
moral
determination
youth
spoken
elsewhere
Palace
ular
Chi@@
RA@@
lasting
cosy
channel
²
bin@@
PT
SP@@
credibility
forum
gener@@
bridge
ately
Financial
lia
sharing
assume
constitutional
ell
fitness
Schengen
EM@@
speci@@
ko
containing
foundation
solid
read@@
blog
globalisation
http
Mu@@
Hungary
factory
replaced
ased
generated
Mal@@
ken
tackle
department
legitimate
depth
towns
á
sugar
Pact
adopting
housing
sending
twenty
gardens
Vice
respected
replace
zes
phrase
Prague
liberal
tested
subsidiarity
Ti@@
acted
satisfaction
nonetheless
Sal@@
ering
winning
Friday
Hu@@
Baltic
IL@@
banking
transactions
frame
log
taxation
manufacturer
nights
originally
aged
citizen
professionals
1st
destruction
electric
ue
soci@@
Q
asing
deficit
lounge
Pakistan
don@@
occasions
desired
ize
qui@@
routes
2011
scheme
centuries
ella
isi@@
š@@
dy@@
facility
encouraging
pres@@
oo@@
Mexico
constitution
exports
ot
bike
Belgium
ini@@
owned
Mat@@
dem
battle
AM@@
Mer@@
regardless
dies
ado
ay@@
Fi
Lan@@
eds
mini
component
corresponding
son@@
imagine
vers@@
lift
my@@
wers
suppliers
ona
tly
vit@@
usual
films
windows
ances
shares
stylish
olo@@
Bal@@
slow
Belarus
pped
spectacular
falls
lo
puts
plays
definitely
ulation
Z
stance
straight
swe@@
extraordinary
pun@@
argument
vulnerable
San@@
aff@@
flows
ins@@
slightly
für
White
excessive
identified
99
cuts
ming
preparing
rental
milk
decisive
addresses
intensive
LA@@
distributed
ong
tobacco
Madrid
ass
sup@@
magnificent
inclusion
95
mobili@@
everybody
insi@@
providers
shipping
Hungarian
Information
secret
wrote
behaviour
eli@@
interpretation
Funds
pm
ared
army
leg@@
ME@@
division
б@@
patent
generate
treat
Day
Bor@@
directed
adults
courts
sum
TH@@
politically
Room
miles
exception
filled
ri
Church
fourth
lessons
Por@@
applying
lau@@
ene
proposes
enhance
wal@@
Lin@@
AL
plenary
zu
ensures
productivity
physi@@
hab@@
formal
packaging
98
virtual
ert
pers
Best
VAT
carrying
impose
voluntary
scene
accurate
Nor@@
count
diverse
updates
suffer
ti
employed
examine
Bri@@
absence
audi@@
maritime
ase
ear@@
everyday
savings
renowned
with@@
min
pot@@
theory
ON@@
bly
trend
Old
forests
invest
referendum
substance
attempts
domain
Vil@@
proven
Spa
hundred
killed
ric
artistic
deposit
university
toward
Bush
alization
cast
ordinary
36
supplies
England
representation
drop
selling
complicated
concepts
ania
weekend
tt@@
advis@@
proposing
thousand
departure
ening
proceed
48
duties
ss
&apos;m
It
ISO
appeared
conver@@
enabled
pursue
clubs
gained
stabili@@
mix
skiing
abuse
mil@@
US@@
solely
topics
maybe
subjects
paying
AB@@
traditions
connect
web@@
prosperity
AG@@
Islamic
trial
arch@@
greatly
wer@@
ss@@
wonder
vely
nation@@
specified
teams
mas@@
notes
Congress
34
ball
lined
ending
sou@@
raising
ler@@
Assembly
wear
Protection
50@@
tennis
weak
win@@
Ca@@
ill@@
ulate
suggestions
supplier
Americans
arrived
Egypt
bli@@
consent
promised
comparison
Northern
Nos
emp@@
Bro@@
IN
enabling
Structural
finish
suggested
drinks
philosophy
tea
We@@
ame
rop@@
farming
Mac@@
Cam@@
societies
receiving
cker
Rom@@
villages
ented
Thursday
colours
continuous
religion
arguments
imports
ink
mal@@
yed
proc@@
1990
Home
invited
na@@
DI@@
bil@@
extra@@
input
ome
disabled
luxurious
cip@@
depend
EADS
alities
difficulty
ride
armed
CO2
import
introducing
uted
necessarily
sh
label
upper
Time
directory
hardly
unity
normally
ACP
patient
spoke
Le
countryside
bon@@
module
Santa
Obama
actors
9.@@
estimated
ser
wat@@
ero@@
Code
Framework
lied
cou@@
int
unlike
reli@@
periods
EN
sheet
King
Tur@@
Fu@@
sought
motor
3D
Sunday
aside
disk
hill
preventing
tree
enjoyed
dream
ID@@
leaves
succeed
aging
cleaning
Atlantic
conf@@
ECB
comple@@
sor@@
lunch
para
rating
tables
alized
spe@@
stars
constitute
overview
recognized
trips
significance
8.@@
ein@@
legally
destroyed
cooperate
organic
harmonisation
negotiating
ven
ata
Secretary
conventional
resource
37
confirmation
hum@@
permitted
publication
ate@@
Desk
allocated
def@@
united
massage
Air
accordingly
33
pure
tou@@
bio@@
supposed
nine
obliged
dic@@
ran
1994
remained
н@@
lab@@
specialist
ards
ky
2013
Earth
ham@@
fi
sustainability
delicious
undoubtedly
esi@@
instructions
Festival
barriers
by@@
decade
wave
Technology
gan@@
rare
refers
Restaurant
homes
contributed
reg@@
sum@@
studio
gap
programming
supervision
missing
freedoms
driven
64
OF
Asian
Hamburg
pas@@
suffered
Island
lands
OR
vor@@
unforgettable
pro
productive
24@@
desk
enhanced
handle
lived
Monday
Royal
football
labelling
covering
combine
aus@@
dance
welcomed
gallery
fly
chi@@
labor
pal@@
severe
sounds
stry
travelling
fulfil
manager
musical
CH@@
ack
director
festival
regi@@
ET@@
wellness
lastly
prime
sections
movements
proceedings
AND
characters
ency
istic
Finland
Strasbourg
classes
Ra@@
arise
guided
wider
faith
Act
ama
functionality
Year
ING
alongside
ked
managing
а
Federation
forthcoming
indicate
snow
Town
enterprise
internationally
Mil@@
explained
cancer
female
ich@@
•
sta
fans
sphere
universities
ain
ine@@
Auditors
Socialist
firmly
ranging
welcomes
acceptance
bit@@
orial
El
ishing
plan@@
rin@@
cells
revision
deb@@
transmission
Barroso
ail
federal
slo@@
eat
layer
fees
modules
sle@@
obstacles
reflected
dro@@
parameters
Ger@@
zer
safeguard
restricted
warning
hearing
stocks
stu@@
bal@@
600
beings
dad
Hel@@
tin@@
birth
roll
viol@@
School
adverti@@
didn
coordinated
non@@
saved
PHP
oni@@
subsequent
Data
Page
dé@@
losses
realise
temp@@
Nice
Pri@@
origin@@
shift
considerably
ordin@@
reflects
Serbia
parliament
remarks
38
showed
computers
decline
ide@@
Mag@@
adapt
errors
ministers
generations
welcoming
hospitality
inde@@
pil@@
vessels
USB
exploitation
prec@@
Ac@@
800
adapted
dry
sec@@
eurozone
55
Design
disasters
sole
dark
lam@@
info
sign@@
Cap@@
evol@@
п@@
collected
museums
cell@@
sit
chair
flu@@
initially
ny
pick
sovereignty
Action
fairly
exclusion
ation@@
investigation
mus@@
endorse
whenever
worst
amm@@
restructuring
worthy
romantic
sit@@
III
Site
parti@@
Gen@@
compact
ories
Agriculture
Shi@@
Rec@@
ble@@
movie
Law
dead
kes
essentially
Ara@@
Wi
liked
PDF
excluded
fleet
joining
09
cro@@
dignity
equi@@
kl@@
ari
consulting
reaction
cab@@
sian
dence
Putin
parallel
ease
Stability
voc@@
everywhere
Ha@@
Inn
Media
violations
De
ap
Australia
Medi@@
fran@@
van@@
cies
trends
dollar
Private
song
reliability
roots
oning
Geneva
ica
acqu@@
clean@@
s.@@
Vo@@
cour@@
vin@@
ater
believes
Commissioners
TO
occup@@
gh
hiking
scientists
deeply
interpre@@
songs
thermal
secre@@
cian
port@@
96
protocol
equivalent
restore
root
Amendments
IMF
accident
poll@@
ola
overlooking
printed
targeted
executive
08
videos
sla@@
Bre@@
Ku@@
Peter
but@@
shortly
Comp@@
Michael
Ben@@
penalty
learned
nobody
transferred
Beach
checks
courage
symbol
remin@@
push
restored
cultures
grown
minister
bearing
Transport
sia
Balkans
fishermen
ums
Legal
abilities
thi@@
xes
PPE
assess
iled
Saturday
amenities
lock
strengthened
COM
clause
concentrate
tend
stages
freely
Valley
97
ECU
threats
19th
tage
bers
ick
supplied
termin@@
suit
alo@@
ordered
holds
reconstruction
ON
uns@@
tives
ED
approve
satisfy
Indian
absor@@
graphic
processed
undertaken
zo@@
Venice
plastic
promise
assembly
sers
Christmas
profits
07
Gr@@
pretty
Card
inspired
underground
bot@@
briefly
--@@
bility
dating
logical
Black
cement
pressing
isation
adding
clu@@
inform@@
nor@@
ole
sand
0s
Paul
break@@
cel@@
mic
inner
pion@@
prospects
euros
anywhere
designs
ecological
edition
amazing
ambi@@
switch
relative
therapy
collect
explanation
spo@@
treatments
ams
tracks
Non
Sil@@
entering
produces
solar
е
zu@@
Nu@@
cial
ideally
amed
ath@@
ente
struggle
operates
sensible
belief
bom@@
cell
foot@@
Bay
stream
candidates
funded
missions
individually
highlights
poses
49
manufacture
és
Denmark
boost
neighbouring
sizes
acknowledge
panoramic
atives
virtually
student
presenting
bes@@
dness
miss
Express
bis@@
ped
portfolio
TR@@
province
wild
65
superior
heading
reserved
ç@@
anniversary
sights
Comm@@
gradually
Sol@@
Organisation
ham
engaged
narrow
attached
till
teaching
twice
è@@
adds
shadow
Georgia
listings
Fre@@
hel@@
ner@@
belong
oring
sex
ze@@
budgets
custom@@
rant
Sta@@
alcohol
hol@@
picturesque
diplomatic
usage
CA@@
200@@
referring
fri@@
ni
reputation
main@@
motor@@
One
Pe@@
Ter@@
floors
proportion
Systems
1992
asser@@
boot
ord
Hall
a.m.
arising
similarly
horse
nar@@
wa
IR@@
Net@@
NGOs
damages
riding
pillar
shot
sufficiently
sorry
Win@@
doub@@
kernel
meal
coun@@
olive
heads
efficiently
visual
surprise
cting
ill
phenomenon
sion@@
territorial
urgently
CAP
engines
mistake
occurred
ther
varied
operated
graphics
recording
widespread
Em@@
panel
Mr.
begins
revenue
appropriations
passing
stores
Islands
geographical
SE@@
Char@@
addi@@
relates
causing
composition
recognize
sophisticated
ental
strictly
catch
Belgian
illustr@@
concert
cham@@
custom
casino
formats
index
Syria
producer
constructed
magazine
asses
intends
acquired
dated
seats
Cro@@
bonus
medicine
honour
forth
specialists
05
servers
hidden
mented
wage
kin@@
mig@@
succeeded
teachers
illi@@
lobby
allo@@
engage
cm
speciali@@
victory
closure
lic
Fer@@
coherent
highlighted
posed
m2
poly@@
consequence
basically
execution
resulted
ie@@
script
meets
clicking
р@@
crises
42
Ombudsman
letters
soil
Op@@
aviation
dol@@
aqu@@
и
Fin@@
gies
ez
Facilities
Pen@@
participating
spi@@
troops
kilometres
uniform
agents
dict@@
Sar@@
liable
Global
manual
bright
combines
ov
stunning
tal
cious
repair
considers
chen
incorporated
Tour
First
affects
airports
records
camp
choices
Castle
Tu@@
environmentally
boats
favourable
Des@@
encouraged
War@@
blocks
aring
rein@@
ques
yst@@
Breakfast
oldest
yo@@
Rotary
aling
convenience
las@@
duc@@
integrate
metro
AT
Budgets
IA
Pas@@
bathrooms
unds
ished
reporting
ena
esses
operator
feet
exact
mouse
radical
elle
willingness
Hor@@
ani
ark@@
Wil@@
arti@@
cr@@
subsequently
Find
illu@@
pur@@
Director
conditioned
vis
achievement
prisoners
specialized
OL@@
prison
PL@@
accidents
Hotels
gue
intensi@@
urgency
zen
meals
opens
Martin
ita
dest@@
filter
respon@@
JavaScript
percentage
convergence
eless
Server
Executive
Ge@@
associations
colors
promises
serv@@
Ci@@
marine
seeks
insist
Gre@@
dos
observed
native
preserve
asset
Muslim
ace
cool
Trek
Deutsche
ello
extending
prize
Resort
instru@@
quotas
upgrade
quote
dation
hopes
capabilities
faces
yl@@
stories
sy@@
enn@@
stuff
wooden
addressing
zero
Dra@@
Open
boards
compulsory
conferences
makers
Regional
commun@@
developers
forming
regulated
scheduled
26@@
clarify
rev@@
rap@@
implications
pos@@
purely
compar@@
nowadays
theatre
expand
ы
attend
ol
Min@@
vice
dispute
tively
Front
crew
roof
seconds
Is@@
85
sei@@
utmost
Constitutional
Danish
mixed
motions
Protocol
1993
cam@@
classical
ou
surprised
identi@@
refer@@
direc@@
Vol@@
beer
mini@@
Plan
harmful
sleep
chairman
governing
spite
Treaties
checked
intelligent
sam@@
stake
IC
additionally
phones
mere
grade
27@@
Res@@
Tourism
arm@@
decre@@
featuring
03
Fl@@
bet
č@@
convention
premi@@
any@@
Pol@@
indoor
permission
vari@@
20th
Golf
airlines
enjoying
shed
Manager
constitu@@
contextual
girls
believed
minim@@
staying
Culture
OT@@
hydro@@
iling
sco@@
Hol@@
aus
shel@@
CE
eld
smooth
A5
incentives
mouth
relationships
AC
permit
unfair
ells
harmon@@
06
broken
communicate
ern@@
vacc@@
Br@@
gran@@
Washington
camp@@
enforcement
з@@
cookies
expense
multilateral
villa
hills
2nd
Dublin
encies
ultimate
fun@@
250
dering
evident
GB
\
studied
Music
eliminate
39
Agenda
Casino
Pic@@
Sha@@
fax
minor
remarkable
approaches
clock
auf
accounting
antly
Online
buses
peti@@
formation
journalists
repeated
bre
hur@@
chapter
q
medieval
Notes
concentration
organise
ential
retain
iler
discount
tun@@
28@@
edited
poorest
wonder@@
val
Sam@@
sound@@
Sk@@
ж@@
taxi
Food
ratification
rou@@
exposed
jud@@
tered
conciliation
describe
negotiation
fs
oth
Ban@@
Prodi
ile
legitimacy
run@@
pace
distur@@
adventure
free@@
г@@
fewer
gel@@
hot@@
indi@@
meanwhile
ort
Tro@@
schemes
Education
economically
Report
amended
jour@@
Jewish
aches
past@@
wan@@
audience
tious
arians
campaigns
ownership
mine
revolution
pilot
Cuba
constitutes
medicines
Box
David
Tre@@
appe@@
fer
references
stick
suff@@
02
Pu@@
Forum
cancellation
Ka@@
xi@@
assigned
financed
hole
meaningfully
.00
Exchange
calm
escape
keys
Consumer
Ph@@
alle@@
dia
whereby
Java
collapse
User
Han@@
projec@@
charm
collabor@@
Award
Gal@@
appointment
teen
ст@@
OS@@
Wal@@
eine
inadequate
nom@@
Pan@@
Pro
bought
seemed
enting
ingredients
shuttle
í
Fri@@
Kyoto
diving
lon@@
empty
mes
suggests
trained
translated
frequency
fron@@
dig@@
ship@@
н
George
itation
underlying
Moscow
completion
mb@@
certified
enjoys
lar@@
pools
rem@@
Jean
pel@@
apo@@
foundations
satisfactory
secondary
tionary
44
prohi@@
Cup
violation
wife
tac@@
organiz@@
ney
repeatedly
ton@@
IG@@
ac
neighbours
demo@@
superb
contextually
deli@@
gation
loading
navigation
grammatically
openness
paths
portra@@
typically
akan
asi
dual
ession
C.
For
occupation
ED@@
EP@@
begun
dramatic
thri@@
EL
ef@@
electrical
height
representing
simultaneously
sement
transfers
Terms
adi@@
returns
communic@@
exemp@@
partial
compete
sovereign
ils
Hong
MO@@
considerations
exec@@
falling
Industry
dings
oni
technique
At@@
arranged
sees
taining
preferred
Sun@@
fifth
shore
portal
tis
43
examination
listening
sely
IP@@
optimal
managers
excursions
Intergovernmental
chairs
deserves
observe
fix
expanded
Authority
residential
Check
destroy
fascinating
foremost
Gro@@
dor@@
tolerance
mod@@
Slovakia
informal
newsletter
presidential
IF@@
hypo@@
aj@@
Kong
appro@@
unnecessary
construc@@
sample
splendid
timetable
mark@@
viewed
solved
withdraw
ond
tom@@
ón
Jan@@
guaranteeing
SO@@
ski@@
As
debating
genuinely
sil@@
PR@@
coastal
itable
soul
bay
rus@@
Civil
need@@
Customer
Fundamental
,@@
codecision
apparent
stro@@
Florence
ala
120
UT@@
autumn
ex
LO@@
St
loans
folder
characteristic
logic
toler@@
travellers
Women
thumbnail
thorough
Garden
speeches
Maria
ader
comparable
Cu@@
commit
int@@
ö@@
array
Tr@@
elec@@
iron
kg
quar@@
specially
Ki@@
Smoking
USD
anda
prefer@@
moments
fire@@
voters
ethical
examined
hei@@
losing
41
bigger
layout
adult
instantly
gel
strike
NL
Player
apparently
boasts
complaints
importantly
violent
Fisheries
Flash
intentions
tz@@
Network
servi@@
Plaza
din@@
loaded
ands
hau@@
700
Men@@
blu@@
pensions
1991
Games
SA
acceler@@
cla@@
dialog
string
ph
play@@
respects
vocational
suited
alists
lively
47
mechanical
plug
branch
clarity
busy
eded
jointly
rene@@
residents
yn@@
ard@@
textile
MySQL
Wednesday
sunny
ante
het
ron
Fo@@
broader
researchers
Academy
Pacific
composed
objec@@
baby
certification
expenses
focusing
fur@@
Sel@@
dal
spectrum
Skype
hat
manufactured
coal
Kon@@
Ministry
bel
principal
measurement
Morocco
purchased
vary
wherever
Bas@@
buying
tile
activ@@
condemn
tragic
AP
Palestinians
fan
anim@@
booked
electoral
ises
tragedy
ł@@
stein
dom@@
ía
turns
On
afford
cin@@
hear@@
motorway
accuracy
authors
jurisdiction
smart
vo
devoted
officially
slopes
Hon@@
civili@@
affili@@
cer
een
doubts
inspection
dist@@
inated
Alps
calendar
accessories
virus
Bosnia
tness
IB@@
SI@@
1989
2012
rable
deep@@
perpet@@
terrible
arrangement
fe
Hi@@
oppose
refused
viewing
rated
sessions
Department
Ram@@
behavior
publish
revised
tivity
wake
Lam@@
continuously
subscribe
survey
recall
trouble
As@@
affordable
closing
transaction
bol@@
ero
elev@@
geous
fresh@@
Airbus
Robert
Chairman
NI
kil@@
forgotten
parks
q@@
bug
kon@@
va@@
Kur@@
10.@@
adjustment
fell
trav@@
destinations
renewed
sake
inten@@
promoted
finds
relief
shor@@
angle
ok
dependence
prospect
emer@@
ft@@
preserved
dres@@
treas@@
posts
uncertainty
viable
winner
ached
affecting
dial
Family
04
Employment
RO
afraid
judge
removal
deadline
lining
ela
fore
AM
tiv@@
desktop
hi
86
Greens
Space
delays
populations
Project
employers
hes
orientation
cket
arts
ly@@
false
prop@@
pain
tar@@
Life
matic
ghter
governmental
wheel
stopped
honest
stressed
transitional
boo@@
ceiling
delete
Gaza
granting
integrity
tory
visits
wise
ima@@
likewise
sailing
alternatives
iness
gift
preparations
answered
dimensions
modify
soldiers
Del@@
ading
conversion
hy@@
lob@@
focuses
gni@@
argue
Fe@@
arily
Direc@@
Heads
cot@@
partic@@
Im@@
domin@@
precision
refuse
trains
Finnish
duration
mar
organize
quantity
papers
itali@@
assurance
bits
exhibitions
Mac
Bon@@
GNU
Off@@
deaths
alled
book@@
promising
variable
publishing
whatsoever
fir@@
1000
attended
wel@@
painting
poker
deficits
petition
tab@@
belongs
installations
bonds
healthcare
lls
ando
ush
kit@@
pursuant
ignore
knew
declare
expressly
observation
sing@@
tin
Van
earn
greenhouse
posted
tropical
ра@@
premium
emerged
deserve
kno@@
privileged
51
signing
surveillance
aled
arrange
spir@@
cope
han
tains
throw
brands
tens
frequent
occupied
қ@@
automotive
cher@@
sus
tower
&apos;d
certificate
cycles
width
EX@@
civilian
46
freight
precious
recession
schedule
Team
publi@@
exhi@@
pattern
authorized
catalogue
explicitly
tiz@@
distinction
su
achievements
identification
gor@@
hood
purchasing
tem@@
tries
ú@@
AR
beef
bles
flying
beneficial
centers
ée
advise
plate
My@@
cameras
dog
tips
TS
missed
ker@@
gic
2,@@
52
academic
accum@@
retail
stand@@
taxpayers
undertake
Poker
Sen@@
postal
DA@@
James
alise
insul@@
mo
Meeting
actor
credible
logo
mines
Charles
asi@@
monuments
pressed
steam
territories
­
Camp@@
holder
amending
newspaper
notably
oms
ska
.de
Da@@
machinery
ruling
noon
pack@@
signals
tionally
chief
enter@@
negotiated
AP@@
ane
J
Gentoo
lev@@
Internal
lian
program@@
reflection
relaxed
scar@@
prevented
Suite
wit@@
ami
innovations
threatened
insufficient
dable
unusual
CON@@
debated
Budapest
Representative
West@@
commerce
humanity
neighbourhood
cht
indicators
tran@@
consistently
onal
dat@@
rati@@
vable
dity
eter
prestigious
suspended
fli@@
intelligence
drives
mistakes
vali@@
concerts
ratio
rup@@
magic
passion
pour
ratified
senior
wars
18th
72
tho@@
Presidents
logistics
realize
fitted
Pl@@
necessity
revealed
slowly
Dor@@
Fra@@
chemicals
ken@@
stops
telecommunications
tra
alike
aran@@
AD
Dom@@
negotiate
performing
Maastricht
prin@@
reali@@
credi@@
inter
lovers
split
eled
gross
interactive
trou@@
Marina
aro@@
fare
tech
External
Web@@
chose
replacement
sandy
aw@@
cancelled
moves
generous
measuring
super
100@@
heavily
Area
imported
sn@@
gian
stayed
far@@
eff@@
nationals
photographs
IV
ette
supplementary
unknown
claimed
cum@@
Prin@@
attra@@
releases
admit
ich
mandatory
centrally
feedback
protest
silver
AIDS
certainty
patents
e.@@
Cologne
defining
publications
ros
Olympic
bureaucracy
AV@@
indicates
justify
placing
acquisition
perc@@
bi
citizenship
nur@@
facilit@@
gam@@
SC@@
Wor@@
Cooperation
PS
S.@@
patterns
twin
thanking
tut@@
fails
organis@@
pot
BC
Pra@@
lights
withdrawal
11.@@
Partnership
contributing
imposing
prote@@
Stu@@
architectural
heated
wei@@
2.0
Pap@@
displays
spare
timely
selec@@
On@@
Zurich
chat
potentially
sch
settled
specify
zones
Common
Prize
allocation
eries
expanding
ges@@
proximity
Storage
1.5
SD@@
Fran@@
Milan
conservation
evaluate
transit
worrying
ñ@@
comprises
farms
Hostelsclub
USS
whe@@
equity
ci
favourite
authorised
Salzburg
bert
breaking
Thomas
outs
snow@@
harm
vals
ó
.org
oned
terrorists
afterwards
auto@@
broad@@
congratulations
creativity
airline
intervene
demonstrates
occurs
pass@@
vac@@
LE
choosing
movies
sculp@@
vent
Via
frag@@
Opera
bak@@
gar
nit@@
contractual
drinking
esc@@
blan@@
hesitate
initiated
PRO@@
Your
conveniently
inclusive
decor@@
Studio
agrees
alle
dollars
literature
dent
habit@@
ash
ean
eted
Ap@@
gradu@@
plane
experiencing
announce
negara
tigh@@
Sec@@
compla@@
wages
Acc@@
Argentina
judgment
yard
Taiwan
archive
intense
revi@@
Society
adjust
ckets
gest@@
len
systematic
mm@@
Sony
EA
dition
ood
OM@@
caught
dd@@
Europol
EF@@
clothing
cooking
diversi@@
sty@@
duplic@@
por
untuk
Don@@
Open@@
exposure
Cat@@
Lebanon
tel
venture
ET
uri@@
Iranian
Regi@@
disputes
progressive
elderly
tened
Co
biological
conventions
pay@@
unions
catering
question@@
tough
A4
BSE
creature
summary
breach
coordinate
lum@@
mes@@
boxes
procurement
qualifications
applicant
codes
edit
spots
premises
consult
ku@@
unanimously
Series
Growth
globalization
locate
undermine
Ur@@
blame
lighting
notified
churches
converted
dle
prescri@@
tioned
dress
stering
ab
ele
Adobe
alty
structured
ys@@
Hour
differenti@@
owing
Islam
authentic
biodiversity
cancel
downloaded
favorite
fications
Scotland
convince
pursued
Sur@@
convert
li
mal
SM@@
react
temperatures
Product
Uni@@
copies
rational
sively
competences
consistency
respectively
HTML
aire
If
bill
smo@@
stret@@
tonnes
Burma
wn@@
Second
nam@@
practically
worry
195@@
arrest
sheets
transformation
eradi@@
peri@@
reci@@
54
Special
gically
comb@@
designer
findings
harbour
silence
Bureau
s.
stem
tre
arbitrary
decent
laser
tone
Youth
maps
ora
wind@@
Lithuania
PO@@
ör@@
thro@@
Yugoslavia
compare
coverage
fallen
whi@@
Slovenia
dev@@
rubber
platforms
AN
gical
ized
Communist
hire
stones
pic@@
survi@@
Southern
zy
visitor
headquarters
MA
controversial
doctor
dominant
gence
03@@
combining
kar@@
stays
warming
posi@@
isn
gio
3rd
Kal@@
crops
Sou@@
gn
ación
bic
essence
gains
unemployed
Democratic
editor
cky
genetic
workshops
handled
keeps
teenth
onic
Mich@@
Section
capture
colle@@
lowest
Mad@@
artificial
fortunately
sentence
thesis
vous
71
UC@@
divi@@
handed
gaining
BO@@
fulfilled
hospital
tia
bian
degrees
entries
legislat@@
par
sible
workshop
emplo@@
ambition
segment
Empire
threshold
warmly
68
belie@@
directions
Malta
accommodate
ign
integral
pays
Poli@@
aten
mul@@
tle
enz@@
signature
blind
icon
evi@@
gement
male
perspectives
bag
dam@@
migrants
ares
cation
mentation
sat@@
explains
approx
assign@@
eit@@
leather
terminal
uring
Trans@@
Beijing
assured
confident
hen@@
lt
S.
gan
toilet
demographic
quest
shaped
specialities
specifications
substantially
treaties
tribute
SE
desirable
partnerships
step@@
sul@@
trans
56
hing
meantime
suggestion
celebrate
mi
power@@
Stockholm
aired
borne
sid@@
ack@@
eting
ji
semi
Na@@
irs
rela@@
diver@@
forcing
ases
birds
describes
pack
66
controlling
tension
Est@@
dorf
kan@@
bureaucratic
emission
fate
paradise
returning
batt@@
diff@@
economics
sustained
MB
Shop
ito
measured
Nov@@
fuels
imperi@@
rat@@
receives
separ@@
vigor@@
Plan@@
argu@@
Main
estimate
opt
suddenly
Sho@@
preliminary
raises
Canon
Left
harmony
Website
distor@@
hopefully
flag
inst@@
College
beside
cen@@
ect
entrepren@@
mir@@
pharmaceutical
watching
92
emphasised
gol@@
proce@@
statistical
Video
lesson
tioning
continental
crow@@
drafting
fold
kes@@
53
defense
powered
eigh@@
avoided
circul@@
concent@@
key@@
negle@@
OK
ji@@
appreciated
Air@@
Met@@
Rot@@
fears
ал@@
bat@@
fam@@
performances
Power@@
eing
estimates
ote
tangible
21st
Ham@@
denti@@
golden
holes
automation
isolated
kids
ong@@
tour@@
asp@@
battery
downtown
column
Kr@@
oured
talked
Mur@@
Power
challenging
enlarged
founding
graphy
ison
59
Mas@@
The@@
consul@@
correc@@
margin@@
stor@@
acknowled@@
Nordic
Port
Puerto
SV
Bet@@
enced
jan
roughly
searching
tet
characterized
connecting
failing
ü@@
A.
Palestine
crystal
incentive
regulate
ré@@
strange
teacher
thoroughly
differ
industri@@
urs
CS
develops
stration
Mobile
Ob@@
Single
finances
acknowledged
lakes
Real
aming
Gulf
sur
ail@@
Rural
deemed
discipline
exchanges
fal@@
paintings
ee
eth@@
photography
tering
abund@@
cheese
guard
Mul@@
compli@@
declarations
downloading
ka@@
noticed
supple@@
victim
interinstitutional
prominent
agent
knowing
robust
ut
160
bac@@
novel
pling
cos
expressing
piano
Conditions
asts
atten@@
marking
mas
grand@@
acquire
micro
schol@@
sporting
adjusted
justi@@
publicly
tailored
damaged
ignored
jo
op
Iraqi
PC@@
confusion
derived
disappointed
fought
ford
tary
Liberal
Rob@@
executed
breathtaking
engineers
Socialists
activated
sequ@@
Hamas
Investment
autonomy
dominated
ground@@
incredible
yers
allies
circle
hop
net@@
anticip@@
racism
compo@@
optional
Den@@
restrict
scenery
Joint
pregn@@
rose
hoped
rever@@
weak@@
dumping
than@@
writer
Apple
mur@@
Cathedral
Tuesday
alarm
grand
surprising
Cham@@
bread
fundament@@
ROM
reverse
marquis
automated
tery
transatlantic
undertakings
fulfil@@
shareholders
stant
flowers
keen
rub@@
themes
Master
belonging
exceptions
garage
holders
plain
Deposit
centrali@@
doctors
notion
peak
survival
telling
hed
ous@@
pleas@@
prohibited
unlikely
emerge
licence
shortcomings
uns
a.@@
eping
os@@
ер@@
12.@@
eda
mol@@
wai@@
well@@
Cha@@
Mark@@
checking
regimes
ket
Car
Sy@@
camps
lacking
Elevator
Libya
guidance
optical
spiritual
sw@@
craft
pet
yc@@
·
finest
lean
realized
brain
58
Coun@@
Guide
è
BMW
Las
aded
complexity
California
Spe@@
crossing
stell@@
torture
Mari@@
interview
scre@@
tells
DC
backed
A3@@
Luggage
MA@@
Vietnam
condemned
della
kit
rejection
Science
accepting
wording
branches
environments
swit@@
monitored
ras
regrettable
bo
cros@@
reduces
vent@@
hosts
ê@@
eit
indirect
wil@@
Parliamentary
governed
ado@@
pron@@
survive
Tel@@
discre@@
ints
bird
ization
ungen
indication
1980
oria
outs@@
seaf@@
Indonesia
Norway
Road
й
League
Macedonia
filling
ald
tual
Defence
cali@@
ements
nis@@
salt
å@@
pursuing
responses
stood
2.5
fts
ico
loved
rac@@
Ant@@
acks
confron@@
exceed
foods
mining
evolution
inequality
inquiry
outset
bid
ests
simplification
ère
ENT
än@@
amend
fting
married
passes
coordin@@
editing
Edition
explanations
mirror
multimedia
Mel@@
Organization
SS
abandoned
defending
ow@@
translations
upcoming
Gran
accepts
login
penalties
thoughts
Apartments
Kor@@
eo
grants
ager
circulation
parameter
walks
CE@@
edy
emo@@
badly
oh@@
taught
88
ensured
sensor
Labour
ank
joy
score
drafted
separately
HO@@
Mus@@
delicate
fted
unification
incorporate
nesses
ulated
Los
horizontal
DA
Pet@@
essed
homo@@
ousness
simplify
unfortunate
Nav@@
alliance
fat@@
invitation
newspapers
reductions
seminars
subsidiary
ultra
thin
Quar@@
humans
monthly
yi@@
ami@@
defects
infringement
reinforce
Cent@@
alt
cycling
thy
67
bour@@
announcement
ault
endor@@
Book
Quality
initi@@
observers
vegetables
black@@
gged
twelve
attract
characterised
guides
unlimited
diplom@@
hard@@
phot@@
tress
Albania
calculated
coinci@@
dru@@
quota
DS@@
Thailand
departments
dero@@
sel
Digital
celebrated
recycling
wis@@
grav@@
yellow
Zimbabwe
grew
AF@@
Sudan
bone
conve@@
implies
inters
lich
discovery
enemy
succ@@
conjunction
revenues
Cri@@
assumed
feels
respecting
adher@@
eur
requiring
EB@@
arity
bla@@
dental
profound
rations
Dec@@
Heating
fault
unprecedented
top@@
continually
spor@@
venue
ville
Zi@@
aria
manifest@@
preferences
auch
chocolate
interim
scann@@
bathing
ori
akes
cians
flav@@
iny
officer
weekly
To
cheaper
investing
93
dre@@
gia
interaction
tionality
Rol@@
anyway
setup
surfing
quot@@
archi@@
exploring
lor@@
trails
Ltd
eric
bah@@
onia
dur@@
evil
ord@@
transformed
tte
Declaration
bou@@
excess
Bern@@
Cli@@
deser@@
ype
concentrated
consolidation
fires
lea@@
minds
adaptation
cle
fifteen
inher@@
tackling
denied
solving
undertaking
winners
arly
camping
expec@@
iPhone
tape
identical
lica
omm@@
Ol@@
gur@@
securities
tured
Al
Ther@@
activate
commonly
pan
PM
Tran@@
daughter
mot@@
receipt
separated
Captain
breaks
modes
announ@@
contradi@@
fiable
secured
imagin@@
landscapes
culinary
ey@@
influenced
practi@@
radiation
tes@@
ym@@
govern@@
SC
Saudi
consisting
Blue
Sin@@
admi@@
compatibility
polis
struc@@
ч@@
Je@@
care@@
forwar@@
murder
ury
continuation
tot@@
analyses
bases
enhan@@
participated
reiterate
unstable
gastronom@@
optimum
xing
B5
Budgetary
Pin@@
dges
quantities
regre@@
sharp
advent@@
gas@@
tening
я
GN@@
accused
backing
officers
pop
zia
cture
fon@@
removing
arm
girl
57
40@@
Tit@@
counts
skilled
SP
Sub@@
Tunisia
administ@@
ш@@
Lim@@
bags
enthusiasm
rich@@
rolling
Mont@@
gon@@
My
clothes
dest
Tyrol
politan
styles
Tibet
linguistic
striking
gging
CF@@
Gold
fes@@
gym
sk
specialised
5th
lessly
pending
ring@@
PD@@
districts
ura
refined
tz
underline
vor
colonial
founder
investigate
permanently
oper@@
banned
fru@@
listened
pet@@
Catal@@
semble
Lau@@
ish@@
brother
lending
aux
resorts
subscri@@
deleted
quarters
rul@@
04@@
Standard
deri@@
eria
invested
ography
prev@@
Wall
eco@@
obtaining
oder
propor@@
Fle@@
countless
drop@@
embedded
secu@@
sweet
restoration
kill
sten@@
patri@@
rivers
Ms
alive
round@@
ati
atively
recogni@@
warranty
Alpine
Vel@@
competitors
convi@@
dive
rescue
sent@@
ull
Millennium
household
nen
16th
Bol@@
cav@@
haven
laboratory
Program
alize
roles
short@@
witness
Point
Star@@
demanded
demonstration
labels
moderate
sq@@
tight
tool@@
jum@@
synchron@@
ups
EMU
pact
vend@@
arrested
ern
magnetic
partially
tube
Danube
ambitions
defen@@
ep
motivated
presentations
cit@@
eating
maj@@
trademarks
formula
ION
modest
thirty
77
gal@@
jack@@
Holiday
XP
currencies
earned
employee
gon
halt
independently
ede
eta
rain
Question
clearer
dangers
differently
prob@@
HD
62
opponents
dogs
vicinity
arriving
invo@@
iti@@
modern@@
railways
show@@
Budget
Golden
Sie
cultiv@@
waves
Gor@@
explicit
isions
preventive
aller@@
dged
flash
Blan@@
Cra@@
distinguished
ix
notification
repe@@
Aqu@@
Dar@@
contributes
News
bench@@
circuit
authorisation
homepage
maxim@@
Far@@
SAP
What
discrimin@@
carrier
ingen
pin
turing
deny
eligible
©
conci@@
lan
coalition
investigations
minimal
scienti@@
Pon@@
avoi@@
bears
refugee
sional
strive
Ak@@
backs
installing
jun@@
tranqu@@
cially
dor
gi
stag@@
Hostel
accountability
isolation
conscious
sofa
anxi@@
partition
Anonymous
nicht
translate
scenario
Cle@@
fits
94
Es@@
commission
exploit
izing
surplus
them@@
Che@@
Eu@@
day@@
Kirk
Mau@@
condi@@
slau@@
struck
Jews
capability
distribute
encounter
younger
Sc@@
Val
liness
ling@@
orious
tain@@
Indi@@
chro@@
excellence
ray
reproduction
weapon
89
ops
ords
pru@@
recover
82
SQL
Stuttgart
appreciation
climbing
thr@@
Playa
assessments
imm@@
inger
rid
ues
17th
permits
priv@@
socio
spar@@
constraints
ema
lec@@
musi@@
rage
sten
73
WC
profiles
stakeholders
UNESCO
divide
ety
lifestyle
rank
seekers
sevent@@
Tim@@
abolition
controller
transmitted
capacities
shr@@
sightseeing
MP3
argued
gathered
weigh@@
63
PP@@
Support
Plus
damaging
inevitably
lens
rot@@
cinema
behold
gear
indigenous
Region
clou@@
configure
irre@@
poss@@
Py@@
Tru@@
anded
cop@@
dear
inspiration
sad
designers
expe@@
ren
stroll
EU@@
Tar@@
charter
stimulate
Mail
bands
coherence
eer
eland
gaming
ž@@
fundamentally
observations
amp
avi@@
disman@@
2015
Pla@@
bot
featured
washing
avoiding
bath@@
esta
vest@@
Rio
albeit
boundaries
empha@@
pride
provin@@
supervisory
CEO
globally
.The
aces
hide
Republi@@
distribut@@
69
capitalism
killing
mailing
scenes
й@@
Muslims
databases
elabor@@
mounted
CHF
awards
grave
Show
desc@@
moder@@
orian
ules
acquis
authentic@@
promotes
91
align@@
Arts
anders
reconciliation
Pur@@
ample
extends
tiny
Moldova
sett@@
High@@
delivering
HIV
ambience
credited
feelings
oll@@
terror
4th
IV@@
Ren@@
adequately
arri@@
complimentary
decentrali@@
laying
pper
stringent
unanimous
admission
beat
eg@@
interpreted
trademark
Sim@@
dans
inevitable
iring
touched
neutral
safely
15th
78
cooling
deni@@
genetically
ocean
Rem@@
ignor@@
separation
Christ
Joseph
abo@@
kilometers
я@@
alt@@
conviction
eption
tn@@
woo@@
consulted
musicians
yo
forums
dictatorship
sar@@
Caribbean
rows
Govern@@
instability
Our
commission@@
endless
finishing
may@@
delayed
tensions
Cer@@
LA
dissemin@@
inations
tages
án
aan
accompli@@
atories
after@@
Client
Sem@@
C5
Ocean
dreams
influ@@
vineyards
dete@@
infl@@
shoes
utility
wel
diagno@@
uss@@
Vista
clarification
clin@@

App@@
Casa
dimin@@
speaks
900
Mak@@
aching
deeper
liquid
SI
cus
glu@@
grass
neo
advances
bach
gression
recover@@
retirement
Alexander
Kra@@
resistant
supporters
tant
boarding
ishes
les@@
reaches
ruled
Tower
cc@@
colon@@
gt
impres@@
Jerusalem
ento
insu@@
talent
Ale@@
PA
Super@@
Tom@@
embar@@
ques@@
sibility
Cel@@
Fax
Pat@@
justification
ova
Holy
ho
mani@@
panels
Bour@@
Wel@@
selecting
spre@@
wire
61
plates
traditionally
calculation
comforts
hectares
ols
qualities
rarely
theast
Hans
Liber@@
Professor
attempted
marriage
sincerely
Andalu@@
blocked
collections
symbolic
techni@@
var
borro@@
conditional
designated
ideological
lawyers
reinforced
six@@
symp@@
FOR
Ir@@
Live
Sol
ples
1990s
oes
socially
cargo
mid@@
suspension
tournament
Wei@@
adap@@
advocate
dem@@
technically
74
bub@@
electronics
ems
generating
iner
flat@@
hil@@
ices
mach@@
ffs
fruits
palace
aya
dari
eness
hosting
woods
Estonia
Multi@@
somewhere
indispensable
seminar
entities
limitations
plugin
wedding
elite
D.
hunger
mile
racing
unch
vessel
CL@@
complic@@
consi@@
ographic
pt@@
render
sadly
shock
Mand@@
complement
realised
Anti@@
Hil@@
calcul@@
donors
master@@
Ö@@
Peace
lion
rice
subscription
Adriatic
pull
SS@@
ght@@
Jesus
annually
med@@
Bru@@
Plat@@
consist
episode
incomes
irrespective
ool
workforce
Chief
Rap@@
plac@@
stating
IM
Library
Nero
Wa@@
cau@@
existed
fertili@@
processor
simplified
view@@
EP
alls
lei@@
scra@@
teach
openly
Pack@@
beautifully
filters
intergovernmental
pression
ry@@
Richard
incorpor@@
Piazza
linking
menus
tained
TA
attempting
cements
ened
fing
judges
scep@@
worker
bration
refurbished
gent
infrastructures
psych@@
ption
reads
seaside
76
Christians
bin
packed
villas
Ein@@
dust
engagement
Line
graphical
Chap@@
Dan@@
Korean
Singapore
cans
mathemati@@
pine
trail
Fac@@
Vis@@
loud
audit
cep@@
defeat
elegance
farm@@
impetus
entrepreneurs
â@@
Heritage
distant
glob@@
outlined
restri@@
tan
titles
endan@@
there@@
Louis
Out
alogue
legendary
libraries
Gallery
dengan
perf@@
set@@
threatening
Warcraft
abuses
feder@@
gradual
hazardous
locally
systematically
ea
fabric
pas
proliferation
District
Ori@@
await
dep@@
incident
integrating
regul@@
Neu@@
ali
entity
overnight
descri@@
kir@@
tons
infec@@
tremendous
Supervisory
gy@@
formerly
notic@@
pt
chances
highway
horses
mineral
TO@@
invites
reviewed
tations
Ah@@
Guests
PSE
carries
interfaces
vacuum
ctive
printer
profitable
rad
acci@@
ades
este
New@@
sse@@
wra@@
gases
geb@@
offset
spell
kin
reveal
summ@@
universe
80@@
Suites
protests
restra@@
tab
alpine
aluminium
lying
recep@@
rupt
skill
Industrial
adverse
eco
excuse
giant
interference
luggage
simul@@
unk@@
delivers
impro@@
sensitivity
wak@@
Bridge
democracies
prevents
ан@@
Saddam
repression
supplement
3,@@
A.@@
Mark
adjustments
belt
insert
maintains
Nigeria
criminals
tonight
ß@@
contest
detection
exceptionally
Ari@@
Cab@@
Doha
austerity
din
dynam@@
oked
Army
asks
luck
Finance
implic@@
lers
wishing
pointing
subjected
securing
Blo@@
clinical
ids
ão
GPS
hip
BA
aggressive
shooting
solo
vels
81
Coast
ander
bicycle
breeding
disagree
resolving
bal
mixture
bloo@@
customized
gements
herself
mand@@
reasonably
vised
ко@@
Allah
How
attraction
defici@@
gather
imperative
sav@@
symbols
Gir@@
ranges
revolutionary
silent
upload
eil
fai@@
incorrect
insight
interventions
laimed
mp
practic@@
spra@@
Process
tag
NO@@
decrease
illa
pav@@
rigorous
Mah@@
corporations
Land@@
character@@
healing
enhancing
predi@@
ар@@
Ed@@
encomp@@
Sul@@
auto
fat
AK@@
critic@@
tro
bab@@
examining
Bad
Cl@@
Lag@@
Max
ater@@
Spring
arises
civilians
guitar
xy
Chechnya
Fair
Place
boy
determining
favor@@
Sun
communist
decoration
mistak@@
pairs
resumed
tail@@
zy@@
ancy
tracking
Mis@@
Ul@@
admire
eth
quali@@
sau@@
Dresden
attri@@
crats
embr@@
harmonised
hearts
hof
otel
strikes
voices
cris@@
cycli@@
hyper@@
inary
discretion
personality
refriger@@
visu@@
ғ@@
booth
nutri@@
towels
ester
fulness
matches
60@@
Ele@@
criterion
lie@@
stadt
tram
attach
autonomous
layers
origins
ín
Helsinki
abstained
ax
deck
einer
meter
plying
quiries
Cold
degra@@
IX
advised
exclude
Chile
Riviera
ails
indirectly
mass@@
BR@@
Basel
coins
circum@@
dei
restrictive
samples
singer
Romanian
Statute
high@@
ici@@
perception
theoretical
ware@@
Mes@@
Starfleet
deplo@@
gene@@
group@@
procedural
query
stit@@
Ay@@
Dur@@
divisions
formally
visas
CD@@
More
affir@@
alter
envisaged
ners
newest
stru@@
Bou@@
Chancellor
hosti@@
terly
yield
Š@@
carriers
compos@@
distinct
expl@@
literally
monopoly
Syn@@
distributors
floo@@
surgery
Rental
Rou@@
chamber
convincing
emotional
margin
num@@
protective
Hy@@
Ret@@
Wh@@
disciplinary
87
SU@@
UM@@
gra
mort@@
rhyth@@
Press
foster
sincere
terraces
appearing
elli
moderni@@
rical
scrutiny
stimulus
vil@@
ageing
expi@@
Nikon
Radio
bon
eck
critique
instant
scri@@
Armen@@
Samsung
compens@@
economists
globe
max
rey
rum@@
sand@@
Citizens
cles
compromises
pillars
settle
tless
cotton
opera
perceived
prints
nya
painted
til@@
Green@@
Partner
alising
headed
moon
reactions
tig@@
Av@@
innocent
Equ@@
maker
safeguarding
sums
validity
Edinburgh
acking
complaint
credits
ele@@
enjoyable
limiting
refra@@
unanimity
Training
disastrous
neys
£
refusal
ceremony
но@@
Bul@@
bai@@
cap
classi@@
devi@@
new@@
carte
licensed
jet
ès
DO@@
Vit@@
accommodations
ks@@
lower@@
overwhelming
preservation
History
analyse
consolidated
immense
veter@@
9th
bis
gla@@
statute
ANT@@
XML
abandon
shots
verify
Corporation
Rhine
ferry
Explorer
alling
arom@@
certificates
ected
hunting
nat@@
reader
xed
Pack
congratulating
corri@@
mile@@
ø@@
comfortably
correspon@@
mati@@
pushed
KDE
pricing
accompanying
cken
ller
tariff
workplace
Cho@@
chi
dar
dramatically
lier
1970
IGC
deciding
hairdryer
rounds
transpor@@
vel
Is
band@@
cils
LCD
aggre@@
shell
Bag@@
Out@@
loan
Catholic
ense
productions
Gui@@
Latvia
admitted
deployment
ects
pit@@
depic@@
hes@@
opp@@
rear
sich
thereof
worried
CA
View
gs@@
platz
alli@@
buyer
kel@@
nearest
prosec@@
penet@@
preference
wisdom
aiming
burning
ckers
unified
License
broadly
cas
dt
zo
Country
Inc
Nobel
Petitions
consultations
eable
exploited
lage
Fa@@
assessed
confi@@
vertical
Bil@@
aboard
ee@@
paint
refle@@
Oper@@
Village
costly
kn@@
rants
vi
Personal
Ukrainian
dging
invoice
thinks
1980s
Administration
Kir@@
avec
defe@@
fers
lays
orts
83
Hen@@
William
couples
studying
immer@@
missi@@
transported
Residence
consum@@
ен@@
EEC
QU@@
concludes
demonstrations
rative
epide@@
fit@@
pedestrian
Geor@@
altitude
grid
ounced
tise
tled
CDs
Mallorca
classification
deriv@@
eal
geographi@@
patch
readers
safer
var@@
heim
lou@@
proportionate
syner@@
Play@@
completing
plurali@@
profession
sympathy
endorsed
portion
responding
ungs@@
Nokia
Ober@@
Ven@@
macro
prompt
thin@@
unt
Sierra
energies
investig@@
mad
sad@@
stan@@
trials
UR
identifying
keyboard
galleries
lifting
limitation
memories
static
Eli@@
classified
households
legacy
paragraphs
standardis@@
wished
ř@@
landing
lis
reb@@
wanting
Dol@@
absurd
council
endeavour
lement
ux
Criminal
bei
broadcast
cigare@@
good@@
thes@@
і
AU@@
HU
Lis@@
complementary
OECD
celeb@@
documented
Fol@@
cease
fasc@@
folk
kat@@
§
350
Privacy
Siemens
adjacent
immunity
popularity
unilateral
Mountains
aran
deadlines
drew
honest@@
pend@@
praise
uter
Congo
Vic@@
Water
eling
exam@@
exquisite
fed
nt
disin@@
execute
fav@@
haus
pets
Annual
authori@@
furnishings
indications
iner@@
inviting
proves
stal@@
Bulgarian
ideology
ik
kam@@
obstacle
án@@
Hei@@
Leipzig
asting
cattle
commodity
confirms
journ@@
she@@
Galileo
detention
educ@@
punishment
coach
stom@@
lah
bus@@
conservative
missible
psychological
author@@
emphasize
oli@@
chal@@
inland
outer
Ama@@
Firefox
coding
pushing
rix
Black@@
meaningful
ota
serial
variables
DS
ION@@
delegations
modification
pap@@
smoke
sus@@
VI
ete
formul@@
modernisation
jk
medicinal
som@@
tible
1988
counting
ordering
reluct@@
resp@@
tings
GA
SW@@
donor
guilty
improves
racy
Communication
Dem@@
baths
ful@@
lifts
vibrant
0.00
cathedral
pada
configured
fastest
html
intimate
unter
ý
Blair
EX
audiovisual
painful
problematic
tex@@
Revolution
VIP
construct
illum@@
mption
smallest
DP
buttons
hierarch@@
Analy@@
consolidate
distinguish
geo@@
hist@@
modifications
periodi@@
surfaces
tent@@
thwest
vou@@
.net
FA@@
alter@@
anism
distri@@
illness
intim@@
night@@
pon@@
Order
deleg@@
downloads
endeav@@
pho@@
poin@@
84
Dre@@
brea@@
class@@
introduces
sends
Post@@
lay@@
protects
tendency
Valencia
reti@@
ruins
sequence
developer
ier@@
rum
spreading
substan@@
witnessed
barrier
counted
remedy
î@@
Content
cache
elson
intent
promp@@
tles
SL
aton
fossil
clas@@
indul@@
persu@@
photograph@@
Bot@@
Cur@@
Germans
inum
invasion
lit
RSS
definitions
diplomacy
ett@@
exacerb@@
law@@
mount
Michel
NOT
clauses
container
festivals
loo@@
passport
reaffir@@
rel
Bis@@
blocking
fragile
oration
prerequisite
Montenegro
cat
chip
ears
renewal
CC
assessing
condem@@
diet
pris@@
ь@@
Kit@@
correction
escal@@
let@@
panorama
reimbur@@
Colombia
Full
Quark
acier
advisory
aks
baggage
continuity
textiles
tied
aking
commands
dairy
disappear
snacks
ô@@
brilliant
mon
DR@@
altogether
macroeconomic
metro@@
Gay
asy
det
distinctive
earthquake
eve
exotic
tidak
Reserve
Technical
ada@@
fulfilling
mood
nightlife
Algeria
inn
tos
wasn
Islam@@
ST
Third
broadcasting
jazz
mild
Sor@@
fusion
gent@@
listing
spam
Mit@@
PE
accessed
altern@@
conducting
enforce
Hau@@
artic@@
disabilities
forestry
incidents
onian
pipeline
za@@
Rei@@
cream
dioxide
economical
ital
temporarily
topical
Disabled
Language
cular
gambling
lity
multinational
pig@@
preserving
sorts
sses
о
ARE
Warsaw
ais
draws
visibility
vre
werden
Wikitravel
ao
check@@
dish
gathering
iPod
plot
shorter
wholes@@
fro@@
postp@@
GP
dryer
organ
recru@@
ree
Clinton
Vor@@
amb@@
dele@@
individu@@
Theatre
Times
aero@@
critics
settlements
worlds
Cher@@
Palma
cabin
defines
electro@@
lance
real@@
routine
ually
apped
democratically
edly
mic@@
cooperative
evaluated
home@@
noble
safeguards
Azer@@
esian
feasible
gg@@
suits
tie
was@@
500@@
Mountain
favor
imbalances
spon@@
toxic
ature
contem@@
jects
writers
Med@@
attacked
bikes
inspec@@
Cir@@
Newspapers
aston@@
comprehensible
encourages
enemies
inning
nav@@
oasis
м
Bir@@
OLAF
attitudes
import@@
od
ouse
fen
grey
volumes
02@@
Zealand
fut@@
optimized
scripts
corpor@@
debts
eliminating
ple
verse
Certi@@
activists
organs
purchases
Fon@@
Thai
ben
boom
lig@@
rhetoric
vigil@@
Fun@@
bugs
confidential
detect
rist@@
sin
standardi@@
thick
tunnel
zza
organising
retained
timing
180
7th
captured
chen@@
launching
ration@@
HP
Hom@@
marble
pressures
seed
PH@@
Porto
autom@@
coastline
dena
floods
etc.
remo@@
tling
79
ESS
Key@@
confidentiality
dered
diesel
responded
13th
Arabia
aboli@@
fair@@
medic@@
osity
transform
umb@@
Engineering
Fal@@
Film
Marco
pa
tailor
в
Aus@@
Search
UL@@
contam@@
metals
sons
valued
occasionally
quoted
ude
Corporate
Reg@@
ope
Mount
advan@@
anch@@
compiled
tasty
6th
Croatian
Haiti
Kaz@@
LT
alternatively
cate
cht@@
educated
experiments
oting
CO
amoun@@
architect
frames
ratify
stants
Game
Head
Nazi
accommod@@
brutal
harder
ind@@
weakness
Ke@@
SY@@
cool@@
genocide
nomin@@
races
sleeping
anium
arded
fitting
Annex
Bat@@
batteries
bra
drag
relie@@
veness
ć
bookings
neighb@@
virtu@@
Athens
pain@@
understandable
Tokyo
grain
protectionism
verb@@
110
Cy@@
ador
bey
bottle
concep@@
liquidity
recognises
shing
encing
saf@@
Force
Jac@@
antique
qualification
ат@@
ancies
automobile
courtyard
inspections
nutrition
ruption
Francisco
Lat@@
boys
diagnosis
tism
transnational
Arena
anticipated
evenings
figh@@
mut@@
uty
warrant
Bau@@
M.
friend@@
glo@@
merchan@@
quantitative
sided
employ
locked
measurements
municipality
stan
stre@@
Image
Stra@@
Tem@@
earnings
organisms
varying
URL
privileges
Dolomites
Fed
collecting
enza
initiate
retro@@
Canary
ME
chart
fec@@
nings
posing
tagon@@
Canadian
Wellness
billions
duction
subjec@@
tank
By@@
Lei@@
birthday
bond
dead@@
stresses
Nature
SK
Slovak
Str@@
closest
ensu@@
formity
ticul@@
turn@@
1986
BM@@
stituted
Jon@@
Natural
adi
compet@@
cut@@
fabulous
lifelong
policymakers
protot@@
ranks
sheep
accessibility
bet@@
categ@@
inappropriate
statutory
hoping
municipal
ston
Sig@@
boutique
materi@@
modular
mountain@@
stainless
10th
Cr@@
imagination
loads
Mol@@
dou@@
dropped
manu@@
rest@@
seas
stretch
thou
uniqu@@
voltage
dian
fest
nbsp
ress
wheels
Fil@@
Glob@@
Loc@@
algorith@@
bili@@
directors
encountered
persecution
aren
hosted
sl@@
studios
tap
wen@@
Not@@
Zu@@
portable
Hague
accompany
mac@@
pursuit
shame
Lar@@
replacing
successes
tender
Herzegovina
Kurdish
ag
embra@@
revol@@
screen@@
toi@@
14th
ander@@
foodstuffs
1945
Climate
Solana
nal
pretext
viruses
dul@@
outermost
persuade
relevance
retention
shar@@
vegetable
Tuscany
designing
experiment
inser@@
peripheral
sail@@
Wol@@
coordinating
institute
mounting
streaming
Flo@@
Gl@@
ernity
magazines
prison@@
template
Hal@@
bold
dom
erup@@
random
rewar@@
rival
Man
conne@@
crash
etz@@
overseas
refreshing
tranquil
Ashton
Child
Hitler
Sac@@
barely
detected
gentle
minibar
propaganda
rs
sehr
speculation
anne@@
flower
inte@@
po
road@@
ycle
Phot@@
Tel
dalam
deliveries
escap@@
labor@@
iti
ел@@
ción
concessions
organ@@
tica
toys
weaknesses
Capital
Class
broadband
confronted
deliberately
desert
torial
withdrawn
Forest
Tan@@
attending
backup
observ@@
ologically
precautionary
wearing
130
Kno@@
forever
organizing
positioned
recur@@
sz@@
aul@@
cure
exten@@
inci@@
shes
ssi@@
utter
vian
Airlines
Dru@@
Land
conscience
convey
enters
liberty
mothers
nia
parent
rics
slight
trau@@
tv
Log@@
emergence
entary
poorer
positively
sooner
atom@@
nine@@
objections
ranking
spot@@
thir@@
He
inequalities
ENT@@
GT@@
With
disc
fen@@
iso@@
mitig@@
quet
thful
ALE
Ce@@
Sax@@
Tour@@
coating
congress
exce@@
facilitating
Railway
Scandin@@
affair
ain@@
manually
momentum
socialist
treating
xel
Monte
Round
ont
resist
theater
zzo
Professional
Sport
cover@@
evo
logy
suppor@@
EG@@
List
chair@@
disappeared
displaced
has@@
lling
ppy
reserv@@
IBM
Terrace
rocks
stle
turnover
Cin@@
FC
ckness
competitions
ctu@@
injury
ourcing
thrown
Docum@@
OSCE
Queen
avian
bio
cio
crop
deta@@
instances
interven@@
swi@@
tanks
wash@@
1987
EM
ailed
ano@@
deployed
iss@@
lit@@
lush
possession
shoulder
ament
fridge
shut
ava
establishments
europ@@
hang
Kat@@
aer@@
alleged
german
recreation
schi@@
tari@@
Brit@@
blin@@
excluding
networking
spark@@
verification
är@@
3.5
Ford
crimin@@
hospitals
husband
infrin@@
reminded
shortage
sind
thirds
transl@@
umbrel@@
banana
celebration
injection
1985
Age
EIB
contradiction
discipl@@
impressed
recti@@
tiers
wholly
Cross
irregularities
magn@@
odi@@
scop@@
seri@@
Big
concei@@
descriptions
placement
segments
Post
historically
laundry
minded
vising
lim@@
queries
Buddh@@
Division
Egyptian
Test
accomplished
bag@@
controll@@
rial
auction
disadvantaged
tariat
Objective
anian
bund@@
preparatory
rd
solarium
tiveness
trendy
BS
Dr
EV@@
Gri@@
arena
attracted
intern@@
somehow
1,000
Solidarity
V.
elds
grams
holi@@
varieties
elimination
outline
acou@@
burn
casting
frau@@
linen
vie@@
Bed
Change
aked
dealer
elli@@
essing
journalist
rors
Fir@@
anno@@
eliminated
fic
reward
seller
CR@@
Ker@@
accountable
ref@@
reveals
steep
strongest
successor
aga
orange
pen
ña
Liberals
Schulz
chef
commissioned
correspond
deteri@@
exemption
of@@
utor
Patten
aults
gaps
handi@@
inet
mail@@
mill
updating
Account
Hum@@
Russians
colo@@
dossier
guil@@
influences
milit@@
Ali@@
EE@@
Kam@@
predictable
shipment
Cultural
couldn
perfec@@
sixth
smu@@
solu@@
threaten
Ve@@
host@@
recipient
springs
wet
SDL
ario
aver@@
chil@@
cultivation
gin@@
passion@@
terrain
ace@@
distances
extre@@
orate
pragmatic
quiry
trace
tum@@
300@@
Brun@@
Istanbul
alb@@
anna
density
discounts
protein
dam
fortress
anymore
biotechnology
factories
guiding
nes
ounce
stairs
variations
wan
Ry@@
bridges
dening
inhab@@
multitude
Cypri@@
chains
enfor@@
gins
incredibly
noisy
stream@@
eggs
ei
fier
hony
matching
screening
speeds
tif
use@@
ign@@
servatives
Children
accus@@
acid
cup
event@@
halls
haz@@
inch
prof@@
symptoms
по@@
GMOs
Travel
enses
frankly
intensity
slide
veget@@
Tech
undering
Hand@@
dient
experimental
inau@@
negligence
part@@
Contra@@
Dat@@
honor
lio
livestock
olo
tariffs
competing
heav@@
nel
posting
Renaissance
flora
jec@@
lend
nationalism
å
Hussein
Marketing
tissue
ě@@
Metro
Shanghai
alogues
architects
breast
cane
configu@@
geable
There
allevi@@
grace
ingu@@
kem@@
notify
personalized
pren@@
ume
zoom
9001
Free@@
Solutions
beg@@
capitalist
disadvantage
donation
generic
Bus@@
CS@@
Lounge
repercussions
tackled
ATION
aspirations
endo@@
liberalization
midst
ror
Sab@@
Ticket
Trump
ax@@
collap@@
conceived
decor
drawings
generates
sensors
strate@@
vulnerability
wir
Lor@@
Stat@@
diameter
insp@@
regulating
vegetation
verti@@
Afghan
aesthetic
emotions
pem@@
Nord
commend
consultants
dow
chaos
gates
incurred
installer
respec@@
thor@@
wins
complied
corresponds
gage
gently
lateral
mitting
Bavaria
Top
archives
denom@@
diam@@
elles
ington
inia
seasonal
exist@@
formulated
hygiene
nets
path@@
signatures
FT@@
Friendly
appl@@
arious
nach
plu@@
storm
Tampere
buffer
compensate
parliament@@
priced
scrat@@
devastating
issuing
mou@@
sister
teeth
wood@@
zio
Bonn
Exhibition
alum@@
attentive
dium
fast@@
oth@@
ALDE
Anti
Intel
decides
frozen
long@@
stran@@
Cop@@
basin
righ@@
vation
Back@@
Century
Picard
Scottish
Technologies
advocates
blow
definitive
ellers
represent@@
anybody
fel@@
gut
motivation
priori@@
Prince
assumption
bulk
dn@@
financially
fourthly
kt@@
modi@@
recreational
IL
enshrined
rehabilitation
temple
Karl
dened
exercises
jump
torate
Bundes@@
GM
Guinea
monastery
nowhere
ried
Gothic
RI
Tarifa
prevail
promotional
Sri
contro@@
enchanting
forbidden
satis@@
Jan
Laundry
accoun@@
block@@
sper@@
sustain
Dry
IR
Sett@@
ae@@
ambiguous
atta@@
concer@@
lifetime
mali@@
nau@@
refund
varies
ym
11@@
Garda
Mir@@
TE
Taliban
buil@@
deci@@
edo
enburg
feld
ouring
quick@@
stro
CP
bad@@
chips
fabrics
secular
uk
vement
Serbian
Voyager
market@@
moul@@
oul@@
picked
profession@@
rises
surf
zur
Düsseldorf
Now
Sav@@
accurately
animation
assu@@
charging
chronic
gui@@
incidentally
pump
religi@@
spective
W.
appropriately
axis
dying
thers
triple
vocal
Boh@@
LED
Malaysia
Reform
Tal@@
Verheugen
brown
hec@@
red@@
rough
severely
shores
simulation
urity
Hab@@
geared
notable
occurring
profes@@
tuna
Assi@@
Sti@@
ae
coup
flood
pes
substitute
Cohesion
Diam@@
Prote@@
destroying
motto
resident
wand@@
yl
360
Spirit
assor@@
gourmet
ott
proofed
realities
screens
versatile
LIN@@
aband@@
aders
delightful
foreigners
hy
mails
tired
tub
ade@@
cocktail
dimensional
manoeu@@
pair
ria
stricter
ре@@
Cit@@
Ethiop@@
Venezuela
alarming
fortun@@
genic
pity
sever@@
Holland
exclu@@
acres
alla
cription
feeding
gun@@
scan
ann
licences
cem@@
gering
reflecting
1979
alleg@@
cir@@
eva
fireplace
lot@@
molec@@
popu@@
Auto@@
Instruments
Les
Mary
Wikicars
aven@@
catalog
deter@@
enri@@
eper
linear
sciences
slave
ны@@
Cav@@
broke
capita
embargo
Ref
acute
elem@@
mature
Rock
clari@@
commem@@
contamination
cross@@
uncertain
Photocopying
Rel@@
Roman@@
absta@@
envis@@
ethics
failures
forecasts
ometer
photographer
promenade
promptly
unter@@
Fischler
Smith
bru@@
copper
fifty
ome@@
atility
browse
Ky@@
Net
Products
auf@@
fulfill
nec@@
passive
photo@@
Börse
Wo@@
cand@@
geomet@@
incomplete
longest
persistent
shapes
tends
therapeutic
FR@@
Vene@@
cave
constituency
fruit@@
mming
passage
tongue
aud
deposits
establishes
sudden
Ty@@
administrator
ato@@
chet
college
connects
containers
coura@@
encryption
fisher@@
ghted
guest@@
possess
seating
MEP
defended
iced
mankind
privilege
Gam@@
demonstrating
human@@
lag@@
privati@@
specification
Mar
assuming
beneficiaries
incoming
masters
conception
injured
ino@@
lings
restoring
yacht
Europa
Iceland
SD
Use
como
dently
tune
els@@
instruction
itiner@@
sex@@
ventions
CAD
Len@@
Sarkozy
abling
aga@@
armament
geni@@
negoti@@
orient@@
strip
ı@@
DR
Fur@@
alia
peaks
predomin@@
realization
ön@@
Gau@@
Madeira
Monte@@
Son@@
attach@@
contribut@@
corrected
d.@@
earliest
exceeded
ial
internally
ob
oli
phenomena
simpler
tian
.com.
Sak@@
abolished
colourful
documentary
duly
echo
judged
mechan@@
remuner@@
140
1970s
API
Sant
finger
tment
worthwhile
BI@@
Ei@@
Fern@@
enforced
lac@@
lacks
qui
restriction
timber
utable
criticisms
horri@@
punished
trigger
Micro@@
Ron@@
asty
foun@@
junior
likes
remark
rä@@
spati@@
utes
balancing
forti@@
mixing
pesticides
purchaser
stam@@
applicants
astic
bled
clarified
pop@@
Ass@@
Avi@@
awaiting
continu@@
heres
precedent
rigid
semi@@
subsidiaries
teria
here@@
inherent
Lul@@
Seville
depl@@
magical
optimization
vest
4,@@
Arctic
Côte
biofuels
burdens
detriment
rentals
testim@@
Inv@@
ago@@
ily
nationality
oming
scandal
seem@@
т
2014
Hot@@
Pot@@
defect
postponed
tiles
Ros@@
Sah@@
Tat@@
door@@
pin@@
swim
zi
Jordan
Timor
adju@@
alistic
arities
backdrop
brigh@@
destabili@@
devote
exported
gau@@
renovation
submission
GR@@
Pool
agu@@
dealers
enta
expects
licensing
ssen
vir@@
appar@@
english
populated
profit@@
Access
CM@@
Innovation
Relations
bud@@
indicating
infin@@
scenic
LAN
Tibetan
eering
legitim@@
verified
who@@
Cleaning
Santer
desig@@
misleading
olds
submitting
unite
zen@@
blend
bow@@
business@@
crus@@
lawyer
licenses
oven
pered
prizes
soli@@
antibio@@
critici@@
hic
ku
Championship
DI
beginners
fairs
intuitive
legisl@@
radioactive
recruitment
ulative
valleys
Def@@
From
confront
expecting
mutually
playground
univers@@
Articles
nan@@
éri@@
actu@@
confused
conversation
laptop
rolled
sidents
suspect
Initiative
Mem@@
composer
redund@@
vague
Balkan
Goals
Summer
az
dez
py@@
recordings
trage@@
Gali@@
Ibiza
assumes
cami@@
ja@@
phases
sto
Buyer
EST
End
insofar
itement
mir
sacrifice
Decision
bets
particip@@
wir@@
Kre@@
SH@@
arium
cast@@
cornerst@@
cozy
donations
extract
multilingual
translators
J.
consciousness
delight
horny
system@@
Az@@
Of
alcoholi@@
childhood
forecast
humane
lov@@
participant
steady
Monti
adapt@@
adapting
binary
bound@@
erial
illegally
kov@@
matched
shaping
additives
ampli@@
criticised
democratisation
tilation
understands
you@@
Arch@@
Commerce
harsh
pension@@
robots
Light
Naples
flour@@
formali@@
fund@@
seeds
tol@@
400@@
Brazilian
dencies
entails
fort
invali@@
traces
Caucasus
discriminatory
gladly
live@@
tier
arre@@
catastrop@@
chers
consu@@
cue
demo
deterioration
fashionable
motiv@@
stimulating
sty
viewer
Daniel
File
Got@@
Lab@@
Olympus
conven@@
definite
lihood
scho@@
OP@@
contracting
enthusiasts
lung
rought
12th
Bill
Kel@@
approaching
calculations
comprising
ext@@
humili@@
irresponsible
somebody
termination
B.@@
SL@@
dirty
ide
infected
presum@@
prospec@@
time@@
FREE
Source
altered
caution
enthusiastic
exhibitors
filed
gated
memorable
recommends
therap@@
truck
HS
ender
undermining
violated
Darfur
appalling
approxim@@
arch
capit@@
gratitude
infection
laim@@
sexu@@
unded
10,000
Prof.
judiciary
news@@
oura@@
preced@@
HD@@
Sand@@
esse
friendship
interoper@@
optimistic
peninsula
rus
tec
Trop@@
accessing
depar@@
dish@@
dozens
lon
lucky
royal
tail
urged
yours
AV
Alb@@
bent
tele@@
thread
toll
transp@@
Hill
breath
climb
worn
zum
Hin@@
Klingon
Regul@@
ardian
chron@@
gifts
inserted
juice
supposedly
Dam@@
achiev@@
ames
café
deliber@@
liter@@
opposing
ped@@
sem@@
sor
coin
iss
ро@@
coloured
coupled
hun@@
tastes
thou@@
unexpected
1.2
afore@@
aps
conduc@@
locals
lun@@
manages
proprietary
snack
synthetic
valuation
wick@@
Directors
assisted
finger@@
fluctu@@
merit
professionalism
sements
travelers
Stri@@
Up@@
anne
mins
ologist
optimize
travel@@
yards
Kol@@
Santiago
claiming
econom@@
eks
eleven
expresses
idyllic
modernis@@
sens@@
Universal
disappointment
eals
intermediate
volcan@@
civilisation
ees
rendered
traveling
concluding
fet@@
investor
transposition
Antonio
But
Do
Gate
archaeological
influential
rous
sick
slot
suicide
Brok
Jacques
MD@@
OM
Panasonic
distortion
packing
pumps
ute
.....
Bio@@
Bus
Euros
Level
ende
harmonise
lle
sibly
ua
weaker
1984
Cambridge
Israelis
accu@@
cel
estic
icons
positioning
rei@@
strations
tee
Fore@@
Medical
biking
drama
hit@@
jer@@
rob@@
trillion
yea
BL@@
Cuban
GUE
HI
adhere
disability
famili@@
monument
reformed
unclear
upgraded
Dep@@
abortion
chapters
columns
kingdom
locating
seam@@
sky@@
ure@@
zer@@
GM@@
ateway
bor
dispat@@
emen
encouragement
inability
norms
princip@@
Bl@@
Word
confined
exhaus@@
hydraulic
lip
sage
tial
0,@@
Spi@@
bia
fathers
ineffective
oils
straightforward
wholeheartedly
τ@@
Provence
atics
tastefully
ь
Banquet
Bell@@
bene@@
bow
ultra@@
ür@@
Esp@@
Lev@@
Supreme
Tam@@
bree@@
excav@@
kli@@
seal
wol@@
Jer@@
Mach@@
Milosevic
empire
ң
ART@@
assassin@@
atmosp@@
cosmo@@
creatures
delic@@
fauna
nov@@
powder
yar@@
Sir
bomb
dot@@
sat
showers
ul
Gift
console
dare
engineer
fa
fts@@
ourse
pupils
scenarios
surveys
én@@
на@@
Fif@@
Orchestra
Read
Resolution
chant
ecommerce
footing
letting
nominated
trucks
winds
HR
exagger@@
informations
rooted
zon
ados
cated
commodities
ssa
switching
tahun
wns
Prop@@
amaz@@
authoritarian
berry
celebrations
facto
hen
neg@@
regulators
wie
у
.000
1967
Naz@@
Saf@@
When
ceful
cellar
jury
monopolies
sentences
strasse
5,@@
Airconditioning
Cast@@
IK@@
Tol@@
disappointing
discovering
exert
С@@
attered
color@@
exer@@
gem@@
lawful
supplying
Ag@@
Vul@@
atus
disparities
jeopardi@@
manipulation
tali@@
Hou@@
Rein@@
astronom@@
dev
hoods
uphold
Dun@@
alert
bank@@
circles
determines
literary
pid
stered
subsi@@
tones
3.0
May@@
amente
commit@@
cosmetic
onwards
provisi@@
Franc@@
Il@@
Kan@@
Version
cake
ccer
prises
prolon@@
rier
TNG
codi@@
enda
flags
intoler@@
math
sectoral
zione
IF
ans@@
emphasises
interpret
rea
Arti@@
YOU
appealing
condemnation
found@@
p.@@
privatis@@
servants
shoe
smoothly
tag@@
doctr@@
invented
kne@@
mili@@
oods
predecessor
reproductive
α@@
Fas@@
Mart@@
See
ame@@
cow
scores
seasons
swift
typ@@
Adri@@
adop@@
appoint
appropri@@
benef@@
conductor
federation
minors
singing
unequi@@
1978
Chicago
Econom@@
Jacuzzi
Ken@@
Liberties
Phili@@
Ski
awaits
biom@@
deduc@@
destructive
essors
ith
leverage
pository
ticism
ün@@
amps
dynamics
emails
esti@@
interrupted
tournaments
&apos;E@@
Neigh@@
malaria
weaken
Wales
Wat@@
bunal
depression
deregulation
forty
hereby
induc@@
lebih
methodology
peace@@
shoot
young@@
TV@@
chn@@
deprived
eur@@
los@@
operative
sail
suspend
castles
draftsman
esa
ghty
ored
retreat
Cape
indicator
kitchenette
ologists
plastics
refuge
ane@@
brothers
fines
lengthy
ophi@@
reiter@@
à@@
Apache
Australian
Vir@@
agi@@
ggling
neighbor@@
qualitative
xenophobia
Pul@@
dependency
differing
ium
remembered
requesting
resume
Cala
S.A.
accelerate
buff@@
fiction
ig
massages
ook
stries
transferring
ALL
Harbour
Mexican
VO@@
berger
chem@@
murdered
salaries
towers
wron@@
Angeles
Bla@@
ITY
SSL
basi@@
chs
exemplary
Alber@@
Prix
anonymous
gin
parish
Tuscan
adhesi@@
andal@@
beth
brochure
comitology
copy@@
loyalty
pipe
stipul@@
undermined
8th
Don
HT@@
Patri@@
champion
favoured
manship
metre
virtue
writes
1960
José
Work
adver@@
inventory
multiannual
pocket
rol
amo
cafes
eke@@
func@@
ische
offensive
GU@@
foreseen
happiness
investigated
just@@
loose
refusing
usable
ussy
volunteers
Barack
Feli@@
Kin@@
Palacio
consultancy
hops
insur@@
legend
poorly
tful
Victoria
attributed
explanatory
patented
sings
stati@@
subsidy
tivities
GO
TC
certain@@
edges
entru@@
hub
hybrid
isol@@
odds
peac@@
proph@@
sp
DNA
Lanzarote
cocktails
corrupt
grows
mentioning
ratings
L.
Yugosla@@
age@@
ceilings
crafts
crowd
threatens
DV@@
GBP
attributes
bass
frequ@@
obligatory
warned
wealthy
buyers
dine
intermedi@@
lows
neck
Cardassi@@
DS9
Gold@@
beverages
cha@@
cooperating
copying
gene
hitherto
interfere
learnt
stopping
AKVIS
Anna
Kle@@
Philipp@@
administrations
contradictory
desires
handy
merits
neutrali@@
prostitution
share@@
Alpha
Update
continents
membran@@
mortality
oun@@
rejecting
1960s
GE
Supp@@
abstract
anding
brush
ika
offences
petrol
pilgri@@
protocols
qualify
shire
sic
thei@@
transi@@
Jackson
absent
counters
dancing
ough
palm
sical
visi@@
Cubase
Oslo
acies
graduate
plant@@
resu@@
1975
Rav@@
expressions
highlighting
outlook
traders
Ga@@
PRO
Slovenian
bition
ener@@
enjoyment
harmonious
pit
prosperous
readily
sos
ол@@
Bes@@
Contact
RAM
barbe@@
expor@@
insecurity
preview
roman@@
strengths
void
11th
Secre@@
Up
confer@@
curious
employer
figu@@
fish@@
happi@@
refin@@
ridicul@@
warmth
Juan
appoin@@
bron@@
frontier
rig@@
templates
BE
Basque
Next
porno@@
Bak@@
Sports
gun
honey
infra@@
politician
slope
stum@@
subway
450
Tom
apar@@
atri@@
combinations
moratorium
pi
Computer
Institu@@
PER@@
RS
Sici@@
domains
pions
pts
ternal
tus
ATA
Avenue
Father
Good
ambass@@
electorate
mag@@
pp
prevailing
reason@@
recital
wild@@
Kim
Peru
Syrian
abolish
awa@@
fairness
neo@@
phi@@
publicity
simplifying
ér@@
Frank
benefited
collectively
fest@@
lug@@
pubs
searches
still@@
successive
Sales
Sky
bankrupt@@
chas@@
coat
county
logos
opponent
ose
owe
propri@@
realm
recognising
advoc@@
breakthrough
compression
ira
muy
san
shers
Andreas
Kenya
allow@@
azi@@
cann@@
ceramic
fleets
gues
ject
lifted
neighborhood
relatives
tt
weekends
FAQ
dog@@
excur@@
incorporating
nest@@
ogra@@
wich
associate
atan
brow@@
eman@@
etch
overla@@
spices
Baden
Bavarian
Buenos
CAR@@
Pass@@
SMS
Tools
balconies
gments
grapes
lectures
omed
ting@@
vors
Democrat
Grou@@
Kremlin
cam
carriage
chap@@
embark@@
exceeds
kas@@
rain@@
risen
teen@@
Baroness
Blu@@
betting
calculate
millenni@@
realisation
shipped
swiftly
Henry
Itali@@
lady
mana
sie
stipulated
terri@@
Mass@@
banning
cco
dell
encrypted
gli
incompatible
mercury
remit
s.com
sym@@
underway
vot@@
Download
copied
insisted
sharply
Mot@@
Pr@@
Super
mari@@
Rus@@
admittedly
ancest@@
cataly@@
eventh
low@@
patience
pixels
prejudice
professor
ttes
vil
Abu
CFSP
His
normali@@
stimul@@
strugg@@
twentieth
unk
.ch
5,000
Chan@@
Eff@@
bour
explaining
obs@@
plat@@
sacred
salary
simplicity
thetic
Conci@@
Leonardo
Pf@@
Pom@@
arisen
challeng@@
font
performs
Emperor
Oc@@
Pil@@
WiFi
foreseeable
hatred
hop@@
institutes
interviews
multination@@
smell
venues
tasting
G20
Merkel
Motor@@
counterfeit@@
imply
monit@@
outcomes
pole
reforming
unsatis@@
1982
Princ@@
Treas@@
connec@@
guys
hike
jung@@
mediation
volunte@@
weakened
yle
ś@@
IO
Ly@@
constra@@
sy
volcanic
149
Aires
DIN
FS
Water@@
bananas
beliefs
ear
emig@@
etry
extensions
philosophi@@
prem@@
Albanian
cookie
curi@@
durable
patio
sim@@
veto
Lido
cloning
heal@@
holy
lamps
roll@@
welding
Ironing
Pop@@
Sau@@
abu@@
appli@@
compani@@
goo@@
liqui@@
marvellous
redundant
ret@@
shir@@
sunshine
trium@@
yn
Future
Km
Learning
Pierre
Sciences
Var@@
ambigu@@
completeness
cruise
ilers
kat
mare
sidencies
Mercedes
Tyro@@
Upper
agreeing
exercised
housed
manufac@@
premature
steadily
yach@@
194@@
beta
dedication
envel@@
geopolitical
govern
manipul@@
secution
24th
Granada
Whit@@
catastrophe
consuming
inju@@
isk
All@@
entirety
mond
sponsored
suspicion
tories
0.000
Conne@@
beginn@@
debut
embrace
hair@@
kindly
ould
quiet@@
wellbeing
1968
Premier
cone
esthouse
excessively
immune
innov@@
io
pled
triggered
5.00
Cambodia
NGL
RES@@
alqu@@
desper@@
emis@@
exhaust
gations
leng@@
peculi@@
35@@
Pad@@
Temple
distingu@@
iger
predict
warn
CIA
Currency
T.
impul@@
senses
traceability
wash
æ@@
COM@@
beam
chy
corners
dial@@
embo@@
imprisoned
quo
recei@@
struggling
suspected
til
05@@
corrections
disorders
emph@@
isons
neigh@@
specialties
turally
unchanged
Clar@@
Province
Shar@@
celebrating
foo@@
preci@@
vern@@
1976
After
Chair
Cour@@
Four@@
athletes
deliberate
efs
ju
ovo
php
unwind
3000
B.
Ric@@
SA@@
Verts
atoes
cluster
ende@@
floating
harass@@
jan@@
legs
underp@@
Majorca
Part
Senate
advocated
aph@@
enligh@@
exerc@@
laun@@
mask
sensi@@
vine
casts
dus
ept
exporting
harmonization
nos
offer@@
rali@@
recipes
reck@@
Christ@@
Pope
Ster@@
Van@@
acre
brick
bun@@
dap@@
lap@@
lesser
loop
receiver
tox@@
ula
Customs
Easter
desperate
evaluating
jeop@@
oa
oxy@@
pipes
provoc@@
scal@@
terminals
Ji@@
ministeri@@
progres@@
rays
vec@@
Benjamin
Manhattan
Sz@@
Working
Works
associ@@
ateg@@
extraction
heaven
invention
mainstream
tural
ет@@
Eurostat
erte
less@@
understand@@
unilater@@
usses
At
Environmental
Night
aciones
adjustable
ateur
cheap@@
elect
hits
para@@
sacri@@
unspo@@
ça
6,@@
Excel
attendance
compressed
engaging
galax@@
stock@@
touches
ï@@
Advanced
Love
Marbella
Num@@
consequ@@
interiors
impor@@
suggest@@
theatres
Apartment
Deb@@
ICE
Mid@@
Small
Venetian
expan@@
frustr@@
helicopter
r.@@
ront
straße
Police
adidas
analyze
assembled
einen
explosion
jar@@
translat@@
ush@@
PS@@
Siena
administr@@
onds
photogra@@
то@@
Hist@@
Kinnock
Tool
lag
mysteri@@
Days
eval
fixes
grin@@
revel@@
Die
Gran@@
Rad@@
Stan@@
amin
bedding
kom@@
rebuild
surprisingly
tori@@
upgrading
Kas@@
Que@@
anger
esh
flexi@@
planes
Doctor
Gol@@
Oxford
Phil@@
Sound@@
accomodation
eag@@
etta
liation
situ@@
supran@@
ANY
Journal
Yo@@
cers
gle@@
hr
pitch
Ages
Premium
ats@@
gay
Algarve
An
Awards
Hav@@
aric
builds
obli@@
simpli@@
targe@@
1950
Hollywood
Stock
alyst@@
antes
fr@@
veri@@
Cairo
Mugabe
TM
Test@@
answer@@
baro@@
horizon
indu@@
000@@
INTER@@
LateRooms.com
ilt
smile
strength@@
Ü@@
Berlusconi
Collection
browsing
cz@@
0.5
consecu@@
cosme@@
displaying
prim@@
souven@@
station@@
verage
PCs
levard
stuck
tico
Classic
adal@@
aca
aia
cens@@
eh
evalu@@
lingu@@
meng@@
ode
publisher
architec@@
immig@@
nik
onom@@
thumb
unities
xx
ILO
Machine
dal@@
decisi@@
detri@@
simultane@@
FOR@@
Reader
Sher@@
omas
Archit@@
CC@@
atro@@
cran@@
egg
nut
retri@@
06@@
athon
dose
marina
sist@@
tili@@
FL@@
Sard@@
Sound
äl@@
riders
thic
uph@@
über
ο@@
Adam
Credit
dis
entation
hanging
â
ë@@
Broad@@
Norwe@@
kal@@
lla
otic
process@@
196
Channel
DJ
Lux@@
hoc
más
oxi@@
,00
COD
Jen@@
Sat@@
kking
logan
Boo@@
aker
hotel@@
unders
Delta
Om@@
cine
coa
design@@
nis
oling
Other
UT
elt
informative
wi
Sky@@
charts
ebook
exterior
midnight
open@@
1973
LD@@
TB
comprehen@@
help@@
navi@@
paraly@@
Det@@
fif@@
foc@@
sche
70@@
org
plasma
symboli@@
zzle
Consulting
Eurex
Vin@@
energe@@
femin@@
gestion
р
Building
Canal
Frontex
allo
deal@@
internation@@
teri@@
Christi@@
VER@@
miner@@
tration
Go
USE
confir@@
dop@@
mente
recipe
roph@@
Dim@@
Hz
Tor
Ze@@
cha
cleaned
cook
itely
tar
ulf
DG
Drive
Tab@@
aka
cara
lends
DL@@
Goth@@
bury
iners
mess@@
nicely
Audio
Bed@@
Cou@@
Franz
Please
electron@@
forge
odd
Ben
G8
UV
eira
plex
resol@@
taire
Chem@@
Wür@@
boutiques
commerci@@
gru@@
municip@@
rian
EURO@@
Klaus
Pau@@
REACH
Sit@@
Yu@@
api@@
auer
broch@@
hero@@
obsol@@
onder@@
vy
zip
Bali
attack@@
eren
vig@@
68@@
allet
ovi@@
streams
wouldn
Moh@@
servative
strings
1.1
2.2
scanner
1981
Past@@
enth@@
guy
pedi@@
vide@@
Bahn
CH
Sahara
prac@@
Ps
SM
crates
emin@@
pir@@
warran@@
I.
Mod@@
OL
Store
Wolfgang
amen@@
metal@@
Quad@@
Verona
fabri@@
peer
seper@@
sponsor@@
tu
Domini@@
Lum@@
cooked
fü@@
stol@@
variant
Gardens
Gil@@
anton
staff@@
Ever@@
FTP
Organ@@
Tau@@
bed@@
ername
gle
tags
Lodge
asse
nobyl
som
stes
Castell@@
Sus@@
eux
jack
lics
puri@@
sof@@
ę@@
ASEAN
Us
ake
lette
mix@@
да@@
на
36@@
dio
erh@@
feeds
hine
numer@@
tik@@
aber
elf
four@@
gher
iles
kni@@
mono@@
pad@@
sist
TER@@
Terminal
arest
ces@@
graph
itz
meworks
oman
unbe@@
Nat@@
elegan@@
exhau@@
omo
precau@@
1974
Beauty
Fat@@
Palazzo
Panel
bell
Red@@
aler
ament@@
mos
shirt
wird
1983
Bremen
Communities
Course
Karel
Outlook
Scientific
balls
cock
fant@@
icial
orchest@@
surance
Americ@@
Sla@@
WIT@@
chill
Dou@@
Gener@@
Petersburg
Publi@@
Texas
span
tta
Aut@@
County
aments
analog
ik@@
nose
Conc@@
Freed@@
ef
gos
lad@@
rail@@
Musi@@
jacuzzi
lane
к
Kab@@
Young
canal
overwhel@@
Bab@@
consoli@@
Cube
Democracy
Rimini
SIS
demon@@
rings
sica
vie
ò
Commander
MC
amor@@
dubi@@
tale
tern@@
во@@
ө@@
aes@@
eka
rt
stres@@
ń@@
90@@
Borg
Deutschland
Sant@@
ui
ynn
Bluetooth
DH@@
chestra
Facebook
cca
diagra@@
Editor
Officer
alis@@
motors
nas@@
vention
Agri@@
Bangkok
Frattini
Sum@@
bij@@
enz
essen
leg
testi@@
Fab@@
Mun@@
coff@@
dun@@
Mozart
durch
estro
tei@@
128
1977
Ecofin
Florida
inos
mysq@@
pos
spectac@@
tas
telep@@
wald
weg
zin@@
BAS@@
Staff
Steel
drum
effec@@
ition
og
teous
22@@
Limited
RA
Tourist
Wir@@
child@@
gered
solven@@
cafe
chemi@@
issu@@
liche
stadium
suspi@@
ме@@
Fr@@
ICT
balances
bei@@
este@@
get@@
ld
peripher@@
quer
DF
Imperial
dding
ebo@@
gency
ingo
oom
parall@@
pis@@
tax@@
uta

Pir@@
Watson
banner
myst@@
Commun@@
Under@@
acity
ere@@
fix@@
hausen
170
Albert
Belar@@
Nan@@
conten@@
div@@
occupi@@
prov@@
Autom@@
Essen
cryst@@
genes
Basi@@
Freedom
IA@@
bitter
inson
mont
polite
thouse
ş@@
arran@@
cryp@@
isse
sins
Battle
MAR@@
Over@@
Romul@@
cz
desp@@
Auth@@
CP@@
E.
Oli@@
circu@@
gram@@
spons@@
Estate
Um@@
protection@@
quer@@
vul@@
Dubai
Kie@@
SV@@
Speed
convers@@
esis
extrem@@
loss@@
vas
2.1
Chr@@
Kil@@
YO@@
aman@@
damp@@
espe@@
ischen
öl@@
Disk
Ltd.
Sustain@@
one@@
recipi@@
Magic
Zone
ila
popul@@
wap
ras@@
Boli@@
Harry
Laeken
Oracle
agen@@
tik
Installation
Os@@
Reser@@
easi@@
esco
hall@@
ones@@
rat
Ash@@
CPU
Crus@@
FF@@
Inclu@@
Patent
Pit@@
anten@@
eline
nai@@
neuro@@
noch
reas@@
125
Cs
Mini@@
cot
erung
gens
lv@@
m.
usa
Europ@@
Marine
Maritime
integr@@
kun@@
ris
vei@@
х
1500
Ai@@
EGF
appreci@@
etal
ә@@
Ethernet
Fel@@
tane@@
Bay@@
Berg@@
Cannes
atar
att
bute
depri@@
pionship
vens
Vladimir
Winter
fried
ida
omp@@
Muni@@
Sofia
capitali@@
contrac@@
Fig@@
Managing
Metro@@
Mozilla
No.
Schi@@
Vision
bies
Banglades@@
Speci@@
card@@
succe@@
tist
uss
Der@@
Ent@@
Erika
Platform
garten
nex
ORE
Ten@@
UM
Vie@@
differ@@
Bos@@
Converter
Johannesburg
Mou@@
PR
cratic
dice
1930
Grande
Maison
eph@@
nie
unge@@
Baro@@
Camp
Carlos
jn
terra@@
agers
aser
casinos
chie@@
furnis@@
sponsor
SPA
ener
loyal
milli@@
ml
ricul@@
uth
ε@@
13.@@
Proc@@
Simp@@
einem
ont@@
Innsbruck
Tex@@
É@@
Fire
MAN@@
Sydney
iser
volun@@
Lou@@
Malaga
Tony
abetes
enorm@@
fem@@
paradox@@
pse
sson
taxis
But@@
ML
Son
eu
fea@@
wid@@
wr@@
CN@@
Date
LateRooms
MIDI
Photo
Soci@@
TU@@
aly@@
hung@@
mt
ASA
Bran@@
Buch@@
Lama
TP
bizarre
provo@@
ART
CR
Manchester
PVC
Six@@
ih@@
uno
1969
TE@@
uli@@
BER@@
Call
Points
ampagne
cho
insula
trop@@
Base
ague
asion
jor@@
sag@@
timet@@
С
Stre@@
Tenerife
generator
legi@@
1.3
BE@@
Canaria
D.@@
DVDs
Deep
aut@@
bollah
bres
grat@@
search@@
totalit@@
unci@@
220
Barnier
Blizzard
Double
Dri@@
Lot@@
Start
ange
gie
instruc@@
lugins
tana
ów
Can
Develop@@
Il
Mayor
Type
juris@@
yen
Economy
U.@@
añ@@
bir@@
ec
follo@@
stra
wag@@
Volkswagen
curr@@
AA
Ner@@
Partners
Radi@@
Studies
Walter

7,@@
NT
model@@
offen@@
posit@@
pum@@
ү@@
Univer@@
like@@
ommission@@
IVE
Junior
Property
aba
best@@
institution@@
isti@@
repressive
sortium
vic@@
Application
RT@@
abri@@
arrogan@@
intellec@@
prehen@@
Deluxe
Friedrich
Maj@@
eins
ilation
install@@
nick@@
ées
Café
Pass
graph@@
phra@@
Bolkestein
IK
Jam@@
Lanka
Ok@@
junction
voy@@
Cris@@
Lady
Stephen
WHO
advanta@@
cafés
ghtful
tivirus
ACE
Kh@@
VI@@
Vegas
alen
conflic@@
C4
Electri@@
Formul@@
Andr@@
Foot@@
R.
gee
sanit@@
Last
Ran@@
Tele@@
ave
myth@@
Hur@@
Inc.
Virgin
aden
cil
enlar@@
eno
hem@@
oted
signi@@
Peru@@
Port@@
SR
CAN@@
G.
Hôtel
Lun@@
Newsletter
iga
tter
dock
invent@@
moun@@
Fischer
Laman@@
Stor@@
Swoboda
cke
sey
spac@@
қ
Cash
Mario
Marx
Monitoring
gab@@
ι@@
Bologna
Colom@@
Entertainment
IRC
ISA
Run@@
acade@@
aki
istics
Consul@@
Franco
Mercosur
2.4
BSD
Montreal
Scott
asso
ball@@
even@@
experim@@
nic@@
tice
utely
Airways
Ambassador
Juli@@
Rab@@
Way
Willi@@
alien
ambiance
kt
thly
witness@@
ymp@@
PA@@
SK@@
She@@
tem
thre@@
trig@@
vente
wall@@
Associ@@
Eurocopter
OC@@
wes@@
1.4
IE
fashi@@
ference
horn
lichen
own@@
sab@@
side@@
ille
ketball
kits
och
rez
tom
will@@
ұ@@
Goo@@
Lee
Messenger
Porsche
itas
mud
Seattle
Twitter
flag@@
psy@@
recomm@@
Cadiz
F.
Let@@
Mann
UPS
dden
eng
gely
ution
Add
Gibraltar
chat@@
ckey
lem@@
mware
Commons
aster
bat
cerem@@
oul
sie@@
14.@@
ardo
dents
eway
gressive
guise
sures
tionist
tron@@
Heb@@
Play
izer
ority
shoul@@
Hai@@
Hospital
Theater
ardis@@
emit@@
kur@@
tras
vez
Auto
Split
Swi@@
gang
undi
BAE
Donald
Key
Print
Save
bien
dows
extremis@@
norm
thur
ит@@
1972
ECHO
Everest
Fire@@
Rand@@
clips
nur
semb@@
seu@@
theat@@
Cotonou
Focus
Jack
Stefan
aman
uit@@
üh@@
asa
dischar@@
uan
HOTEL
Steinberg
analo@@
brie@@
hell
introduc@@
oi
trol@@
versal
CV@@
Event
Modern
Monaco
Unix
hyp@@
wis
Argent@@
HA@@
NOR@@
Spy@@
Trav@@
utt@@
Alp@@
Castro
Geb@@
Thal@@
arance
asymmet@@
competi@@
endums
hion
phy@@
750
By
MP
Name
PCI
SOL@@
azione
boot@@
orable
ptions
Aviation
Baby@@
I.@@
Lic@@
Punta
SLR
aro
loses
phan@@
reach@@
rie@@
FP@@
Pakist@@
Poettering
istan
unic@@
с
Anim@@
Basic
Solar
Trans
Unit
YORK
bedded
press@@
remain@@
Eur@@
gram
hormon@@
lar
racle
sau
stige
yan
Crist@@
Lab
Ramblas
Terra@@
entes
ismo
patron@@
та@@
Chianti
Messe
Two
betra@@
etto
g.
histori@@
onym@@
simil@@
~

Indon@@
SEO
Vig@@
hegemon@@
quanti@@
region@@
slow@@
Beau@@
Emb@@
VII
beau@@
dass
1.6
Photoshop
athle@@
chno@@
ior
olog@@
pdf
ğ@@
Arc@@
P.
Somalia
Swe@@
asy@@
indic@@
Brown
Magazine
Top@@
XI
Zürich
birth@@
fairer
hier
lus@@
nich@@
salon
142
Edit
H.
Natura
WW@@
consci@@
cript
persi@@
shop@@
vom
CNS
Hilton
aters
vic
л
Atlan@@
Müller
Nar@@
Set@@
Tak@@
Turk@@
certi@@
transform@@
Ala@@
BIL@@
Tot@@
Visual
choo@@
injec@@
iz
monum@@
AF
Dy@@
INI
Phar@@
Sport@@
ß
ATE
Color
Visa
anta
inta@@
reform@@
Euratom
Func@@
GI
Roth@@
Soft
docum@@
eps
ignano
ás
negli@@
oric
Edi@@
Gott
Poker@@
Vall@@
World@@
dau@@
isch
oo
rad@@
upgra@@
Desktop
FI
bare
utions
CAN
Gast@@
Gender
PP
ange@@
bn
imple@@
plen@@
yos
ż@@
PG
YouTube
ateau
cos@@
Pel@@
Ré@@
SN@@
alties
call@@
linder
.NET
1971
Angel@@
K.
gau
offline
unas
zel@@
Heidelberg
Nepal
Phi@@
belon@@
flation
noti@@
oma
subsidi@@
transfer@@
vet
Cze@@
hus@@
id@@
safegu@@
ا@@
Azur
Guatemala
ao@@
occa@@
otherap@@
sembles
writ@@
AB
Chur@@
Cul@@
Link
PXI
Sisko
adequ@@
atile
rout@@
Bern
Columbia
LabVIEW
Model
PK@@
bited
gger
satelli@@
HTTP
Marie
commer@@
rau@@
ssi
tempor@@
DE@@
Hannover
Ques@@
Tob@@
atis@@
gresses
ow
rele@@
Gaz@@
Rica
Vec@@
abili@@
campaig@@
haben
lov
mei@@
oll
wski
Books
Bugtraq
Giovanni
Roth
Symp@@
adar
afford@@
agan
enna
neces@@
opport@@
struction
Lom@@
Phoen@@
Pots@@
Zak@@
etary
hosp@@
lä@@
ore@@
valu@@
10.00
Jes@@
RE
inas
pes@@
psycho@@
trie@@
Chris
Sharon
SilverFast
bureau@@
mia
apping
navig@@
BB
Cru@@
ERS
Kom@@
Medina
ceram@@
excell@@
zers
Ander@@
Iber@@
Review
SCH@@
UP
chise
stim@@
ves@@
EW
Portal
Som@@
stron@@
transplan@@
Cards
Die@@
Posselt
fascin@@
occurr@@
zn@@
Four
Piet@@
adem@@
aspi@@
extern@@
neum@@
ret
16.@@
Cruz
Dalmati@@
FT
Fro@@
civi@@
dedic@@
hou@@
mate
oter
де@@
DO
Gas@@
NT@@
Oliver
Tool@@
jana
не@@
Arm@@
Istri@@
allen
ego
lest
remark@@
verdi@@
AVE
Aar@@
Creative
MPEG
delle
entino
gment
nica
plateau
IND
Main@@
ergonom@@
ever@@
Tou@@
nels
oro
Commer@@
Emer@@
Silver
tima
Wind@@
cion@@
ech
eme
jen@@
pol
vin
BB@@
ailing
billi@@
taxpa@@
9,@@
Lithu@@
Map
gem
helicop@@
lemma
sco
stak@@
CMS
Files
ING@@
OG@@
Spock
pots
2050
Exper@@
agua
Engine
ardi@@
entre
ethanol
mega
where@@
Ges@@
Lyon
PayPal
TU
armi@@
dow@@
Cot@@
Get@@
Gom@@
Production
Sing@@
candi@@
pré@@
seg@@
democrati@@
ity@@
onymous
sili@@
twi@@
Angola
Pisa
Rü@@
e.V.
estim@@
Leh@@
Lud@@
MS@@
Unter@@
XX@@
gg
orandum
5000
LL@@
Mei@@
ONE
Provider
TEN@@
ckel
fici@@
fis@@
gir@@
o.
requ@@
zar@@
AVI
Buil@@
Communications
Hat
Lig@@
Performance
Poly@@
Zap@@
amento
hou
mers
mmer
philosop@@
ITE
Leon@@
erie
wo
Cardiff
Ear@@
Mission
esto
harm@@
ier
32@@
Carl@@
Guantánamo
Head@@
Location
MEDA
Scho@@
TW@@
demonstr@@
kol@@
spect
ф@@
8,@@
Afri@@
Memory
Mini
Sach@@
Sty@@
Tai@@
alto
congratul@@
ilit@@
mais
Aga@@
Fitness
Generation
Lon@@
Mé@@
Uganda
af
lins
logs
stur@@
tude
Č@@
Ali
Bud@@
Nag@@
PT@@
Schu@@
bias
enen
très
1.0
Bonus
Colle@@
Ds
Eiffel
Sci@@
bara
itar@@
tern
valent
Astrium
Fron@@
Hein@@
Mic@@
RF@@
Sto@@
conveni@@
ported
101
Little
UEN
eler@@
emphas@@
ured
viney@@
Band
Blog
C6
NA
Superior
hne
pressor
té
3.2
Guil@@
Shuttle
chio
gal
gels
opou@@
rag@@
research@@
timent
über@@
Bö@@
Clau@@
WE@@
chens
lander
multip@@
stin@@
Catalunya
Ferr@@
Infineon
Opport@@
Records
arbit@@
oline
pac@@
partment
Budd@@
Miles
Vati@@
dec
hardt
hetero@@
......
A1
IB
Mail@@
Trading
Virtual
fur
hat@@
sans
х@@
2.6
45@@
que@@
witz
Benz
EOS
Jazz
Olymp@@
Real@@
amendo
produc@@
ä
ā@@
15.@@
bahn
bs@@
presso
ström
Brand@@
Manuel
Milit@@
iry
pover@@
reve@@
sine
п
105
Lufthansa
Mercure
ahn
butions
chest@@
elo@@
Chirac
Fou@@
Rotterdam
beck
determin@@
drasti@@
wick
Activ@@
City@@
Simon
aco
ett
geograph@@
gres@@
ima
uxe
Bath
Care
Dau@@
cons
ius
neu@@
till@@
ý@@
Applic@@
Dav@@
Master@@
Me
Milano
Thessaloniki
cc
etti
leyball
skep@@
ARC
AST@@
Ferrari
Form
LI@@
Text
bau@@
dere
essions
fin
kann
Alger@@
Andre@@
Dev@@
Zagreb
anto
eri
massi@@
raid
small@@
C.@@
Dal@@
ECT@@
Kap@@
enzo
promin@@
uro
1.
Erasmus
Expo
Long
Malm@@
Satur@@
die@@
rab@@
sert
stas@@
Arafat
Continental
Stalin
Wit@@
acon
house@@
Eng@@
Pear@@
Rose
Script
lpool
sac@@
sti
stly
ù
Gem@@
IMO
Isa@@
Manu@@
Not
Pent@@
Wen@@
cion
counterf@@
plic@@
scape
Bit@@
Leban@@
NO
Nichol@@
Rich@@
ThyssenKrupp
essi@@
technolo@@
Á@@
ă@@
Active
Blin@@
Clin@@
Prac@@
gery
goti@@
ни@@
Davi@@
Kla@@
QuarkXPress
scher
FF
Gy@@
Iz@@
Jet
Kenne@@
Sli@@
WordPress
agra@@
exe
sko
én
Jung@@
stitutes
thodo@@
Alexand@@
PO
Tunes
assemb@@
behavi@@
e.
lish
present@@
vulner@@
ò@@
GAT@@
ICA
Kl@@
Mün@@
Vent@@
affec@@
otage
pod@@
Disney
Italia
Mr@@
Photo@@
Rober@@
eder
fs@@
gl
militar@@
porte@@
Mira@@
RC
Sep@@
Vac@@
act@@
ink@@
не
Jak@@
Liechtenstein
Recovery
Turin
adox
essen@@
favour@@
hydr@@
liance
occu@@
2.3
Mare
STE@@
Stand@@
mits
nesty
progressi@@
stitution
zona
1957
Mode
app
ause
eiro
inings
kor@@
öh@@
CSS
Hung@@
NH
Plas@@
Radisson
Wolf
fred
1900
Palm
Standards
Yan@@
muni@@
thos
vision@@
wled@@
115
Beh@@
Champs
Corbett
FS@@
Graz
Ot@@
Torre
awar@@
lear@@
Abra@@
Alex@@
Assad
Dalai
EW@@
Ima@@
TRA@@
traffi@@
01.@@
1966
ERP
HC
Set
aut
declar@@
lou
tà
vio
DB
Jones
Rh@@
Vict@@
acion
constru@@
rench
001
1956
Agre@@
Alpes
Ernst
Park@@
SERV@@
Sey@@
parag@@
param@@
renew@@
turbul@@
226@@
CRM
Myanmar
draw@@
isi
jet@@
pus@@
teach@@
through@@
Cancún
Conil
Hit@@
benefici@@
bum@@
wy@@
08@@
Ankara
BI
Clo@@
Fan@@
Identi@@
Muse@@
Polo
alpha@@
measu@@
senal
vey
17.@@
CNC
Lav@@
NGO
Oh
Prestige
Shin@@
Wall@@
tainment
teau
ungalows
xis
Les@@
Sili@@
ember
veau
1965
AI
FIFA
MIN@@
anche
bekistan
fortunate
oblig@@
orities
preme
ARD
Annan
Dé@@
Intel@@
Sv@@
fia
ggle
kilomet@@
prep@@
rities
ес@@
1948
38@@
Archer
ECT
Eurojust
Wilhelm
authorit@@
inian
pause
....@@
Carl
Info
Integr@@
ahr@@
alles
ather
aw
ciano
lich@@
rally
schen
ð@@
clim@@
erce
ses@@
Europe@@
Industri@@
NCC
develop@@
lash
ny@@
3.1
Boston
F1
Johann
eel
evision
incre@@
opath@@
ources
tsch@@
103
150@@
EFA
Wag@@
gans
kW
restruc@@
Bristol
gesch@@
recre@@
sse
vri@@
wle@@
AE
Cameron
Fox
GNOME
Lomé
SR@@
garde
ño
го
ли@@
Camping
HER@@
Jesolo
Nord@@
Zimmer
biomet@@
Core
Fair@@
Martini
Rac@@
Reding
Tanz@@
access@@
bec
edt
nous
ouldn
sburg
ри@@
Alicante
IDE
Ray
Ring
Secure
aine
ographi@@
ote@@
19.@@
1939
Dell
Dubrovnik
Jarzembowski
MI
Package
Pum@@
endt
mation
sender
³
Champion
Linz
Pun@@
Route
enne
eot@@
some@@
Acrobat
Dum@@
Friedrich@@
Gh@@
Index
Quin@@
bann@@
qu
ка@@
Alzheimer
CI
Elba
Fli@@
Instrument
Marc
Planet
Respon@@
Smart
Wallström
php@@
sched@@
stun@@
э@@
1962
Eden
Terme
VIII
cide
kow
sexy
Brandenburg
Carlo
GUI
LT@@
Ny@@
Salvador
derly
enchan@@
ingre@@
lus
ubi@@
σ@@
Electronic
Fis@@
Platz
Andrew
BBC
German@@
Jas@@
Mess@@
São
Watch
scrut@@
ug@@
Day@@
Erdo@@
Kenn@@
inu@@
poli
uation
voor
мо@@
Stadium
Ves@@
gano
ood@@
oos
ds@@
nd
kland
lux@@
rigi@@
sligh@@
Bron@@
Circle
Lite
Orange
Stein@@
dig
ishment
sympath@@
ASE
Bah@@
Bahrain
DEN@@
Direct
Flor@@
Intelli@@
PAR@@
ony@@
t.@@
taste@@
tels
GIMP
Mars
Mechan@@
Valle
iter
liner
pertoire
ral@@
siv@@
trin@@
ю@@
1961
Auf@@
Wes@@
eras
hal
omer@@
tig
troll@@
07@@
1200
9.00
Cohn
Motion
PN
Patrick
Shopping
Tag@@
aim@@
exo@@
Cali@@
E.@@
Francis
Host@@
Napoleon
Rail
Them@@
geh@@
mina
undo
Ath@@
Mike
Mont
Sie@@
Zar@@
adv@@
ambots
contin@@
depos@@
dispos@@
eBay
peror
wledge
135
Classi@@
Lap@@
Nami@@
Soli@@
VE
dali@@
erge
ficial
lé@@
o.@@
pharmac@@
republi@@
unication
1930@@
TCP
VA
Wiz@@
dent@@
herein
ove
ück@@
.jpg
Alt@@
Bun@@
Metal
Moz@@
apart@@
rot
tha
ą@@
24.@@
HT
Liikanen
Pension
accord@@
derer
esp@@
lib@@
mg
public@@
tat
urn
240
Evans
Frei@@
Rosa
SOFT@@
lock@@
ms@@
sol
teleph@@
tung
ção
об@@
Alan
Archi@@
Arn@@
Carmen
Cau@@
Dynam@@
Easy
contr@@
fot@@
lite
ois
AX
Aero@@
Greg@@
Tun@@
Well@@
athan
pero
uli
Ces@@
Copy@@
Mist@@
PHARE
Translation
WA
dak@@
distin@@
hof@@
iron@@
raft
stir@@
vard
wenn
AW@@
BG
Bendit
CF
DEM
Es
Hotel@@
Satelli@@
Vietnam@@
nou@@
tout
vern
Claude
Lieutenant
anc@@
igno@@
mitt@@
nez
thropo@@
ud
800@@
Gaulle
Governance
magne@@
sont
utz@@
1964
650
Aven@@
Design@@
Electronics
Leone
Yahoo
endo
flan@@
onna
porting
Operation
amos
nic
stag
uma
α
Quick@@
Renault
TOS
ester@@
exhibit@@
forec@@
können
opho@@
proportional
π@@
120@@
Anne
Berg
FO@@
Lamy
Person@@
elin
essimis@@
jel@@
pf@@
rü@@
zei@@
Fried@@
Nau@@
TACIS
Tunisi@@
cancell@@
iev@@
1944
Att@@
BF
Bach@@
E.ON
Gö@@
HE@@
TA@@
expres@@
orn
1963
Angela
Banking
CET
Ecuador
MM@@
Palais
anni@@
bran@@
inspi@@
quad@@
tura
Hamp@@
LIFE
Nephi
Race
abor@@
altar
expendi@@
fu
kul@@
tera
Ec@@
Farm
Legisl@@
M.@@
Wer@@
Yam@@
e-
kö@@
nah@@
wurde
ени@@
1920
Chro@@
Clear@@
Langu@@
Lyn@@
Mai@@
Studios
gha@@
shine
ALL@@
Centro
Colum@@
beach@@
burger
multilater@@
Bai@@
Comfort
Deli@@
Engin@@
Module
Tours
Trin@@
grades
tees
tex
tio
18.@@
Gates
PD
Teh@@
Vitorino
did@@
genous
gung
ité
lige
175
Eric
JPEG
MHz
Strate@@
acher
aku@@
euro@@
jek@@
з
20.@@
Asi@@
Kri@@
MR@@
Racing
computer@@
gress
prerequ@@
sono
μ@@
CI@@
O.@@
Pad
alis
dat
egal
ember@@
erre@@
LAN@@
SIM@@
Thin@@
akis
bure@@
susta@@
600@@
Ligh@@
Rosen@@
tudes
108
Dominion
Equipment
Mauri@@
Málaga
Os
Produc@@
atico
pec@@
plann@@
ppi@@
unge
zzi
Blu
Châ@@
Ferrero
Holocaust
Stream
tedly
1940
2D
Cash@@
Ev@@
Events
Winter@@
agn@@
diese
glia
volta@@
FIN@@
Fru@@
Kn@@
Swiss@@
Team@@
gible
lass
listen@@
palette
predec@@
rand@@
thal@@
Ç@@
Challenge
Fort
Leon
PE@@
Steve
Zend
adise
chiat@@
dictator@@
engine@@
etings
ox@@
tat@@
Cox
Eri@@
Otto
Stock@@
grande
neighbour@@
ρ@@
со@@
Agent
Cla@@
Markus
Romagna
chner
niture
rank@@
replac@@
Gabri@@
Hyde
Jim@@
Program@@
fortable
politi@@
rio
sprin@@
190
And@@
Birmingham
Campo
DivX
GS
Haus
ICEcat
Lloyd
Maxim@@
Nicolas
atin@@
erly
nar
pha
rigor@@
tissu@@
12.00
21.@@
Bad@@
Div@@
Inst@@
Mitchell
Stars
mens
rue
1958
Barro@@
Bashir
Gab@@
Max@@
Nig@@
OP
Weber
XL@@
agre@@
amen
diction
eli
rak@@
stem@@
ل@@
4.1
Coff@@
Lju@@
Raf@@
Xi@@
ggen@@
oph@@
ost@@
raf
sacrifi@@
Affiliate
Andor@@
Lac@@
REM@@
WE
Waldner
bau
cohesi@@
enny
herd
lack@@
Miguel
Morgan
Motor
SO
Wikipedia
dak
film@@
visory
Are@@
Nic@@
caf@@
gna
landscap@@
ording
1949
GOL@@
Heathrow
Pay@@
Spr@@
Stro@@
Style
fas@@
jak
tam@@
zah@@
Å@@
Meli@@
Ple@@
Yor@@
cook@@
olf
xen@@
A6
Anth@@
Dolom@@
Fili@@
Frank@@
LIN
München
Oomen
POS@@
Palermo
das@@
dea@@
imper@@
liers
thresh@@
uten@@
vá@@
ACK@@
Andrea
Barón
Chin@@
Has@@
ICS
IG
Kha@@
igi
isen@@
porter
Castel@@
IST@@
Interface
Jor@@
Novotel
Til@@
Vinci
jer
method@@
potenti@@
warm@@
137
1959
Brava
Dest@@
ETA
Gall@@
Lehne
Major
NG
Sebastian
Umbri@@
bie
mean@@
otto
Crespo
Ost@@
SAT
bass@@
dung
electri@@
gil@@
luxuri@@
produ@@
pursu@@
tops
Seri@@
Ski@@
amm
chez
doba
folios
prejudi@@
rie
transpar@@
от@@
FM
Gord@@
Holding
Original
Schmidt
Sign@@
Word@@
environ@@
intelli@@
lash@@
vices
112
ELDR
Fujifilm
IER
bourne
dit
hn
ien
zar
AU
Ast@@
García
Kyi
omet@@
ritz
34@@
5.1
DER
Fontaine
McCar@@
Nicar@@
Residen@@
Ruijten
finan@@
lberg
rupted
text@@
ww@@
1933
Integration
Scri@@
ZF
asis
bian@@
renov@@
č
1947
Daim@@
Elisa@@
Koh@@
Marsei@@
Quali@@
atin
1800
August@@
Bug@@
Böge
FORM@@
GIS
Hay@@
Mig@@
These
lator
lieu
Abbas
Aparthotel
DSLR
Eis@@
Fuerteventura
Kath@@
Kev@@
Mandriva
Parti@@
Ras@@
Tha@@
aires
allas
anza
cina
defin@@
dend
revolution@@
ru
todo
Brand
ESA
Mannheim
PNR
UK@@
apor@@
erc@@
nell
ons@@
v.
äu@@
Juncker
Liby@@
Nevada
natu@@
otti
Alba
Louvre
Wireless
Wu@@
eton
gigan@@
legen@@
pur
schedul@@
tup
werk
Johnson
Josef
arta
awa
displac@@
gesellschaft
kap@@
langes
lli@@
mund
spann@@
tti
Cum@@
Custom@@
Di
MSN
MV
P.@@
Share@@
Territ@@
decla@@
dson
x.@@
Edward
Goe@@
IPS
LU@@
Schum@@
acqui@@
eres
cci
tradi@@
world@@
4000
Extre@@
IFT
OEM
Perl
Toulouse
ining@@
js
ppi
tivis@@
κ@@
за@@
CT@@
MB@@
Pen
Transfer
Tut@@
cape
ept@@
ision
lana
tano
wart
Bibi@@
LES
gast@@
tosh
xe
Česk@@
Davos
Dro@@
EURO
Suu
Vancouver
auth@@
furt
ská
thon
230
Infra@@
Nova
Pé@@
stav@@
Herman
Zoo
alta
bile
climb@@
conf
digit@@
elen
fter
isa
ños
COS
Salzkammer@@
dd
elimin@@
mut
reig@@
seas@@
Joh@@
Parag@@
Pes@@
adul@@
arbitr@@
nette
Bangemann
Bosch
Harris
ISS
Pedro
dela@@
feu@@
ism@@
pler
soldi@@
telecomm@@
tner
yal
2030
Der
Hat@@
Human@@
Jun@@
Kron@@
Liter@@
Low
Monter@@
Roger
esso
ht@@
lam
pag@@
Benedi@@
Geo@@
LEX
Lü@@
NE
Paulo
Rock@@
Sym@@
Veri@@
Behr@@
Delors
Lit@@
Map@@
Pod@@
RAW
Release
Statisti@@
Uruguay
Werner
eines
ffe
nament
tainer
KUKA
Mam@@
Sir@@
dams
enden
giore
ines@@
mehr
mentary
obil@@
susp@@
Chal@@
Glo@@
Rehn
Technolo@@
Voice
Wild@@
aris
cker@@
mis
reich@@
theore@@
280
NA@@
Parc
aller
bourg
gir
hl
õ@@
Andro@@
Bordeaux
CON
Copyright
Isch@@
Kis@@
Peti@@
Scre@@
enst@@
instal@@
nut@@
spr@@
ν@@
.-
29@@
Clu@@
Depression
Fut@@
Multi
PI
ysées
Bike
Gan@@
Hof
Imaging
Inform@@
Ivoire
Schul@@
Smart@@
Termini
arte
boa
evy
pragmati@@
promot@@
satisfac@@
Com
DM
EST@@
Kun@@
Matthias
Mik@@
Ped@@
STAT
ZO@@
mans
plau@@
terranean
wp
¿
1929
48@@
Cont@@
François
Invest@@
fait
ise@@
tiger
vents
CM
Designer
NX
Oost@@
Twin
alp@@
dentally
meaning@@
xi
º
111
Bres@@
ech@@
hofer
1941
1954
Hot
Jack@@
Nuendo
Rat@@
depen@@
dum@@
ophobia
ADI
Beta
Dimension
Georg
Info@@
cione
ciones
ource
uel
utch
23.@@
ECH@@
Ech@@
Fit@@
González
Rin@@
TT@@
WB
Wien
acces@@
diagnosti@@
oure
put@@
tius
té@@
ule
ци@@
ASPs
DOS
Metho@@
Peri@@
Rit@@
Shops
Sw@@
deu@@
gest
partement
probe
1955
Atom@@
DNS
Glasgo@@
Gur@@
Johannes
WF
atro
remember@@
123
Freiburg
Gru@@
Philippe
Rep@@
Ubuntu
a.com
delines
skil@@
wie@@
Chávez
EK@@
Eth@@
Ludwig
Schre@@
anish
diox@@
ungs
365
Gig@@
Sat
Vari@@
chti@@
dont
hope@@
orca
rake@@
Ž@@
Christopher
Karlsruhe
Laus@@
NAT@@
UB
dise@@
tika
Email
Labor@@
Lem@@
green@@
être
но
Ericsson
IX@@
KE@@
Pocket
Sop@@
Var
ciples
intu@@
member@@
oft
pedestri@@
populi@@
Beli@@
Brexit
Savo@@
Slo@@
Ware
Wogau
caus@@
otechnolo@@
suffici@@
109
B6
Delegation
Jersey
Lage
inclu@@
thil@@
tren@@
256
Boeing
Fei@@
Nes@@
Roy@@
Senior
ld@@
ystem
102
Emili@@
Mum@@
etra
ili
Dach@@
INE
illon
mentally
mith
titude
visit@@
zon@@
Art@@
Bauer
Kli@@
Leu@@
Miss@@
Optim@@
Philosop@@
Zer@@
beha@@
glas
mé@@
orthodo@@
refu@@
Nikol@@
hier@@
otte
tish
щ@@
Game@@
anci@@
ativity
geli@@
heavi@@
yment
ühr@@
Nas@@
avier
indisp@@
ischer
servation
stuffs
Bin@@
Boutique
Horn
Oscar
astery
brun@@
cette
fort@@
inst
sius
1946
Hir@@
MAN
cath@@
dades
jed@@
wander@@
waren
š
.N@@
Footprint
Gare
KL@@
essenti@@
ymn@@
DF@@
Joom@@
Koso@@
Pay
ator@@
fall@@
ply
raph
revolu@@
sher
ères
Hus@@
Sn@@
ead
en.@@
mom@@
pharmaceu@@
Energi@@
Haar@@
date@@
funk@@
rell
320
Audit
Automation
GL@@
Ide@@
Ou@@
Schro@@
Work@@
arding
gare@@
mmet@@
λ@@
Agr@@
Fam@@
KB
Live@@
Pol
Status
acious
profi@@
.de@@
Audi@@
Fass@@
SF
Wild
itly
Aller@@
Byrne
Cap
Dani@@
GF@@
Institut
bai
dieser
dir
pedia
rami@@
avail@@
dio@@
esch@@
ople
Frontera
Gel@@
culp@@
sé@@
½
ц@@
Kaiser
Wis@@
encia
Bow@@
Layer
Neph@@
Phone
cides
gration
ttember@@
ungalo@@
ussion
09.@@
KG
Kunst@@
dex
downlo@@
fei@@
kra@@
llon
lood
onale
tur
week@@
Hö@@
Safe
cock@@
votre
Rudol@@
Sevilla
anni
bere@@
effici@@
isch@@
limit@@
onial
ror@@
sein
success@@
2.
Bei@@
Stabili@@
Titan
Kit
arer
l.
sei
Heinrich
spark
specific@@
sserie
thotel
ö
про@@
Admi@@
Automotive
Promenade
Sup@@
Thy@@
a.
acional
breath@@
dern
wels
22.@@
Administ@@
Hoh@@
Luz
Pep@@
Stop
Ã
Lak@@
Malware
Olympi@@
Stal@@
Wies@@
enery
frei@@
kus@@
ness@@
nier
sci@@
до@@
Monum@@
Physi@@
aten@@
qualit@@
rem
Christoph
Fallout
Gros@@
LAF
Schröder
stark
A320
Links
kre@@
manag@@
oot
ő@@
Beat@@
GMO
Nach@@
Zo@@
atter@@
itably
nament@@
xer
HR@@
ditions
lang
ng
ularly
Kro@@
hir
hut@@
orium
Apartamentos
Bom@@
Ton@@
Vinc@@
applic@@
brand@@
iser@@
lender
mü@@
ı
Facili@@
Hun@@
Mai
jus@@
lem
politik
ани@@
KS
Materials
Puer@@
Spani@@
Tennis
endu@@
dago@@
implement@@
mak@@
ń
Chil@@
Foto@@
Hop@@
bution
erhof
immen@@
jour
s-
tinu@@
ECO@@
Traff@@
aning
lig
pose@@
scen@@
tainers
tini
Ä@@
NE@@
Nev@@
Tube
ky@@
ost
Bach
Transpor@@
iten@@
nail
near@@
other@@
proportion@@
Cany@@
Consu@@
Gaming
Halle
Holi@@
Rhein@@
crete
eto@@
inen
kel
pictu@@
ème
Aff@@
Chat
Hof@@
Tiger
arin
monopoli@@
pow@@
predict@@
surve@@
Р@@
Feder@@
Fest@@
Nit@@
Register
coast@@
quis
sect@@
→
azz@@
domini@@
ktor
lik@@
Tester
conclu@@
exac@@
sidi@@
KO@@
MAS@@
rement
tiv
St.@@
chambre
destro@@
dner
uner
А@@
Clas@@
Iraq@@
Lamp@@
accomod@@
ddle
gion
orie
Alle@@
Asset
Squ@@
angel
entran@@
ligent
oxide
partments
Pres@@
VP
adas
boar@@
ки@@
Flu@@
Imp@@
gaz@@
Book@@
Hoch@@
Mut@@
Represent@@
Touch
accept@@
faire
fak@@
gnation
inno@@
melt
lements
nois@@
proch@@
zog
ą
03.@@
Af@@
Jürgen
Tag
Track
coni
kon
rema@@
vier
Moder@@
Souven@@
esen@@
fail@@
nach@@
plo@@
ě
Offic@@
list@@
policy@@
rit
ssiers
winn@@
ć@@
1701
Beit@@
Chef
Gesellschaft
dney
isite
issi@@
onen
puis
Famili@@
GE@@
lau
mun@@
primi@@
bels
hybri@@
jas
mus
Über@@
Augu@@
Chic@@
ket@@
moment@@
mö@@
porary
tak@@
Catho@@
Flori@@
Nieder@@
Underground
cias
entre@@
enze
hinter@@
tely
urban@@
ì
Florenz
Gad@@
eim
erten
quasi
steri@@
tions@@
wig
ór@@
abli@@
cken@@
definiti@@
eil@@
.-@@
Berliner
Dame
Nation@@
gotten
pher
technik
İ@@
Autonom@@
JP@@
Ox@@
Wur@@
alit@@
amt
ös@@
Haus@@
Ign@@
Note
Sites
VIS
achen
bish@@
gangs
split@@
Das
Label
Tin@@
parl@@
ς
Down@@
Lago
Snow@@
Tibet@@
bas
butes
natur@@
ICH@@
Qui@@
earthqu@@
istic@@
Sell@@
WLAN
acht
ograph@@
semin@@
Sei@@
Stell@@
Techni@@
archae@@
etz
fürst@@
leis@@
onn@@
resul@@
été
ELL@@
Panorama
lang@@
tres
Apo@@
Browser
Ministeri@@
hs
prima
Provi@@
Straße
einf@@
fr
stren@@
Hart@@
Stick
Veter@@
inity
nun@@
stä@@
von@@
ül@@
Archive
ECOFIN
Export
Massage
AH@@
Ball@@
Spar@@
bitions
ctly
emed
hir@@
vs
Kinder@@
alley
danger@@
ă
Elec@@
His@@
So
enthusias@@
versary
weren
Fusion
Gün@@
carri@@
ften
graphi@@
realisti@@
urer
Dele@@
Extra@@
avo@@
zb@@
zur@@
Eco@@
duk@@
enes
markt
tten
Beg@@
Bli@@
Brenner
Filter
Fort@@
Maced@@
essenger
fil
heik@@
petit
pollu@@
ums@@
Cafe
Fau@@
Fla@@
country@@
ologi@@
Ultra
bay@@
cracy
rh@@
You@@
abstra@@
bend
collec@@
ulous
Galax@@
Zentrum
dens
ellen
outh
Piaz@@
Sloven@@
ingent
zw@@
Appartement
Automati@@
Block
Köni@@
Mitte
Rail@@
Temp@@
Thir@@
erst@@
lü@@
oper
porteur
utting
5.000
Schön@@
accomp@@
ais@@
dh@@
entic@@
invest@@
itt
vos
wen
ê
Wik@@
life@@
lium
salle
sear@@
Alt
Laden
Schü@@
ady
gentle@@
rapi@@
satlan@@
06.@@
Jag@@
Leinen
Slov@@
endar
rale
refur@@
versity
welt
Domain
Telek@@
aissance
eln
sme@@
techn@@
Deutsch@@
Install@@
Motors
Welt
chs@@
itate
ssel
statt
Controller
Ep@@
Jar@@
harmoni@@
hn@@
miss@@
thes
umn
Ball
dump@@
horiz@@
immer
tention
Ach@@
Finn@@
Gun@@
Pier@@
SQ@@
exi@@
icht
ú
Am
Stru@@
Wald@@
Woo@@
inhal@@
kinder@@
Aber@@
Burg@@
Dig@@
KM@@
Ulrich
dereg@@
r.
Horiz@@
marri@@
proble@@
produk@@
15.00
Dyn@@
Zah@@
atie
gross@@
xt
11.00
Lob@@
Relais
lien
tivi@@
ﬁ@@
Cyber@@
Javascript
Legi@@
Salz@@
Silver@@
Solar@@
ael
chambres
ffer
recht
tau@@
Bam@@
leit@@
ICE@@
Imm@@
Kau@@
Publishing
TEN
kos
mly
mobil@@
usi@@
Pati@@
Schil@@
drau@@
kk@@
plas@@
raff@@
rer
viel@@
xim@@
Rau@@
distan@@
gibt
phen@@
tener
ACH
Terrain
fab@@
gather@@
ladi@@
oren
sowie
02.@@
EG
GB@@
Kru@@
Leg@@
lez
08.@@
Amp@@
Neue
Pilot
entin
radio@@
strand
1,5
30.@@
git@@
leu@@
sam
sensus
Egyp@@
Harmon@@
Profile
Ukra@@
Wid@@
aber@@
angel@@
appointing
Kultur@@
zin
Dollar
Hier@@
borg
gro
ween
Fall
Nicol@@
Zeit
alleys
alth
hl@@
äh@@
Dom
Hinter@@
Jur@@
Lobby
Rö@@
etts
grie@@

öff@@
Display
Epi@@
Psych@@
Revolu@@
opping
spit@@
eist@@
rein
stauran@@
Adel@@
Wein@@
Workshop
ativ@@
ece
genu@@
thum@@
Instru@@
Rum@@
ardin
consisten@@
nes@@
secon@@
tigen
Images
Innov@@
Stur@@
desi@@
ers@@
hygi@@
Alm@@
colour@@
hö@@
inely
ţ@@
04.@@
Song
Therap@@
Trau@@
atur@@
hart
stap@@
xels
Piz@@
Road@@
Schwar@@
Ultra@@
asser
bil
erb@@
strai@@
−
05.@@
Zim@@
ations@@
gyp@@
kop
schaft
û@@
Distribution
gang@@
sincer@@
124@@
err@@
Nation
dum
enshr@@
hin
pesti@@
schn@@
µ@@
Graphi@@
Virus
atures
itu@@
pati@@
Diagno@@
Ord@@
dite
explic@@
htt@@
rists
tige
Berlin@@
Position
brut@@
deter
fahr@@
kar
volum@@
Fabri@@
Promotion
accom@@
arming
z.B.
Austri@@
Fen@@
Kop@@
ameri@@
heit
isen
kas
pä@@
sko@@
Т@@
07.@@
Apart@@
Fres@@
obo@@
rent@@
schon
sidential
Enter@@
Länder
Spen@@
Stand
Zeit@@
ank@@
isition
ï
Sequ@@
biotechnolo@@
kot@@
lingen
lingual
tai@@
0,00
Pop
Sens@@
Tren@@
judi@@
percent@@
philosoph@@
tality
Hän@@
Kamp@@
Sauna
Stadt@@
further@@
teur
öst@@
ң@@
Spre@@
Tok@@
astern
naments
verein
ę
Format
Gat@@
anst@@
besch@@
koh@@
supp@@
Agen@@
Kling@@
Premi@@
Spir@@
arel
covery
integra@@
Ble@@
Brasi@@
Frequ@@
Klu@@
Lie@@
Schloss
anas
automati@@
chten
gend
ison@@
macher
orer
weal@@
Ε@@
Acro@@
Conver@@
Doc@@
Gon@@
List@@
Malay@@
Wan@@
Wind
Wör@@
damer
hol
pharm@@
ů@@
Best@@
Jose@@
Musik@@
Parli@@
Tunnel
aggressi@@
hung
sustain@@
ю
Georgi@@
Hem@@
Zimmer@@
eden
vere
ã@@
Falls
Roh@@
Scot@@
Tap@@
abe@@
arios
duce
kop@@
langu@@
smooth@@
spiritu@@
uts
Baby
Diplom@@
John@@
akia
stead
tique
..@@
Balance
GH
Gas
Plug
Seine
Sm@@
absur@@
beauti@@
keine
kla@@
tick
wieder

ausge@@
beim
clar@@
esen
fel
norm@@
v.@@
üb@@
Da
Provin@@
Strasse
TAC@@
ameters
chte
gious
leh@@
ming@@
ross
œ@@
Nom@@
Pak@@
Schla@@
convin@@
ction@@
interest@@
kri@@
Ø@@
ún
Aug@@
Grün@@
Kris@@
Reich@@
Tier@@
Zen@@
arr@@
ehem@@
mbo@@
sugges@@
Log
Monta@@
News@@
Sis@@
Spit@@
Vali@@
eben
neh@@
reco@@
Museums
libr@@
ohne
sport@@
user@@
Album
Fahr@@
Lö@@
Sad@@
Swit@@
Venezu@@
º@@
Film@@
Kauf@@
Megapixel
Phan@@
Sex@@
System@@
heu@@
itar
iten
liz@@
modul@@
×
Spezi@@
bren@@
i.@@
thorou@@
thu@@
ž
Napole@@
Shir@@
eurs
iors
υ@@
Bio
Cust@@
Klein@@
Laser
Reich
SER@@
dien
liferation
nie@@
utation
Kore@@
Mani@@
Schaff@@
Verlag
omen
Â
Elite
Inn@@
Karl@@
Nep@@
Schnei@@
dann
gasse
hem
kus
stab@@
ί@@
Jobs
Para@@
deck@@
enth
projek@@
zt
Bergen
Et@@
Grund@@
Kok@@
Transpar@@
Universit@@
bean
berg@@
oner
3.
31.@@
Era@@
Fast
Guant@@
Jord@@
Mom@@
PV@@
Salon
icals
oten
proxim@@
sophistic@@
wher@@
Brenn@@
Gü@@
Look
Universität
Virtu@@
barri@@
encryp@@
iche
kr@@
lö@@
stens
thaus
Hoff@@
IFA
Montre@@
Süd@@
^
nen@@
thof
Aro@@
Herr@@
Isol@@
Reh@@
meer
sung
tionen
Administrator
Bü@@
Milli@@
auff@@
ridi@@
ş
В@@
Educ@@
Hard@@
Parks
gew@@
ieder@@
kirche
±
är
isms
laden
nei@@
schule
Cambo@@
DER@@
Job
Kast@@
Nap@@
aner
etes
excep@@
liest
neut@@
schei@@
schwei@@
Dies@@
Ex
Las@@
Material
Phy@@
Soft@@
Wiki@@
jem@@
jur@@
kler
macro@@
Hauptbahnhof
Installer
Intern@@
Laser@@
agements
cket@@
hie
ing-
rand
weit@@
Amerika
Buffet
Iran@@
Sich@@
dies@@
rements
tim
unfor@@
ر@@
Demo
Immig@@
Mö@@
Navigation
Shell
Video@@
ellen@@
every@@
lands@@
ley@@
ratic
seh@@
Alarm
Brus@@
dul
geben
tung@@
vious
ī@@
Emis@@
Kran@@
Kreuz@@
Miner@@
Natur@@
Termin@@
Wed@@
aja
horizon@@
hôtel
mel
robu@@
م@@
Stad@@
alog
bedro@@
brin@@
hast
lages
restau@@
schem@@
--------@@
Alpen@@
Inf@@
Klo@@
Monitor
Tos@@
WM
baden
dership
eron
phs
rift
sians
sored
unden
Card@@
Clients
Flex@@
incur@@
tieth
vesti@@
Blog@@
Kunst
Lang@@
curren@@
hagen
herr@@
ities
stop@@
ι
HOT@@
dire@@
fik@@
isco
10.000
a-
acco
com.
eig@@
hab
helm
statisti@@
Ad
Details
Fü@@
doz@@
enstein
pg
rhet@@
tremend@@
γ@@
EZ@@
Fan
deliver@@
democra@@
fig
fragi@@
frau
leur
licens@@
thumb@@
zel
Ann@@
Brau@@
Hardware
arab@@
ding@@
gegen
isse@@
utz
Deut@@
Finan@@
Labor
Musik
Psy@@
Put@@
Tei@@
eign
intel@@
Chair@@
Kes@@
Minute
ahl
nig
versi@@
›
Chor@@
Kul@@
Linu@@
Terror@@
Tis@@
d.
ffen
komm@@
Salv@@
Smo@@
burgh
earth@@
tä@@
zeit
Illu@@
Kali@@
Visi@@
Weg@@
fantas@@
wom@@
zent@@
Ñ@@
Asyl@@
Check@@
Dr@@
Ihre
finden
lagen
leb@@
neue
urt
Dres@@
Fund@@
dige
eces
ycling
Bit
Klin@@
Krist@@
Seg@@
bots
ellow
intenance
jpg
spek@@
Deutsch
Hak@@
Lad@@
Option
Proper@@
Rhein
aper
doc@@
öder@@
Nr.
Voy@@
amer
autonom@@
doch
ütz@@
Haf@@
Objec@@
Rate
great@@
yk@@
ßen
Band@@
Burg
Frau@@
Institution
Landes@@
agri@@
gratis
η@@
Hack@@
allen@@
dion
izi@@
llas
sibili@@
stakeh@@
tium
Hob@@
IMM@@
Iron@@
Luft@@
Sebas@@
Session
abe
c.
dei@@
det@@
dless
enten
metho@@
Cock@@
ICH
Nam@@
Schw@@
Zeitung
blas@@
lans
loy@@
w.@@
Eich@@
Schö@@
See@@
Simul@@
atz@@
contri@@
phenom@@
somm@@
t-
Patch
expos@@
restor@@
Ł@@
AKP
Boot
Friend@@
Layout
Migration
VO
cks@@
isches
jap@@
sident
stellen
uch
west@@
đ@@
Hand
anderen
coo@@
lange
occ@@
park@@
programm
Ó@@
ο
Fach@@
Mitter@@
Zug
risten@@
stances
ventive
worth@@
ł
DN@@
Spiel@@
acio
investi@@
letter@@
partn@@
Golf@@
Wiener
häuser
warf
1.000
Funk@@
Lich@@
Organis@@
Show@@
energi@@
forth@@
nisch
sich@@
sé
textual
zip@@

Acade@@
Evolution
Gest@@
Hostels
Restaurants
Schle@@
siehe
ull@@
δ@@
Komm@@
gesetz
kommen
tische
Typ@@
Websites
bauer
chester
ente@@
gum@@
iden
kro@@
licher
sah
Aids
Buff@@
Inte@@
Plugin
Shan@@
Techn@@
ammer
icul@@
lds
loser
simp@@
Jahr
Má@@
Oran@@
Tickets
alco@@
dien@@
drei
happ@@
magnific@@
stronom@@
tis@@
ي@@
Dür@@
eigen@@
onte
repar@@
Initi@@
UND
amas
anz@@
eon
ersten
etwas
exper@@
him@@
pended
perman@@
rang
uren
Barcelon@@
Du
GEN
Gesch@@
Leit@@
Resi@@
cipl@@
facili@@
prise
rech@@
seek@@
unsere
viel
wing@@
П@@
Flexi@@
Icel@@
Informationen
disa@@
lek@@
ologie
ttle
urop@@
Ś@@
Den
Galerie
Moldo@@
Sche@@
artier
dden@@
deutsche
drin@@
Afrika
Exhi@@
Ring@@
abel
aty
food@@
stat
Coh@@
Mittel@@
Multimedia
Reit@@
Stiftung
ationen
habe
ppe
pret@@
suici@@
vene@@
¡
¥
و@@
Differ@@
Eurozone
Werk@@
ing.com
laut
reless
spru@@
tob@@
zeit@@
MIT
Million
RAT@@
Uhr
mann@@
refre@@
Hyper@@
Journ@@
Lear@@
Liqui@@
Markt
Ment@@
essor
panoram@@
ū@@
EIN@@
Emp@@
NG@@
consider@@
fahren
heb@@
jetzt
macht
recogn@@
terran@@
Syri@@
funk
för@@
lok@@
Button
Imple@@
erin
fossi@@
ige
nett
orig@@
seit
sens
shof
territori@@
withdraw@@
Autor@@
Frankfurter
Megapi@@
Neb@@
big@@
hoch@@
purch@@
rehabilit@@
äf@@
üt@@
Individu@@
andt
isl@@
pak@@
prä@@
rass@@
sek@@
Dok@@
Feld@@
Haupt@@
Mathemati@@
dimension@@
hä@@
sels
Ђ
Audio@@
Gei@@
alition
ousing
pel
rig
stent
tot
GD
Rom
Situ@@
aal
andere
ywood
Renn@@
Transl@@
cling
combin@@
feh@@
ocop@@
ücken
ė
Contro@@
Eisen@@
Imperi@@
Resul@@
Zei@@
berge
confidenti@@
dir@@
enthusi@@
ista
schen@@
Í@@
ì@@
д
Break@@
Homepage
bt
jac@@
rats
weis@@
ő
М@@
Emplo@@
Exec@@
Köln
absol@@
direkt
mich
mä@@
nun
u.@@
ن@@
Rie@@
Stern
ahn@@
airs
ansa
halle
tackl@@
tien@@
wurden
Frühstück
Import
Internet@@
Tep@@
Weis@@
bare@@
oriz@@
otels
Contin@@
Disk@@
Posi@@
ande
diesem
forbi@@
lust
län@@
seine
unications
100.000
Immo
Mix
Schnell@@
azzo
einfach
encounter@@
enon
fox
grad
kein
langen
oran@@
sidency
zwischen
Acces@@
Molda@@
Refer@@
Secon@@
ehr
eventu@@
forman@@
glas@@
glich
gut@@
invol@@
ries@@
try@@
worden
Keller
Medium
Mono@@
Tourismus
mbH
wholehear@@
έ@@
Brow@@
Grap@@
Spo@@
crop@@
enk@@
inner@@
modus
oft@@
paint@@

Hydro@@
Ihnen
Meg@@
Seite
autor@@
bung
intro@@
relax@@
Ambi@@
Stein
fabrik
gall@@
serie
Alternative
Inten@@
Problem
Taxi
chocol@@
circa
ihr
luss
stopp@@
sug@@
umen
unger
won@@
xen
ب@@
Bren@@
Mann@@
ateful
erer
repeat@@
rö@@
utenant
Definition
Flora
Hohe
Hub@@
Solarium
Stadt
Wie@@
enge
interes@@
ook@@
Zwei@@
atum
buch
prom@@
tun
ultim@@
ASP
Nad@@
Navig@@
illeg@@
itan@@
lik
strous
wu@@
zig
Für@@
Know
Rund@@
agna
batter@@
gler
later@@
lifer@@
stitu@@
zwei
.m.
Caf@@
Expl@@
Gut@@
Heu@@
agne
dieses
gens@@
kenn@@
meister
ße
Autobahn
Modi@@
Preis
Tari@@
campa@@
eived
eten
hydrau@@
ihre
stern
Engli@@
col
eten@@
oeu@@
univer@@
Loy@@
Nür@@
OME
Rah@@
Stol@@
experi@@
gele@@
gine
gt@@
independ@@
progno@@
Gn@@
Kün@@
Nob@@
Videos
mium
stei@@
viele
Phase
Schwei@@
copi@@
gsp@@
issance
lassen
nä@@
schaften
Advan@@
Flam@@
Gent@@
Spam
kann@@
stad@@
stante
stein@@
timate
weap@@
Co.
Form@@
Hybri@@
Luxemburg
Zy@@
abot
budsman
claim@@
essive
inhabit@@
reduc@@
К@@
Amer@@
IDS
Jus@@
Rück@@
Sinn
bequ@@
dek@@
igners
messe
oples
soever
tails
tien
wand
Affili@@
Dör@@
Festivals
Found@@
Host
Reis@@
Ug@@
bilater@@
chur@@
gabe
gno@@
klu@@
maximal
richt@@
sak@@
tradition@@
wohl
Alli@@
Dek@@
Knei@@
Screen@@
Servers
Verb@@
kitchen@@
obst@@
sehen
sektor
η
Boot@@
Kuns@@
Nürnberg
Plans
Schlei@@
Stran@@
baum
innen
ires
lags
olders
pau@@
rying
wach@@
ø
ň@@
Cookies
Peters@@
Sex
besie@@
lei
Daten
Mön@@
atom
atorium
fes
gig
ital@@
jah@@
kle@@
ock
Automo@@
Bungalows
Experim@@
Ged@@
Gross@@
Grö@@
Partner@@
Plu@@
Prim@@
coher@@
dients
pole@@
wever
ör
θ@@
Grill
Jah@@
Model@@
Produk@@
Rak@@
Staats@@
arro@@
enty
heute
isine
kana
mie
poly
ъ@@
Dop@@
End@@
Gonz@@
Küh@@
Neut@@
Schweiz
busin@@
geht
histor@@
uner@@
unserer
vell@@
ت@@
Aktien@@
Frauen@@
PN@@
ativ
atte
atti@@
ership
ftly
inge
notre
speak@@
stehen
unde
werke
Ú@@
ü
Batter@@
Bayern
Daten@@
Downlo@@
Jahren
Logo
Richter
Riv@@
Sek@@
ourable
yond
Б@@
Schwarz@@
String
brilli@@
debat@@
enten@@
movi@@
Club@@
Evange@@
Nich@@
Soh@@
Wah@@
blick
christ@@
etus
kok
Barcel@@
Göteborg
Radio@@
Sommer
Tus@@
Wach@@
annes
eser@@
guaran@@
ht
rug
terrasse
twel@@
äch@@
ē@@
ν
Bav@@
Bulg@@
Groß@@
Lieb@@
Prof@@
Salzburger
Sonnen@@
Trend
Tum@@
controversi@@
dary
mming@@
muss
selbst
sentation
splan@@
symbo@@
Afgh@@
Hochschule
ZE
chter@@
derung
ganz
lief
ods
Α@@
Feu@@
Mall@@
addres@@
eben@@
genz
stil
ε
2,5
2.000
Deutschen
Himm@@
Spor@@
Volks@@
abled
Dollars
Mex@@
Sand
Ses@@
Wolf@@
ains
atten
bitte
bü@@
ehl
enzi@@
last@@
yp
Angol@@
Lok@@
Tie@@
alten
comit@@
dabei
fined
lifel@@
neuen
requi@@
ع@@
‑
Dialog
Sper@@
eken
islat@@
sicher@@
ventura
bene
fä@@
geno@@
mack@@
rag
verk@@
wollen
ärm
Boden@@
Eck@@
Ern@@
Feri@@
Früh@@
Kü@@
Panoram@@
Plen@@
Schei@@
ehr@@
liegt
struktur
Forschungs@@
Priv@@
Rede@@
icro@@
phar@@
spirit@@
stelle
ür
Apar@@
Hig@@
Mio
Reform@@
Skep@@
cei@@
dramati@@
essively
mee
minist@@
steh@@
О@@
Abs
Brü@@
Challen@@
Login
atur
damit
gute
machen
schil@@
ssel@@
tate
trend@@
ō@@
Bars
Edel@@
Firewall
Ital@@
Jahre
Leben
now@@
wert
Maschinen@@
Passa@@
Wasser@@
colum@@
curement
haus@@
komp@@
liches
raum
stechnik
victim@@
ë
ά@@
ω@@
Қ@@
Ener@@
HO
bahnhof
bereits
cellor
eini@@
fte
gende
prak@@
sche@@
spiel@@
splatz
undoub@@
zir@@
Ã@@
Öster@@
Bild@@
Energie
Grie@@
Heili@@
Holz@@
Ira@@
Jour@@
Kö@@
Navi@@
Prä@@
Syner@@
assen
dler
licop@@
nah
odate
terer
5.
Billi@@
Komp@@
Portfolio
Süd
Tier
asen
bald
f.
halten
lichkeit
lungs@@
nacht
promis@@
tiques
ό@@
В
Films
Offen@@
Profession@@
Studi@@
egu@@
exqu@@
gestellt
kab@@
verband
vina
zus@@
äm@@
Juli
Proto@@
Rent@@
Stei@@
Stud@@
ascript
ext
muster
sage@@
solidi@@
tober
trag@@
И@@
199@@
Bahn@@
Infin@@
Internationale
Mili@@
Onlin@@
cury
izza
rah@@
Appart@@
Desig@@
Hä@@
Jav@@
buds@@
tier@@
unab@@
Chemie
Democ@@
Seminar
Sovi@@
bergen
erst
garan@@
propos@@
schu@@
tiqu@@
trade@@
ue@@
uries
‹
Druck@@
Garten
Schne@@
Songs
Strand
Weit@@
bie@@
gruppe
irregul@@
jing
secur@@
sovereign@@
tl@@
wur@@
ň
Ћ@@
Altstadt
Clubs
Favor@@
Fris@@
Guatem@@
Jä@@
Lib@@
bild
ckt
drafts@@
formance
heimer
morali@@
nam
wehr
¼
Ï@@
Jugend@@
Loch
Schal@@
ebru@@
frank@@
kommt
ofed
pulation
reds
sied@@
î
Arbeit@@
Austra@@
Franç@@
Grau@@
Nei@@
Scanner
Seb@@
Switzer@@
Vier@@
Zul@@
Zw@@
eties
gend@@
sach@@
schutz@@
Computer@@
Interpre@@
Kunden
findet
ott@@
ourmet
rek@@
ї
Allianz
Chemi@@
Immobilien
Ost
ags
etten
sene
soll
tere
unya
Adria
DEN
Expan@@
Systeme
gleich
haf@@
inger@@
mag
ouver@@
splen@@
studi@@
umen@@
Bahnhof
Features
Hü@@
Link@@
Spon@@
bieten
durch@@
erle@@
erste
iert
leben
lungen
meas@@
mined
trace@@
ück
Juni
Kernel
National@@
Spra@@
enjo@@
obs
scar
ā
Antoni@@
Downloads
Galile@@
Giov@@
Sü@@
Veget@@
spiele
steht
tici@@
tischen
vier@@
werk@@
Ö
Belgi@@
Tradition
afri@@
gelegen
unik@@
useum
versities
د@@
Lebens@@
Produkte
Theat@@
Wider@@
akt
idy@@
join@@
offici@@
ommis@@
spezi@@
zentrum
Ecu@@
Lek@@
Person
Quot@@
Schn@@
tieren
viertel
ühle
Container
Servi@@
Sier@@
Technik
activi@@
ahr
elector@@
promo@@
terror@@
thema
ة
Distri@@
Trainer
Wissen@@
deren
foli@@
inea
offic@@
signific@@
sity
textu@@
ľ@@
χ@@
ن
Fes@@
Kern
Last@@
Sonn@@
Struc@@
Wirtschafts@@
eils
Ѓ@@
Art.
Epo@@
Frie@@
Gum@@
Oper
Prü@@
Text@@
anz
kamp@@
kum@@
more@@
schwan@@
terns
yable
Τ@@
Adapter
Elek@@
Luxem@@
Shop@@
Stras@@
aden@@
bietet
chni@@
enem@@
institu@@
punkt
recommend@@
sidy
tyard
4.
Arbeits@@
Bank@@
Terror
anen
audio@@
ausch
bark@@
bella
boden
holz
igen
problemati@@
schutz
spiel
tos@@
Ø
Г@@
Arran@@
Mitarbeiter
Neu
Unternehmen
Volk@@
cía
fahrt
veran@@
z.@@
Thurs@@
argum@@
certific@@
elop@@
ieve
pread
witter
wort
9.
Donau@@
Explo@@
Mein@@
Signal
dienst
dse@@
erei
gere@@
gä@@
hatte
ismus@@
kosten
stil@@
tisch
zep@@
zern
équi@@
Bild
Danu@@
Holo@@
Menschen
Meter
Religion
Sender
Upgrade
adt
gara
mire
ollar
prepar@@
schön@@
stellt
Д@@
Apri@@
Geschäfts@@
Montene@@
citiz@@
comfort@@
denen
dort
erungs@@
fang
gier
lte
thcare
unser
weitere
zimmer
ät@@
Grupp@@
MID@@
Problems
Rand
Verein@@
cade@@
datab@@
nten
ress@@
satz
schau@@
sprung
trum
unver@@
Blau@@
Elektronik
Monster
Quark@@
Schen@@
Zin@@
atik
freundlich
inery
pd@@
seiner
stoff@@
turm
Blizz@@
EAN
Fot@@
Pod
enzen
hund@@
ij@@
kest@@
selb@@
sober@@
stark@@
ulp@@
Ђ@@
Н@@
6.
Aluminium
Chaos
Constitu@@
Deri@@
Glan@@
Privat@@
altung
chter
denn
hü@@
maschinen
renz@@
Ô@@
Electron@@
Jury
Kör@@
Quart@@
Talent
Teams
blin
saal
versch@@
weiter@@
zug
Österreich
3,5
Astri@@
Bür@@
Haag
Kost@@
buntu
gehen
hef@@
möglich
ograf@@
undes@@
vielen
voll
volution
ystems
′
8.
Animation
Bett@@
Element
Hosp@@
Meer@@
Mobil@@
Privi@@
Revision
Schau@@
Somm@@
Sounds
elek@@
frei
sibilities
÷
Е@@
Akademie
Chance
Commission@@
Glas@@
Im
Industrie
LR
Quer@@
anner
chem
daten@@
edings
kali@@
weiss
ή@@
,5
Arbeit
Canadi@@
Updates
fris@@
gner
komple@@
portu@@
proto@@
urs@@
viera
xity
Computers
Corpor@@
Immobili@@
Kak@@
Was
buch@@
expen@@
forts
gilt
jedoch
kleine
pher@@
ravel
ters@@
tie@@
ō
υ
Fall@@
Leb@@
Scienti@@
intern
leav@@
projekt
reich
schrift
tability
voll@@
Kaff@@
Wort@@
gte
privi@@
sollte
weiter
¹
ů
Compu@@
Handel
Impulse
Internation@@
Markt@@
Nah@@
Origin@@
Schwarz
Strand@@
Teil@@
administrati@@
astrop@@
galerie
iden@@
immedi@@
mend@@
porte
Bilder@@
Frau
Geschichte
Kinder
Min
Oktober
Rates
Tal
Tür@@
Welt@@
adres@@
bzw.
diesen
gern
kok@@
leider
¨
ã
äre
ärk@@
Califor@@
Ein
Liz@@
Religi@@
Resol@@
Semin@@
Visu@@
Zir@@
beam@@
besonders
express@@
lug
orrow
risiko
spee@@
wegen
your@@
zun@@
Ż@@
Ш
Cook@@
KW
Modern@@
Sommer@@
ambling
deten
kte
letscher
lös@@
normal@@
ommission
ppen@@
strom
themati@@
wides@@
Ê@@
ά
Angst
Banner
Enga@@
Meer
Teil
absolu@@
alters
atz
deutschen
exter@@
freu@@
garanti@@
grammati@@
misch
operation@@
seinen
stab
stric@@
verz@@
س@@
Bereich
Bilder
Lock@@
Pho@@
Russ@@
Weg
bedient
beru@@
capaci@@
commodi@@
er-
führt
mau@@
mitten
scht
ż
Arz@@
Jap@@
Kind
Peking
Rim@@
Völ@@
Wet@@
allem
bul
cols
genden
gie@@
nehmen
prisingly
waff@@
welche
Gastronom@@
Gegen@@
Ihr
Krupp
Netz@@
amentos
fert
fotogra@@
ieren
ihrer
oppos@@
perat@@
preis
schön
FRE@@
Java@@
Male
Män@@
Profit
acken
destruc@@
en-
für@@
issen
itten
kreis
ober@@
sence
sondern
usin@@

É
Aben@@
Ether@@
Kraft
Köl@@
Will@@
attle
ctory
enheit
llic
odiversity
sauber
schöne
sem
ular@@
ç
●
Biom@@
Codes
LIF@@
Lt@@
Residenz
Rest
Zie@@
Zwe@@
compati@@
eien
emm@@
hafen
itment
konnte
ritt
whol@@
zeigt
Ambiente
Elektro@@
Ferien@@
Fisch@@
Heidel@@
Lay@@
Moderne
ORK
crati@@
inev@@
istik
positives
provi@@
stau@@
wah@@
während
7.
ADS
Christop@@
Fans
Flughafen
Mosco@@
Verk@@
dign@@
teness
198@@
Adap@@
Ark@@
Busin@@
Engel
Import@@
Reli@@
bereich
einige
epis@@
kam
systeme
toge@@
Andal@@
Equi@@
Projekt
Telef@@
Umwelt@@
forschung
gener
gericht
indepen@@
kreu@@
magaz@@
rex
throu@@
trilli@@
tter@@
wirklich
wunder@@
ج@@
Brem@@
Embr@@
Minim@@
Workshops
bler
lung@@
muse@@
neu
pment
tungs@@
Â@@
Baum@@
Demon@@
Fest
Haut
Infos
Serie
erhalten
gemeinschaft
genau@@
klein
klick
sches
twen@@
Ambass@@
Konzer@@
Kultur
Nacht
Rahmen
Scher@@
Tamp@@
Uru@@
dule
eich@@
liegen
registri@@
stol
taine
toni@@
tragen
wär@@
ر
Ange@@
Bem@@
Bier@@
Business@@
Geh@@
Handels@@
Hong@@
Interview
Masch@@
Moun@@
Portu@@
Sonder@@
Spiegel
Transfer@@
UNO
beu@@
bör@@
challen@@
enstadt
erli@@
otten
rut@@
stanz
ė@@
Apa@@
Kulturen
Nutzung
Region@@
bele@@
dene
fik
jeder
konfli@@
kopf
lege
moderne
Fak@@
Heil@@
Schweizer
Service@@
Werke
Wetter@@
agno@@
daher
dazu
hun
neben
schla@@
staun@@
tete
teu@@
äck@@
ي
Atmosp@@
Dimen@@
Ero@@
Feedback
König
März
Staat@@
Sterne
Thema
Verkehrs@@
ciary
dimen@@
disadvanta@@
ersch@@
exag@@
geist
interess@@
mals
nem
staf@@
systemati@@
teren
unseren
Ţ@@
Л@@
Distribut@@
Hygi@@
Rathaus
Schwe@@
Schwer@@
Tage
arbeiten
brücke
gerne
gü@@
illion
intelligent@@
pf
riteri@@
schau
tei
vertheless
Ν@@
Heim@@
Malaria
Metall@@
Programm
Smar@@
Woche
cen
eili@@
eillance
hows
jeden
landen
loyd
qm
quelle
rüh@@
stel@@
stitute
trit@@
Allgemeine
Biblioth@@
Ehr@@
Garage
Modell@@
Parl@@
Solidar@@
entum
kran@@
telef@@
ön
ك@@
Angebot
Brazi@@
Bör@@
Ja
Mountain@@
Rele@@
Südtirol
Toi@@
Wirtschaft
agen
anderer
balcon@@
ehe
elektron@@
gten
ihren
piel
position@@
rac
rate@@
strich
uum
β@@
Biotechnolo@@
Cadi@@
Firma
Hör@@
Schule
Verfügung
Wedn@@
Wohn@@
alisti@@
bitten
caust
chnik
dency
grupp@@
innerhalb
letzten
mie@@
occur@@
pion
record@@
resque
treat@@
u.a.
zeiten
г
Ende
Inhalte
Merk@@
Neues
Stern@@
Symbol
Tuber@@
Wander@@
arkt
dokum@@
erische
iland
klin@@
relev@@
sinn@@
sprit@@
sä@@
tum
unserem
urch
wein
È@@
ź
ό
أ@@
Fonds
Hafen@@
Paci@@
Verein
aland
dlich
element@@
gart
müh@@
syst@@
tuk
І@@
Ќ@@
У@@
Attra@@
Fein@@
Finanz@@
Kreuz
Kup@@
Leiden
Magazin
Newsp@@
Poet@@
Roboter
Situation
Wash@@
blatt
degre@@
insbesondere
kämp@@
lager
mend
י@@
ف@@
Das@@
Gle@@
Mal
Medien@@
Presse
Segment
Start@@
Vide@@
auses
edri@@
hatten
junk@@
klo@@
lern
rupt@@
therapeu@@
volumen
weil
ô
Brut@@
DIE
Dunk@@
Nether@@
Seeh@@
bringen
erg@@
h.
lokal
musik
peline
poth@@
reau
reiber
zed@@
φ@@
Altern@@
Cardi@@
Entwicklung
Mikro@@
Personen
Preis@@
Wohl@@
arten
auber@@
edral
langs@@
oram@@
privat
sembly
senden
sinc@@
zurück@@
Ó
Bele@@
Bestellung
För@@
Ihren
Information@@
Kne@@
Mehr@@
Mü@@
Rath@@
allel
besten
echt
eigenen
guten
ordnung
precis@@
verages
wenig
ÿ@@
Alter
Flü@@
Git@@
Ihrer
Industrie@@
Messe@@
Mosk@@
Room@@
Ruh@@
Vö@@
bik
enos
gab
gei@@
kten
lieb
lten
onie
oub@@
sterity
tero@@
weder
zentrale
ühne
Algorith@@
Alpen
Breit@@
Energie@@
Seiten
Zau@@
Zoll@@
esday
refurb@@
rund
schaff@@
sser
toms
Î@@
Artikel
Citiz@@
Ess@@
Fish@@
Foto
Insel
Kraft@@
Protot@@
Samstag
Swis@@
Teu@@
Werk
ahl@@
andin@@
anzeigen
eko@@
eval@@
haber
hren
sagen
sollten
Biok@@
Buch
Englisch
Ibi@@
Immobilien@@
Informations@@
Klau@@
Raum
Sept@@
betro@@
exempl@@
freundliche
gebir@@
großen
gutes
minal
mosp@@
olen
quantit@@
räger
sofort
า@@
197@@
Defin@@
Januar
Lehr@@
Ort
Schutz@@
Sprach@@
Tempo
Urlaub
Verband
Zü@@
anden
apos@@
aufgrund
berei@@
chts
große
meine
nö@@
ulen
א@@
ش@@
Ank@@
Druck
Rat
Tsch@@
allerdings
congrat@@
dete
ftw@@
hatt@@
kaum
müssen
paar
ritten
selves
tut
verschiedenen
volu@@
wasser
zeigen
¬
Ο
Brief
Herz@@
Informatik
Klang@@
Minimum
Möglichkeit
Praxis
Rest@@
Rolle
Tö@@
Wett@@
Ziel@@
abet@@
bek@@
fession@@
haft
kunst
kä@@
mün@@
pill@@
reland
riere
schönes
sions@@
spielen
z.
õ
ή
Behin@@
Beitrag
Dezember
Kä@@
Stahl
Voll@@
brov@@
einmal
ftung
grund
haut
jahr
nichts
roler
schein
yester@@
ו@@
إ@@
Bau
General@@
Gä@@
Liefer@@
Nähe
Oster@@
Partition
Schli@@
Slides@@
diger
einge@@
eis@@
enship
haps
heim@@
pps
schmi@@
schnell
thias
thous@@
ś
Farben
Fragen
Maus@@
Recht
Trends
Wertpapier@@
aum
bahn@@
bekommen
eign@@
eting@@
humanit@@
rung
schw@@
sogar
staat
symb@@
transe@@
ñ
ôtel
เ@@
Bürger@@
Highlights
Integra@@
Küche
Marken@@
Natur
Stau@@
Turm
Woh@@
Zeh@@
besser
cinal
dienst@@
engen
esk@@
fashion@@
genau
ladimir
strong@@
weit
zell@@
û
ร@@
Beteili@@
Herr
Lieferung
Orchester
Rechts@@
Seit@@
Tee
Temperat@@
VIEW
Zur@@
acht@@
alisierung
conom@@
friger@@
impris@@
kultur@@
mitted
orte
platt@@
ppen
seinem
temperat@@
zusammen
ت
﻿
Designs
Familie
Grund
Jür@@
Kino
Kosten
Schwan@@
Such@@
alte
baren
dustri@@
eher
folio
ismus
sien
wirtschaft
ù@@
Ő@@
Bere@@
Elev@@
Environ@@
Erd@@
Europa@@
Freit@@
Hafen
Schmi@@
Sonntag
Symb@@
Technologie
Wissenschaft
eite
fein@@
nock
seite
sendung
thanol
undry
wagen
10.
Blick
Dorf@@
Intervention
Jahres@@
Schiff@@
Wü@@
Yah@@
anlagen
dafür
erreichen
inen@@
occo
orama
tares
zol@@
zwar
æ
Ş@@
Basis
Berufs@@
Dorf
Forschung
Frauen
Punk@@
Sicherheit
Vers@@
Vot@@
angs@@
cust@@
dein
deutsch@@
festyle
fonds
führer
griff@@
ologischer
sthe@@
wieder@@
¶
Û@@
ľ
Adresse
Büro
Crew
Italien
Organ
Preise
Sonne
Ticket@@
Zig@@
assen@@
baut
bring@@
entives
etwa
kara
oben
otten@@
shaus
soweit
straight@@
ύ@@
Drei@@
Erste
Februar
Gang
Glück
Hunger
Liga
Pek@@
Rhyth@@
Zeiten
barkeit
fach
fern
ganze
geri@@
internationale
kette
lini@@
ologne
quil
repres@@
¢
¦
Ý@@
Fotos
Grenz@@
Inner@@
Krem@@
Lauf@@
Licht
Medien
Moment
Portugu@@
Rez@@
Seh@@
Stunden
Zit@@
beste
bö@@
davon
elis
graben
necess@@
reis@@
sicher
terrori@@
ungsp@@

№
ﬂ@@
196@@
Betriebs@@
Entwicklungs@@
Geis@@
Johann@@
Probe
Theater@@
Wasser
absolut
devel@@
gemäß
licht
liste
occasion@@
trotz
wies@@
winkel
Ï
Р
َ@@
―
Charme
Ehren@@
Emo@@
Frühstücksbuffet
Fuji@@
Isra@@
Kabel
Kunde
Minu@@
Sozi@@
Texte
astri@@
bart
buted
contextu@@
ender@@
etooth
gemacht
länder
mme
möchten
solidar@@
stoff
ÿ
З@@
ا
ح@@
خ@@
ه
Dank@@
Herbst
Licht@@
Listen
Opposition
Palette
Prov@@
Rohr@@
Schauspiel@@
UNG
Vertrags@@
adresse
andal
asch@@
cators
compu@@
esten
freundliches
gefallen
geho@@
gerade
proper@@
sonst
tolle
ť@@
ه@@
ی@@
Anlage
Dank
Finger@@
Gäste
Innen@@
Karls@@
Klar@@
Kontakt
Schrö@@
Waffen
Wich@@
Ziel
Zukunft
apers
gebiet
gehand@@
geschichte
ihm
insgesamt
latt
möchte
ruhig
standard@@
startet
stoffe
zurück
б
Förder@@
Halb@@
Holl@@
Kreis
Sache
Tages@@
aktuell
allein
bild@@
criteri@@
daß
firma
klasse
kleinen
meiner
wäre
Aktion
Arm
Dir
Drucker
Hilfe
Minuten
Oz@@
Potential
Qualität
Sitz@@
Tests
Zusammenarbeit
bibliothek
darauf
diente
gefunden
isten
jene
klar
natürlich
onien
sow@@
tsp@@
Þ@@
ū
ї@@
د
″
Donau
Flach@@
Foc@@
Freunde
Landes
Pixel
Send@@
Sän@@
Wald
denz
gische
industrie
neues
onne@@
spazi@@
telefon@@
tiz
ª
öl
※
Bürger
Doh@@
Erfolg
Fok@@
Hersteller
Quell@@
Reisen
Sozial@@
Stress
Synchron@@
besteht
deva@@
eiler
empfehlen
faktor
igt
keinen
kraft
lässt
mein
prior@@
siv
ukra@@
wissen
ös
ť
س
Afghan@@
Anzei@@
Croati@@
IMP
Magaz@@
Mails
Minibar
Namen
Prozent
Telefon@@
Vogel@@
Waren@@
Wochen
bün@@
fand
fern@@
formular
jede
limin@@
nutzen
schlei@@
sofern
spitze
u.
wider@@
wolle
ziger
Ф@@
†
中@@
Architektur
Ausstellung
Benz@@
Digit@@
Exist@@
Familien@@
Farb@@
Freie
Gruppe
Prak@@
Rout@@
Santi@@
Tagen
Tali@@
Weise
Welle
assin@@
eigen
entwickelt
eservice
euch
extrem
feat@@
ffer@@
gef@@
hesi@@
hospit@@
klar@@
kurz
niveau
Μ@@
ز@@
Fernseh@@
Gedächt@@
Ich
Logos
Signal@@
Sinn@@
Verbindung
bekannt
consultan@@
deutscher
incen@@
kost@@
kredi@@
ographie
pran@@
sein@@
ticle
timedi@@
vements
weiteren
่
⇒
Agentur
Blas@@
Jugend
Kari@@
Meister
Sprache
Studien@@
Sä@@
Taste
Weiß@@
Werbe@@
assess@@
bist
büro
denk@@
dich
enh@@
jederzeit
könnte
nde
schönen
sollen
treffen
umini@@
vibran@@
vielleicht
¾
Ì@@
Ж@@
Cô@@
Eine
Inspi@@
Künstler@@
Meister@@
Politik
Rati@@
Reb@@
Selbst@@
Seu@@
Strah@@
ardous
bleibt
charman@@
ertes
felder
ffel
geld
gungs@@
itive
langer
lose@@
mah@@
nächsten
reale
unternehmen
Đ@@
Ι@@
น@@
Appartements
Bildung
Block@@
Detail
Einsatz
Kurz@@
Macht
Massen@@
Mobili@@
Pal
Personal@@
Software@@
beginnt
bern
darüber
defini@@
höhe
mises
progra@@
risi@@
rump@@
unten
werde
ξ@@
Ш@@
Bang@@
Dü@@
Einzel@@
Flag@@
Hallen@@
Olym@@
Punkt
Reise
Schaf@@
Silber@@
Steuer@@
Umgebung
atem@@
austra@@
eingerichtet
esion
gewer@@
ghtseeing
gleichen
guter
hinter
neuer
rück@@
tene@@
weiß
weniger
zuletzt
ären
ī
Х@@
ب
‰
Fleisch@@
Indu@@
Ingenie@@
Kommunikation
Kreis@@
Liebe
Mensch
Rad
Schir@@
bestellen
chtig
daran
dik@@
dsch@@
eigene
esien
gemeinsam
islam@@
kei
presti@@
rejec@@
xit
¤
ш
ل
Anspruch
Kyo@@
Rechnung
Rezeption
Richtung
Seel@@
Sohn
Stil@@
Tod
aktuellen
bilder
dü@@
fach@@
gert
ihn
konnten
kostenlos
kter
lesen
meisten
orino
sah@@
somit
tack@@
veröffentlicht
welches
weltweit
wör@@
zuvor@@
ź@@
‡
】
Administr@@
Atlantik
Blü@@
Ergebnisse
Frage
Gesamt@@
Höhe
Inhalt
Jahrhundert
Kirche
Mie@@
Nobel@@
Palast
Rechtsan@@
Republik
Spiel
Thessal@@
Wein
bisher
endes
fuer
gelten
hilfe
ideale
konstruk@@
licity
manche
obwohl
persönlichen
rote
ruhige
tö@@
zweiten
ď@@
อ@@
【
Archiv
Auf
Auswahl
Düssel@@
Eric@@
Feuer@@
Getrei@@
Hunder@@
Immun@@
Invasion
Kampf
Leip@@
Maschinen
Montage
Produkten
Qualitäts@@
Stutt@@
Titel
Veranstaltung
Verwaltungs@@
abler
ademie
appen
deshalb
deutsch
dition@@
erfolgt
erster
gegenüber
hings
liminary
nachdem
ocopying
phen
rasse
regu@@
saison
skap@@
stabil@@
À@@
Beispiel
Beratung
Deleg@@
Empfang
Flan@@
Freitag
Grad
Iris@@
Klassi@@
Kosten@@
Mä@@
Obst@@
Sammlung
Shutt@@
Spieler
Unterstützung
accep@@
agement
airo
datum
ebenfalls
gori@@
holt
konsu@@
manufactur@@
maschine
perfekt
richtig
samt
schlu@@
sfer
ņ@@
ű@@
พ@@
、
Dusche
Geld@@
Liecht@@
Orte
Syst@@
Venti@@
Webseite
aktuelle
balan@@
bizar@@
cany
dende
ebenso
erien
gere
halter
iere
interessante
kommunikation
kund@@
llen
refus@@
rety
ungs-
warum
Ê
ř
Ω
ق@@
‎
О
ר@@
Љ@@
є@@
ל@@
Њ@@
ص@@
。
Э@@
ע@@
ك
ى
ー@@
日@@
Џ@@
Á
β
À
Ü
Ý
þ
þ@@
ˈ@@
µ
Ä
ð
Ř@@
ж
้
​
►
È
Ð@@
Õ@@
ų
ד@@
נ@@
ی
ก@@
λ
غ@@
ง@@
ว@@
ส@@
ศ@@
』
ц
،
ა@@
・
Ç
ə@@
م
و
ม@@
ั@@
ე@@
ļ@@
Ι
מ@@
ض@@

ί
А
̈
ώ@@
ה@@
本@@
년
，
ѓ@@
Π@@
←
的@@
Æ@@
Ð
ē
ω
ύ
ב@@
ן
大@@
年
ג@@
ท@@
ิ@@
★
文
Ľ@@
ย@@
い@@
和@@
ķ@@
˚
ч
Ұ@@
ف
ห@@
Κ@@
ה
פ@@
ّ@@
■
語
Å
Ò@@
Δ@@
ё@@
ذ@@
ط@@
ع
ค@@
ะ@@
ű
ζ@@
σ
һ@@
▒
一@@

İ
π
І
Д
ט@@
آ@@
ث@@
ط
บ@@
ი@@
♥
な@@
Í
Ć@@
Š
Љ
К
צ@@
น
ლ@@
რ@@
『
ン@@
下@@
简

¯
Ì
ǎ@@
ː@@
Ч@@
ם
ک@@
ด@@
ต@@
ี@@
ุ@@
ო@@
─
╚
╩
と@@
の@@
北@@
ț@@
̍
Ц@@
ј@@
י
ק@@
ר
ი
新@@
道
食@@
）

ğ
ģ@@
Œ@@
Ş
ə
φ
Я@@
्
ง
て@@
三@@
台@@
国@@
海@@
路

́
Ћ
ѕ@@
ט
ี
ạ@@
≥
上@@
出@@
Ú
Ď@@
Ž
ư@@
ɐ
˝
Β@@
Ρ@@
Ф
ล@@
მ@@
ს
‐
≤
し@@
人@@
Ą
ș@@
̤
Ө
ِ@@
ข@@
แ@@
ệ@@
√
○
ト@@
寺
市
頂@@

Õ
ď
ŏ@@
ψ@@
Ќ
Н
ф
ש@@
ม
ไ@@
≈
か@@
た@@
ま@@
ら@@
イ@@
克@@
南@@
博@@
山@@
白@@


Ñ
Ô
Ń@@
œ
ǔ
Ю@@
ל
ء
ใ@@
↑
⇢
い
に@@
り@@
ス@@
ッ@@
不@@
天@@
用@@
（
¸
ţ
Ÿ@@
ɐ@@
ɛ@@
γ
И
ё
є
ा@@
ย
็
გ@@
დ@@
ớ@@
で@@
レ@@
在@@
常@@
文@@
漢@@
金@@
Č
ĕ@@
Ń
ɪ@@
ˌ@@
˛
Φ@@
Л
њ@@
Ү@@
ق
จ@@
ช@@
ป@@
ว
ื
‏
⁄
₂
│
♪
を@@
ル@@
ン
区
有@@
网@@
－
Ë@@
Ę@@
ŭ
̃
Α
ώ
Й@@
ח@@
ע
ก
ส
ำ@@
ნ@@
ộ@@
Ω
う@@
す
っ@@
れ@@
ー
会@@
可@@
司
合@@
安@@
思@@
情@@
Î
ɑ@@
Ж
щ
э
ֿ@@
ס@@
ת
ת@@
ً
۰@@
্
ะ
ვ@@
ề@@
ờ@@
∞
◆
バ@@
メ@@
ラ@@
乐@@
人
入@@
切@@
正@@
直@@
神@@
站
酒
马@@
：
ª@@
ĝ@@
ŭ@@
ơ@@
ʃ
ʼ@@
ˆ
Ν
Υ@@
μ
Г
Е
ָ@@
ּ@@
ُ@@
پ@@
ถ@@
ั
ა
ბ@@
♦
つ@@
み@@
も@@
ジ@@
分@@
取@@
山
手@@
机@@
李@@
東@@
武@@
石@@
美@@
華@@
语

ĉ@@
ſ@@
ɾ@@
Λ@@
Σ@@
Χ@@
ρ
У
ѕ
ַ@@
ד
گ@@
र@@
்
ื@@
შ@@
ế@@
◎
あ@@
っ
は
は@@
る@@
コ@@
匿@@
十@@
名
国
场@@
城
寿@@
小@@
当@@
心
易@@
民@@
的
知@@
線
西@@
見@@
里@@
重@@
어
한@@

&@@

Ě@@
į
ŕ
ɨ
τ
Ѓ
Њ
Б
Х
ќ
ў@@
ֹ@@
ش
ْ@@
۱@@
۲@@
र
ด
ู@@
โ@@
์
་
ტ@@
უ@@
ხ@@
በ@@
ዓ@@
ḥ@@
ả@@
ữ@@
₤
▪
◊
♣
《
》
き@@
こ@@
よ@@
る
ア@@
シ@@
チ@@
マ@@
上
中
了@@
五@@
交@@
京@@
以@@
体@@
元
元@@
克
免@@
八@@
原@@
大
娱@@
字
州@@
年@@
店
明@@
来@@
湯
物
県
羅
茶
赌@@
雄@@
電@@
風@@
香@@
駅
로



Ù@@
Û
Ā@@
ġ@@
Ī@@
ǐ@@
ɨ@@
˜
Γ@@
Θ@@
Ο@@
Τ
М
ґ@@
ҡ@@
ְ@@
ִ@@
כ@@
ز
۞
്
ค
ต
บ
ภ@@
ร
ล
ห
อ
า
ຸ@@
თ@@
ረ@@
የ@@
ữ
‌
‛
┐
✿
さ@@
す@@
た
ひ@@
わ@@
ん
オ@@
カ@@
キ@@
テ@@
ナ@@
ャ@@
ル
下
事@@
二@@
信@@
公@@
利@@
前@@
剥@@
华@@
口@@
和
四@@
回@@
多@@
套@@
家@@
建@@
式@@
方@@
木
木@@
本
水@@
浦@@
深@@
清@@
空@@
臺@@
舞@@
解@@
载
过@@
都@@
酒@@
長@@
青@@
音@@
高@@
국@@
서@@

Ò
Ć
Ě
Ğ@@
ħ@@
Ň@@
Ū@@
Ů@@
Ÿ
ſ
ƒ@@
ɫ@@
ɾ
ʃ@@
ʻ@@
̄
Ά@@
Ρ
θ
ϊ@@
Ѕ@@
Ә@@
Ө@@
ج
۴
۷
۹
ि@@
ญ@@
ณ@@
ท
ผ@@
ึ@@
მ
ს@@
ქ@@
ም@@
ቀ@@
ተ@@
ይ@@
ễ@@
ổ@@
┌
▼
☆
♀
お@@
が@@
く@@
じ@@
ウ@@
ス
フ@@
东
为@@
京
体
你@@
修
内@@
円
動@@
发@@
吉@@
名@@
后@@
啦
國@@
士@@
太@@
子
字@@
定@@
家
居@@
屋
庆@@
徐@@
得@@
手
援@@
支@@
敏
明
是@@
更@@
最@@
楽@@
比@@
湖@@
灣@@
焼@@
物@@
特@@
王@@
珠@@
生@@
相@@
能@@
自@@
色@@
艳@@
街
西
言@@
記
这@@
都
门
降@@
陳@@
面@@
風
馬
馬@@


ﬁ
．
；
￥
Ă
Ą@@
Ċ@@
ĩ
ļ
ɑ
ɔ
ʒ
ʲ@@
ː
˙
̆
̣
ΐ@@
Δ
Ζ@@
Η
Η@@
δ
Ў
З
Э
ќ@@
ў
ҙ@@
ג
ז
ז@@
ئ@@
ح
ِ
अ@@
क
च@@
न
म
म@@
ल
ह@@
ु@@
े@@
్
ข
ช
ธ@@
ิ
კ@@
ც@@
መ@@
ኣ@@
ክ@@
ṭ@@
ṳ
ṳ@@
ấ@@
ắ@@
ẽ
ồ@@
ỹ@@
ἰ@@
₩
℃
⋅
┘
█
▸
♠
➲
」
し
だ@@
ち@@
ば@@
ふ@@
ま
め@@
り
ェ@@
ク
ク@@
サ@@
タ@@
ツ@@
ト
ド@@
ハ@@
パ@@
ビ@@
ユ@@
ラ
ロ@@
ワ@@
东@@
个@@
丹@@
九@@
交
亿@@
仁
仁@@
伐
余@@
作@@
保@@
刘@@
功@@
北
南
危@@
参@@
吧
园@@
图
场
士
头@@
女@@
子@@
学@@
客
容@@
就@@
崎@@
川@@
州
帝
帥
幣
平@@
广@@
広@@
度@@
廣@@
开@@
引@@
强@@
必@@
成@@
戴@@
換@@
旅@@
日
村
板@@
林
株@@
水
江
没@@
测@@
湯@@
热@@
然@@
球@@
生
田
田@@
疫@@
皇@@
禅
立@@
管@@
義@@
腹@@
花@@
茶@@
蛋@@
行@@
角
読@@
赤@@
車@@
迅@@
釉@@
阿@@
食
飲@@
館
黄@@
구@@
김@@
벌
이



Æ
Ù
Þ
Ė@@
Ę
ġ
ĩ@@
į@@
ĺ@@
Ņ@@
Ō@@
Œ
ŝ@@
Ť@@
Ů
ƒ
ǎ
ǐ
ǔ@@
ɒ@@
ɔ@@
ɡ@@
ɫ
ʁ@@
ʊ@@
ʌ@@
ʿ@@
̀
ζ
Є@@
Ј@@
П
Т
ј
њ
ћ@@
Ҡ@@
ү
ב
ס
ץ
ק
ש
ظ@@
ٍ
َ
त
त@@
द@@
ध@@
प
प@@
ब@@
य@@
ो@@
া@@
ু@@
ป
ษ@@
ุ
ู
฿
๊
๑
ງ@@
ນ
ວ@@
ັ@@
္
ህ
ር
ሻ
ባ@@
ቶ@@
አ
እ@@
ኦ@@
ው
ገ@@
ጨ@@
ጽ
፣
ᐃ@@
Ḥ@@
ṃ@@
ṭ
ằ@@
ị
ố
ố@@
ờ
ợ@@
₵
↓
⇗
⌘
③
◇
◙
♫
々
「
え@@
か
き
せ@@
て
で
の
へ
み
ょ@@
ら
ん@@
ゴ@@
ジ
セ@@
ペ@@
ョ@@
リ@@
一
三
两@@
乎@@
乗@@
也
了
事
二
云@@
井@@
亜
付@@
价@@
儀
八
六@@
共@@
关@@
内
几@@
別@@
加@@
区@@
卓@@
友@@
双@@
古@@
只@@
号
吉
向@@
呂
哈@@
喜@@
器@@
圓
圓@@
外@@
妻
始@@
宜@@
実@@
宣@@
密@@
寶@@
少@@
局@@
島
島@@
已@@
巴@@
师@@
幹@@
应
廣
张@@
張@@
很@@
志@@
快@@
急
惧@@
所@@
拳
持@@
揃@@
提@@
收@@
教@@
整@@
新
易
昭@@
書@@
月
有
杨@@
架@@
梁@@
梅@@
检@@
楽
横@@
次@@
氣
求@@
江@@
湾
溥@@
濟@@
無@@
状@@
王
甜@@
电@@
白
百@@
皇
看@@
眼@@
社
福@@
秀@@
种@@
科
科@@
米@@
系@@
置@@
羅@@
而@@
胡
脑@@
英@@
血
装@@
裕@@
要@@
親@@
設@@
許@@
話
話@@
计@@
谷
超@@
越
路@@
込@@
通@@
道@@
達@@
郎
部@@
鄭@@
配@@
酎
野@@
量@@
钧@@
长@@
関@@
關@@
问@@
际@@
陽
雷@@
非@@
面
革@@
音
题
飛@@
鵜@@
龍
라
수@@
신@@
주@@
태@@

Ĉ@@
đ
Ħ@@
ĭ
Ļ@@
Ľ
Ł
Ś
ũ
ũ@@
Ű@@
ŷ@@
Ɲ@@
Ơ@@
ơ
Ʀ@@
ǒ@@
ǵ
ɒ
ɣ@@
ɤ@@
ɬ
ɹ
ɹ@@
ʀ@@
ʒ@@
ʔ@@
ˤ@@
̧
͘
͡
Ε
Θ
Κ
Μ
Σ
Φ
Χ
έ
κ
ψ
Џ
Ц
Ю
ъ
љ@@
Ғ@@
ә
ֵ@@
ׁ@@
א
ו
ח
؛
أ
ث
ټ@@
چ@@
ک
ې
ە@@
۩
۵
۵@@
आ@@
ण@@
ल@@
व@@
श
ष
स@@
ी
ট@@
ত
ন
ন@@
প@@
ব
ব@@
ম@@
য
র
র@@
হ
়
ি@@
க@@
ட@@
ன
ப@@
ம
ர
ல@@
ா@@
ூ@@
ோ@@
ం@@
న@@
ర
ా@@
್
ക
മ@@
ി@@
ീ@@
ญ
ฎ@@
ธ
ผ
ฝ@@
ฟ@@
ศ
ึ
ๆ@@
๋
ຄ@@
ດ@@
ຖ@@
ມ@@
າ@@
ຽ@@
བ@@
ོ@@
ნ
ღ
ღ@@
ሕ
ር@@
ሰ@@
ን@@
ዋ
ዲ
ᓄ@@
ḥ
ṇ@@
ầ@@
ậ@@
ế
ỉ
ỉ@@
ị@@
ồ
ợ
ụ@@
ủ
ừ@@
ự@@
Ἀ@@
Ἔ@@
ῖ@@
ⁿ
₣
℮
⅔
↔
⇔
∀
∃
∼
①
└
┴
◦
☎
☺
☼
➔
〔
〕
う
お
く
ぐ@@
け@@
こ
ご@@
ず@@
づ@@
ぶ@@
ぼ@@
も
や
れ
ろ
ゑ
を
ィ@@
カ
ガ@@
ケ@@
ゲ@@
ザ@@
ダ@@
デ@@
ド
ナ
ニ@@
ネ@@
ハ
ヒ@@
ブ@@
プ@@
モ@@
ュ@@
ヨ@@
与@@
为
主@@
举@@
义@@
之
乾@@
于@@
些@@
亜@@
仙
代@@
仲
传@@
伯@@
但@@
住@@
佐@@
使@@
侍
便@@
假@@
健@@
光@@
全@@
兴@@
兵@@
其@@
具@@
円@@
冰
决@@
凄@@
刀
分
刚@@
判@@
到@@
剧
加
包@@
千@@
半@@
协@@
单@@
卦
原
去@@
参
反@@
受
司@@
同@@
含@@
听@@
吴@@
吹@@
员@@
味@@
唐@@
唸@@
商
商@@
啦@@
喫@@
嘟@@
器
园
图@@
國
土@@
地@@
圳@@
垣@@
場
塊
売@@
处
复@@
夫
夹@@
女
奶@@
如@@
存@@
學
宁@@
宗
宝
宝@@
宮
寧@@
寸
对
将@@
尔@@
屋@@
属@@
岸@@
嶼@@
巨@@
巻@@
市@@
帝@@
平
幸@@
庁
库@@
应@@
弁@@
弄@@
弔@@
彩@@
後@@
徒@@
微@@
德@@
心@@
応@@
思
急@@
怪
想@@
愛
愛@@
慣@@
成
截@@
戸@@
払@@
技@@
折@@
抜@@
报@@
担@@
拉@@
拳@@
按@@
振@@
据@@
捷@@
排@@
掻@@
握@@
損@@
摩
放@@
故@@
斗@@
料
斯@@
族@@
时@@
春@@
是
晨@@
普@@
景
智@@
書
月@@
朝@@
机
村@@
来
東
松@@
构@@
林@@
柴@@
校
格@@
桩@@
梁
植@@
極@@
機@@
欢@@
歌
止@@
此@@
步
死@@
段
比
氏
気
気@@
氣@@
汇@@
汉@@
油@@
治@@
泉
注@@
泰
洋
洛
流@@
浙@@
浜@@
浴
海
渝@@
温@@
港
湖
溢@@
滞@@
潢@@
潭@@
点
熟@@
熨@@
爪@@
爱@@
片@@
牌@@
牙@@
珍@@
皮@@
監@@
目@@
真
知
石
示@@
社@@
种
租@@
秦@@
税@@
稲@@
章
竹@@
第@@
简@@
箍
箱@@
米
粤@@
粵@@
精@@
紂@@
紅@@
紙@@
級
細@@
網
约
经@@
统@@
绪@@
维@@
罗@@
羽@@
老@@
考@@
者
耐@@
聖@@
聞@@
肉
背@@
脱@@
臣@@
致
致@@
舞
良@@
花
若@@
菜
葉@@
蒸@@
藤
藤@@
號
術
衡@@
表@@
裂@@
见
见@@
言
訊
記@@
议
讯
设@@
语@@
说
谈@@
販@@
貸@@
贊
起@@
越@@
身
載@@
车
较@@
辛
辭
达@@
迎@@
近@@
返@@
送@@
适@@
选
选@@
透@@
速@@
連@@
運
過@@
遠@@
郑@@
采@@
鉋@@
銭@@
鍋
鏡@@
钱@@
银@@
門
開@@
陀@@
院
陶@@
隆
隆@@
难@@
雲@@
雷
靳@@
頭
页
页@@
颖
馆@@
駄@@
體
黃@@
黒@@
龙@@
나
단@@
대@@
도
라@@
레@@
루
르@@
바@@
보@@
사@@
셔@@
시
울
월
인@@
일
제@@
지@@
턴
퍼@@
한






ﺏ@@
ﺤ
ﺩ@@
ﻁ
ﻙ@@
ﻫ
？
Ｉ@@
Ｖ@@
［
￠


Ë
Ă@@
ĉ
Ē@@
ĕ
ĝ
Ġ@@
ĥ
ĭ@@
ĵ
ĵ@@
ĸ
ĸ@@
Ň
ŋ@@
ŕ@@
Ř
ŝ
ų@@
ŵ@@
Ź
Ź@@
Ɔ@@
Ƒ@@
Ɠ@@
Ɩ@@
Ƙ
ƛ@@
Ɲ
Ƭ@@
ư
ǟ@@
ǫ
Ǵ
Ǻ
ȃ@@
ș
Ȥ
ɕ@@
ɚ
ɛ
ɪ
ɴ
ɵ@@
ʊ
ʋ@@
ʐ
ʦ
ʦ@@
ʲ
ʼ
ʾ@@
ˑ@@
̂
̇
̡
̱
΄
Έ@@
Ώ
Β
Ζ
Π
Ω@@
Ё@@
Ў@@
Ч
Ы
Ы@@
Ь@@
Я
ђ@@
ѓ
ћ
Ѳ
ѳ
Ґ@@
ґ
Ұ
Ҳ@@
ҳ
ҳ@@
ֲ@@
ֶ@@
ׁ
צ
خ
ص
ظ
غ
ى@@
ْ
ٹ
ځ@@
ڠ@@
ڤ@@
ڬ@@
ڭ
ھ
ھ@@
ہ@@
ۂ
ۇ@@
ې@@
۰
۸
۹@@
ߧ@@
ई
ई@@
क@@
छ@@
ञ
ट@@
थ@@
द
न@@
ब
श@@
स
ह
ा
ि
ॐ
०@@
१@@
५
९@@
ই@@
ক
গ
চ@@
ট
ম
ল
ল@@
হ@@
ি
ো@@
ৰ
ৰ@@
ங
ச@@
த
த@@
ன@@
ய@@
வ@@
ஷ@@
ி
ி@@
ு@@
ெ@@
ை
ఆ@@
క@@
గ@@
జ@@
డ
ద@@
ధ
ప
ర@@
శ
ు@@
ే@@
ొ@@
ಐ@@
ಯ@@
ರ
ರ@@
ವ@@
ಶ
ಾ
ೈ
അ@@
ക@@
ത@@
ദ
ന
ന@@
പ
യ
ല@@
വ
വ@@
ഷ@@
ോ@@
ซ@@
ฐ@@
ฑ@@
ฒ@@
ณ
ถ
พ
ฤ@@
ๆ
ຂ@@
ຈ@@
ບ
ລ@@
ວ
ົ
ເ@@
້
ໜ@@
ཏ
ད
ན
མ
མ@@
ཚ@@
འ@@
ལ@@
ས@@
ཱ@@
ི
ོ
ྔ@@
ླ
န
ရ
ဝ
သ@@
ဟ
ေ@@
ბ
დ
ე
ზ@@
ლ
ო
პ@@
რ
ძ@@
წ@@
ჯ@@
ሊ@@
ል
ሓ@@
ሙ@@
ሥ@@
ረ
ራ
ሴ
ሽ
ቐ@@
ቢ@@
ት
ነ@@
ን
አ@@
ካ
ዕ
ይ
ደ@@
ድ@@
ጋ@@
ጽ@@
ፅ@@
ፈ
ፍ@@
ᑦ
ᒃ
ḇ@@
ḏ
ḗ
Ḫ@@
ḫ@@
ḳ@@
ṛ
ṛ@@
ẋ@@
ạ
ả
Ẳ@@
ặ@@
ẻ
ề
ể
Ọ@@
ọ
ỏ@@
ỡ
ứ@@
ử
ử@@
ự
ỹ
ἀ@@
ἄ@@
ἐ@@
ἑ@@
ἠ
ἠ@@
ἡ
ἦ@@
Ἡ@@
Ἱ@@
Ὑ@@
ά@@
ὶ@@
ῆ@@
ῥ@@
‒
‖
‟
‶
‼
‽
₁
₠
₪
₴
⃛
ℓ@@
℔
Ω@@
⅓
⅛
Ⅱ
↧
∈
∑
∴
∶
≠
≡
⌃
②
┬
╞
░
□
▲
◈
☏
☑
☯
☻
♂
➚
Ⰶ
々@@
〜
ぁ
あ
ぃ
ぇ
が
ぎ
ぎ@@
ぐ
け
げ
ざ@@
じ
ず
せ
ち
ぢ
ぢ@@
つ
づ
と
ど@@
な
に
ね
ね@@
ば
び@@
ぷ
べ@@
ほ@@
む@@
ゃ
ゃ@@
ゅ
ょ
わ
ゐ
ゔ
゛
゜
ァ@@
ア
イ
ゥ@@
エ@@
ォ@@
グ
ケ
コ
ズ
ズ@@
ダ
ッ
ヌ@@
ネ
ノ@@
パ
ピ@@
フ
ヘ
ベ@@
ホ@@
ミ
ミ@@
ム@@
メ
ワ
ㄅ@@
ㄆ@@
ㄇ@@
ㄈ
ㄤ
㎡
七@@
万@@
专@@
丘@@
业@@
丨
临@@
丸
主
丽@@
久@@
之@@
乌
乏@@
乗
乘
乙
也@@
乡@@
乱@@
乾
争@@
亚@@
产@@
什
仅@@
今
今@@
介
介@@
仍@@
从@@
付
仝
代
以
仪
仮@@
件
价
伊@@
伏@@
休@@
众
伝@@
伟
传
伯
估@@
伴@@
伸@@
但
位@@
低@@
佑
何
何@@
佰
依@@
俊
俊@@
保
信
倉@@
個@@
倒@@
值@@
做
健
側@@
備@@
储@@
傳@@
像
先@@
內@@
兩@@
公
六
冊@@
农
农@@
冤@@
况@@
冷@@
净@@
凄
准@@
减@@
刑@@
列
列@@
则@@
別
利
别
到
制
刺@@
則@@
剑
剣
劇
劇@@
劉
力@@
务
务@@
助@@
勝@@
勞@@
勢
勢@@
勿@@
化@@
匡@@
医@@
區
升@@
卍
卐
卖@@
卡
卦@@
印
危
即@@
却@@
厂@@
去
及@@
发
受@@
变@@
叡@@
叫@@
史@@
右
吃
吃@@
合
吗
否@@
吧@@
吳@@
吾@@
呀
呆@@
呉@@
告@@
呑@@
周
呼
呼@@
命@@
咬@@
哈
哥@@
唐
售@@
問@@
喂
喇@@
嘉@@
嘛
嘛@@
噌
噛@@
嚴@@
四
回
囧
圆@@
圍@@
園
園@@
圖
土
坂
均@@
坐@@
块
坝@@
坡
坡@@
坤
坪@@
型
埔@@
域
基
基@@
堂
堆
堤@@
堰
報
報@@
場@@
塗@@
塩@@
塾@@
増@@
壊@@
壳@@
壹@@
壽
备@@
変@@
夕@@
外
夛@@
夜@@
夢@@
天
央
央@@
夷@@
奇@@
奈@@
奚@@
妖@@
妤
妻@@
委@@
威@@
娃
娣
婁
婦@@
媛@@
季@@
学
完@@
宏
官@@
定
实@@
客@@
室
室@@
宫@@
宮@@
寄@@
寳
寶
寸@@
寺@@
寿
尘@@
尽@@
尾
尿@@
屈@@
届@@
屏@@
展@@
屯@@
屿@@
岐@@
岗@@
岡@@
岩@@
岭
岭@@
岳@@
峽
崔
崖@@
崩@@
嶺
嶺@@
川
工@@
左@@
巧
巧@@
己@@
布
布@@
希@@
帯@@
幌@@
幡@@
干
干@@
并@@
幾@@
広
庄@@
序
底
店@@
庚
府
庫
庫@@
庭@@
康
康@@
廃@@
弁
式
当
形@@
役@@
彻@@
征@@
待
律
律@@
復@@
徳
徳@@
徽
志
応
忠@@
怒@@
怡@@
恋@@
息
悟
您@@
悩@@
悬@@
惠@@
意
意@@
慈
態
態@@
慎
慢@@
慶
慶@@
憨@@
憩@@
憶@@
憾
應@@
我@@
戒@@
或@@
戻@@
所
扈@@
才@@
打@@
找@@
承@@
投@@
折
护@@
报
抹@@
押@@
拒@@
拓@@
招@@
拟@@
择@@
括
括@@
拼@@
拿@@
持
挡@@
掛@@
採@@
探@@
接@@
控@@
推@@
揂@@
揚@@
搅@@
搞
携@@
摂@@
摇@@
摩@@
撤@@
撫@@
撮@@
操@@
改@@
攻@@
政@@
敏@@
救@@
教
散@@
敬@@
数@@
料@@
施@@
族
无@@
旧@@
旭
昌@@
星@@
显@@
時@@
晏
晏@@
景@@
暨@@
暫@@
曌
曹@@
曾@@
朔
朗
望@@
期@@
札
札@@
术@@
朱@@
李
杏
材
材@@
条@@
杭@@
板
析@@
果
果@@
枡
染@@
柔@@
查@@
柱
根@@
格
栽
桃@@
框
案@@
桜@@
桥
桶
棲@@
検@@
楠
業@@
楼
樓@@
標
模@@
樹
樹@@
橋@@
機
檀@@
欢
款@@
止
武
歩@@
歸@@
死
殊@@
殻@@
母@@
毎@@
每@@
毓@@
毛
氏@@
气
气@@
永@@
汁
求
池
汴
汴@@
決@@
沈@@
沙@@
沛@@
沢
沪@@
油
沿@@
況
泊@@
法
波@@
泥@@
泰@@
洋@@
洗@@
洞
洞@@
洪@@
派@@
济@@
浦
浮@@
浴@@
消@@
混@@
淹@@
清
済
済@@
渋@@
渝
渡@@
温
港@@
渲@@
湘
湘@@
湾@@
満@@
溜@@
溝@@
溪
溪@@
滇@@
滨
漢
漫@@
潮@@
澄
澎@@
澤
澳@@
濱
灣
火@@
灯
灰@@
灾@@
炎@@
炯@@
為@@
烈@@
烏
烧@@
煙
煙@@
照@@
煩@@
煮@@
熊
熊@@
熱@@
燕@@
燗
爛@@
父
父@@
爻@@
爾@@
片
牛@@
独@@
献@@
玄
玉@@
环@@
珈@@
珍
珠
球
理
理@@
琢
琲
璐
環@@
瓊@@
瓶
瓶@@
申@@
男
町
町@@
画
画@@
留@@
畿@@
疆
疆@@
疗
疫
病
病@@
痛@@
痴
痴@@
癌
発
登@@
皮
盆@@
益
监@@
盛@@
盧
目
省
真@@
眩@@
着@@
睛@@
瞎@@
瞻
码@@
砂@@
破@@
确@@
碁
碧
磁@@
磨
磨@@
礼@@
祖
祖@@
票@@
祭@@
祸
祿@@
禁@@
禪
禹
私@@
秉@@
秋
积@@
称
移@@
稅@@
程@@
税
稲
稼@@
稿
空
站@@
筆@@
等@@
筑@@
答
签@@
箕@@
箱
節
簡@@
粉
粤
粵
精
糖@@
紂
紋
紋@@
納
純@@
素
素@@
索
索@@
紧@@
紹@@
終@@
経@@
絞@@
統@@
經
継@@
続@@
総@@
線@@
縣
繁
織@@
红@@
约@@
纽@@
线
线@@
细@@
终@@
绍@@
经
绝@@
罪
署
署@@
群
義
羲
翁@@
習@@
翻@@
耀@@
老
者@@
耳@@
耶
联
聼@@
股
育@@
背
胞
胡@@
能
脖@@
脚@@
腔
腹
膚
膚@@
臂@@
臓
臨@@
至@@
興@@
舊@@
航
航@@
舫@@
般@@
艮
色
节
芋@@
芝
芝@@
芦@@
茂@@
茜
茨@@
草
草@@
荣@@
荷@@
莨
莲@@
获@@
莹@@
菜@@
菩@@
萬
董@@
蒋@@
蓟
蓮
蔓@@
蔚
蔣@@
蕭
薊
藍@@
藏
藕@@
蘇
虑@@
螨
螨@@
螳@@
血@@
衆@@
行
街@@
表
裂
製@@
要
覧@@
観@@
视@@
訃@@
討@@
訓
訓@@
設
訳
試@@
詩
詰@@
詳@@
詹
語@@
說@@
説
調@@
談
請
請@@
論
警@@
譯@@
護@@
讃@@
變@@
计
讨@@
许@@
论@@
讼
证
证@@
评
识@@
诉@@
试
试@@
该@@
详@@
请
调@@
谋@@
谢
谢@@
谷@@
豆@@
豊@@
豐@@
豫
豫@@
貌
負@@
財@@
貢@@
貮@@
貰@@
費
賀@@
資
賈@@
賢
贞
货
购
购@@
贱@@
贷@@
资
资@@
赖@@
赛@@
赵@@
赶@@
足
足@@
跆
跆@@
跋@@
跨@@
蹟
躇@@
躊@@
車
転
較@@
輪@@
车@@
转@@
辞@@
辱@@
農
迎
近
这
进@@
述@@
逃@@
途
通
造
造@@
逢@@
逸
遇@@
遗@@
適@@
遷
遽@@
還@@
邊@@
邑
那
邱
邱@@
郑
郝@@
郡
部
郷@@
鄂
釣@@
鈴
鉄@@
銀@@
録@@
鎚@@
鏡
鐵
针@@
钟@@
钢@@
钦
铁
铭@@
销
锈@@
锋
锋@@
锦@@
键@@
長
門@@
間
間@@
閥
门@@
问
阪@@
防@@
阳
阳@@
阶@@
陈
陈@@
限@@
除@@
陰@@
陵
陵@@
隊
際
際@@
雙@@
雛@@
難
雨@@
雪@@
雲
電
需
需@@
霊
霊@@
霖
霜@@
露
露@@
静@@
韓@@
韻
項
順
順@@
須@@
頑@@
領@@
題
題@@
顯@@
顾@@
预@@
颐
题@@
颜@@
额@@
风@@
飛
飼
飼@@
馆
駅@@
騙@@
騜@@
驗@@
验
验@@
骨@@
體@@
鬼
鮨
鮮
鯨
鱲@@
鳩@@
鷹@@
鸡
鸭@@
鸯@@
鸳@@
鹅@@
麗
麩@@
黄
黎@@
點@@
黨
鼻
鼻@@
齋
龙
겜@@
경
계@@
고@@
곡@@
구
국
권@@
글
뀌@@
나@@
녀
노@@
누@@
는
니@@
닌
다
동
드
드@@
디@@
딘@@
딩@@
려
령
로@@
르
린@@
마@@
막@@
맨@@
면
목
무@@
문@@
미@@
백@@
뱅
번
베@@
변@@
블
블@@
빅@@
빌
사
산
선
성
성@@
세@@
셀@@
수
스
스@@
습@@
승
싱@@
알@@
압@@
야
양
었@@
에
에@@
영@@
오
요@@
웅@@
워@@
웨@@
위@@
유@@
율@@
으
으@@
을@@
읍
이@@
일@@
전
정
정@@
조@@
종@@
주
천@@
체
체@@
충@@
치
치@@
클@@
키@@
태
터
퇴@@
트@@
티@@
피@@
호@@



金@@
ﬂ
︰
ﺍ
！
＄
＊
１
２@@
７@@
９@@
Ｐ
Ｐ@@
Ｓ@@
］
ｂ@@
ｄ
ｅ
ｈ@@
ｌ@@
ｏ@@
ｓ
ｕ@@
､
･
ｫ
ｻ@@
ｿ@@
￼
